[PAD]
[UNK]
[CLS]
[SEP]
[MASK]
[UNUSED0
[UNUSED1
[UNUSED2
[UNUSED3
[UNUSED4
[UNUSED5
[UNUSED6
[UNUSED7
[UNUSED8
[UNUSED9
[UNUSED10
[UNUSED11
[UNUSED12
[UNUSED13
[UNUSED14
[UNUSED15
[UNUSED16
[UNUSED17
[UNUSED18
[UNUSED19
[UNUSED20
[UNUSED21
[UNUSED22
[UNUSED23
[UNUSED24
[UNUSED25
[UNUSED26
[UNUSED27
[UNUSED28
[UNUSED29
[UNUSED30
[UNUSED31
[UNUSED32
[UNUSED33
[UNUSED34
[UNUSED35
[UNUSED36
[UNUSED37
[UNUSED38
[UNUSED39
[UNUSED40
[UNUSED41
[UNUSED42
[UNUSED43
[UNUSED44
[UNUSED45
[UNUSED46
[UNUSED47
[UNUSED48
[UNUSED49
[UNUSED50
[UNUSED51
[UNUSED52
[UNUSED53
[UNUSED54
[UNUSED55
[UNUSED56
[UNUSED57
[UNUSED58
[UNUSED59
[UNUSED60
[UNUSED61
[UNUSED62
[UNUSED63
[UNUSED64
[UNUSED65
[UNUSED66
[UNUSED67
[UNUSED68
[UNUSED69
[UNUSED70
[UNUSED71
[UNUSED72
[UNUSED73
[UNUSED74
[UNUSED75
[UNUSED76
[UNUSED77
[UNUSED78
[UNUSED79
[UNUSED80
[UNUSED81
[UNUSED82
[UNUSED83
[UNUSED84
[UNUSED85
[UNUSED86
[UNUSED87
[UNUSED88
[UNUSED89
[UNUSED90
[UNUSED91
[UNUSED92
[UNUSED93
[UNUSED94
[UNUSED95
[UNUSED96
[UNUSED97
[UNUSED98
[UNUSED99
%
.
0
1
2
3
4
5
6
7
8
9
a
b
c
d
e
f
g
h
i
j
k
l
m
n
o
p
q
r
s
t
u
v
w
x
y
z
·
¼
×
α
ᄀ
ᄁ
ᄂ
ᄃ
ᄄ
ᄅ
ᄆ
ᄇ
ᄈ
ᄉ
ᄊ
ᄋ
ᄌ
ᄍ
ᄎ
ᄏ
ᄐ
ᄑ
ᄒ
ᅡ
ᅢ
ᅣ
ᅤ
ᅥ
ᅦ
ᅧ
ᅨ
ᅩ
ᅪ
ᅫ
ᅬ
ᅭ
ᅮ
ᅯ
ᅰ
ᅱ
ᅲ
ᅳ
ᅴ
ᅵ
ᆨ
ᆩ
ᆪ
ᆫ
ᆬ
ᆭ
ᆮ
ᆯ
ᆰ
ᆱ
ᆲ
ᆴ
ᆶ
ᆷ
ᆸ
ᆹ
ᆺ
ᆻ
ᆼ
ᆽ
ᆾ
ᆿ
ᇀ
ᇁ
ᇂ
―
‘
’
…
‧
₂
℃
ℓ
⅓
⅔
ⅱ
ⅲ
ⅳ
↑
→
↓
↔
∙
∼
①
②
③
④
⑤
⑥
⑦
⑨
⑩
⑪
⑫
○
♥
ㄴ
ㆍ
㈜
㎃
㎏
㎒
㎓
㎖
㎛
㎜
㎝
㎞
㎡
㎥
㎾
㏊
丁
七
三
不
中
乙
亞
人
仙
代
令
企
伊
休
佛
來
備
先
內
全
分
前
劉
勝
北
千
協
南
印
反
古
史
告
和
四
在
外
大
女
妻
委
子
孫
安
家
富
寒
對
小
尹
尼
展
山
島
崔
州
巨
市
年
式
弗
强
後
心
情
惡
戰
政
故
敎
文
料
新
族
日
書
曺
最
月
朴
李
株
核
案
樂
機
檢
比
氣
氷
江
法
洪
海
港
湖
潘
無
煎
燈
父
狼
獨
王
現
生
申
男
發
百
盧
眞
知
破
硏
社
神
禹
私
秋
稅
空
童
約
羅
美
者
脫
臺
與
舊
色
花
英
茶
萬
蘭
號
行
西
親
詩
誌
說
論
證
警
賞
超
趙
車
軍
通
道
選
邪
鄭
酒
醫
里
重
野
金
銀
銅
阿
院
靑
非
韓
風
香
駐
體
高
魚
黃
黨
％
＆
＋
＞
？
ｇ
ｍ
##ᅩ
##ᆼ
##ᄆ
##ᄌ
##ᅥ
##ᆫ
##ᄋ
##ᅦ
##ᅢ
##ᄒ
##ᄎ
##ᅡ
##ᆯ
##ᅲ
##ᄀ
##ᅧ
##ᆸ
##ᅪ
##ᄅ
##ᅵ
##ᅴ
##ᄉ
##ᆨ
##ᄇ
##ᅱ
##ᅮ
##ᆽ
##ᅳ
##b
##o
##ᄃ
##ᅭ
##ᆷ
##ᅬ
##s
##k
##t
##ᅯ
##ᄐ
##ᄂ
##ᄑ
##9
##0
##ᆺ
##ᄁ
##2
##ᆻ
##ᄄ
##v
##m
##d
##ᄏ
##5
##c
##ᅣ
##ᅨ
##ᄊ
##ᇂ
##ᅫ
##ᄍ
##4
##3
##1
##7
##8
##ᆹ
##e
##f
##a
##ᆭ
##6
##ᆱ
##ᅰ
##g
##u
##ᆮ
##ᇀ
##ᄈ
##.
##l
##p
##j
##r
##ᆾ
##ᇁ
##i
##ᆰ
##ᆩ
##ㆍ
##ᆶ
##h
##…
##w
##n
##x
##ｍ
##ᆲ
##z
##q
##ᆿ
##ᆪ
##·
##y
##ｇ
##ᅤ
##ᆬ
##→
##⅓
##ᆴ
##ㄴ
##↑
##∼
##α
##○
##ℓ
##⅔
##↓
##ⅳ
##ᅡᆫ
##ᅡᆼ
##ᅩᆼ
##ᅥᆫ
##ᅵᆫ
##ᅧᆼ
##이
##ᅥᆼ
##ᅧᆫ
##ᅮᆨ
##ᅳᆫ
##ᅡᆯ
##시
##ᅮᆫ
##에
##하
##ᅯᆫ
##스
##ᅮᆯ
##리
##ᅡᆷ
이
##로
##지
##기
##ᅩᆨ
##어
##서
##ᅡᆨ
##ᅳᆯ
##대
##해
##자
##의
##원
대
##사
##ᅳᆼ
##도
##주
##ᅥᆷ
##장
##ᅧᆨ
##화
##ᅩᆫ
기
##정
##다
##국
시
##고
##는
##과
##전
##상
##가
##종
##합
##인
##보
##회
주
##ᅳᆷ
##부
##구
##일
지
##수
##한
##성
##아
##트
##ᅢᆨ
##야
##제
##종합
사
##요
아
##은
전
한
##ᅧᆯ
##ᅥᆯ
##ᅩᆯ
##ᅥᆨ
##드
##ᅢᆼ
개
##위
##라
##년
##ᅥᆸ
##명
##유
공
##통
##진
##선
##세
##업
##만
유
국
화
수
정
신
##동
##산
##비
가
인
##ᅦ이
##ᅳ로
##ᅳᄅ
##나
##행
과
##공
##소
최
미
##용
연
##간
##치
##조
경
##개
중
부
##천
##민
##령
##단
추
마
제
##ᅥᆺ
##연
선
##피
##관
김
##안
##ᅯᆯ
##문
출
##재
##ᅳᆨ
##권
##계
여
##터
비
##표
내
##승
##발
##우
##신
##금
조
하
##ᅧᆸ
고
##미
##당
##호
##경
##적
보
##영
##들
우
오
##마
강
##통령
서
##니
영
##체
##프
##판
##ᅣᆼ
##파
##학
##식
한국
##란
##력
상
모
자
무
##억
##무
##출
##방
##교
해
##와
위
대통령
##래
##월
발
##러
##차
##그
안
나
스
##북
##속
##타
##티
##점
##여
어
방
감
##으로
일
소
##분
##중
문
다
##격
20
##내
구
##ᆻ다
##르
노
##바
10
##려
##포
##생
만
세
##실
도
##모
##까
##면
##설
예
등
첫
코
##입
올
바
##배
남
통
##운
##달
반
##을
##독
##역
##석
##청
##약
##크
##오
##하는
##임
의
삼
재
동
피
##거
##현
현
##키
호
##테
##카
##남
##울
##..
##게
##술
관
차
##협
##투
##반
##담
##법
실
성
북
확
##푸
##망
...
##디
불
장
총
평
##억원
##결
##축
##양
##매
##능
##류
매
##버
결
회
##증
금
##론
박
삼성
##ᅦ시
원
##심
외
##물
##노
교
lg
##ᅦᆫ
진
sk
##작
##감
새
##규
##건
후
##코
특
##환
포
##두
##료
##ᆯᄅ
##후
##급
##강
민
##저
##형
##폰
##할
와
거
배
##태
트ᄅ
##토
이란
##험
카
작
요
증
##픽
게시
단
##에서
게시판
##직
kt
서울
출시
프로
투
##항
감독
파
##패
##ᅥᆷ프
그
##림
##군
청
협
역
##네
없
##리아
##언
##박
더
##책
로
##까지
손
트럼프
초
##익
##립
##집
것
##송
참
검
##복
당
논
에
신간
##난
체
##품
##린
##00
폭
##준
##총
##락
##광
분
##말
##막
##질
##루
##데
##되
##ᅩᆼ구
홍
베
##본
임
##부터
##율
계
##외
돌
##ᅳ래
승
##즈
##찰
##택
리
야
##육
##융
입
##2보
##ᅵᆷ
합
##쟁
##등
##병
##음
중국
##워
##해야
충
##분기
광
현대
두
축
##각
##추
##은행
##플
열
##컵
##마트
##엔
집
##최
5g
타
##스트
##련
##ᅦᆨ
##시아
##범
러
생
속
정부
##농구
##비스
산
대표
##팀
##째
##ᅧᆷ
최고
월
독
완
kb
태
##근
규
설
올해
앞
##견
양
행
##ᅦ임
판
채
##번
언
경기
개발
##창
##철
##종합2보
미국
스마트
개최
적
##록
##향
코스
##회담
김정
알
지원
취
##처
가능
달
##별
##전자
세계
##날
201
11
##히
법
##객
학
패
영업
핵
##탄
국민
네이
애
맞
##위원
공개
##씨
##애
##더
민주
드
직
##레
##온
만에
작년
터
탈
##악
##ᅲ스
환
건
##벌
목
사망
##드컵
국내
창
30
저
##회의
군
##로나
##흥
##징
##극
##만원
본
##검
##람
류
운
그래
##ᆯ리
##즌
최대
##예
##져
우리
##를
심
##글
##증권
남북
##츠
##베
##든
명
북한
여자
##편
##럽
##길
변
##런
##량
김정은
##른
12
복
##탈
종
토
##목
##대표
전국
물
네이버
15
##경기
##현진
라
##핵
##센
100
##희
##늘
##상회담
류현진
##만에
##름
갤ᄅ
##리그
##ᆫ드
##초
##케
눈
##배구
급
##ᅥᆨ시
개막
부산
그래픽
##시장
##엘
갤럭시
##족
##웨
##평
푸
##주의
간
##림픽
터키
##열
##색
##ᅳ리
##혁
황
월드컵
##응
내일
##돌
##풍
##훈
##페
추진
디
휴
여행
끄
##절
아이
내년
ai
말
##찬
##곳
테
활
1위
##콩
미래
##메
1천
##폭
##득
##투자
##보다
방문
##대회
코로나
금융
##에도
경제
철
##골
13
캐
##브
기업
꺼
또
탄
총리
skt
않
일본
##연승
##lb
투자
허
##턴
못
날
연속
##ᆯ러
음
##채
되
시즌
서비스
강화
홈
증가
언론
온
##순
##된
연구
제주
논란
치
##게임
압
국제
##불
국회
코스피
넘
확대
꺾
mlb
필
찾
##19
##블
##지만
선수
순
##션
##교육
난
살
업
준
##핑
##틀
##퍼
아시
##기업
시리아
홍콩
##기술
골
##활
기술
오늘
##념
듯
##돼
##넷
끝
러시아
결정
##ᅦᆨ시
##카오
아시안
##너
##황
스마트폰
##퇴
외국
##습
기대
시작
후보
백
##커
공격
극
주말
가능성
막
논의
유럽
##공사
##례
갤
18
줄
책
##혹
##던
꺾고
##캐
대한
점
항
##률
있
상승
메
##랑
##ᆨ스
프로농구
돌파
축구
19
권
##장에
발표
없어
합의
때
이스
내달
##축제
카카오
클
##변
##냐
50
##정상회담
처
국가
부상
##균
격
추가
네
##움
평양
특징
광주
##한다
##만명
승리
시위
선거
해외
##스타
##ᅳᆯ어
표
히
함
##겨
강원
##협회
영업익
기자
특징주
##착
##겠다
코로나19
##20
인터
촉
레
##지원
##닝
##손
##염
##귀
##레이
##없
##개월
##흥민
울
##ᆺ데
하락
손흥민
25
##백
목표
##주년
관광
16
이상
##금융
절
커
플
아시안게임
##께
영상
롯데
은
##올
사업
##ᅳ루
##살
##존
우려
##세요
친
##먼
버
##축구
송
할
##라인
##랜드
접
프ᄅ
##헌
윤
노동
악
피해
##ᆯ레
##ba
##하고
여성
규모
##랴
전망
14
약
판매
##시간
##침
협력
사우
##라엘
감소
여야
eu
##함
##위원장
폐
평화
##략
##액
##사업
제재
키
##ᅩᆾ
##봉
선정
##사일
우승
긴
##달러
##에게
시장
많
쿠
경찰
##파트
두산
뒤
##는다
vs
낮
이스라엘
22
21
##쇼
정상
과학
##반기
번
대구
##새
통신
콘
##자리
대선
하나
홈런
##럼
##클
##ᅥᆫ드
외국인
누
##휴
##혜
대화
총선
##총리
17
사이
##노트
농
석
기념
정치
##러스
구글
필요
대북
지지
##바일
방송
올림픽
##카드
인사
인천
사우디
##받
##센터
ki
페
##며
공동
실적
2018
근
##조원
이용
다시
성공
##대통령
수도
삼성전자
교육
24
편
혁
##장관
##획
장관
진출
참석
독일
##번째
##30
한국당
의혹
역대
테러
개인
문제
외교
준비
##누
겨
블
##특
##ᅦ이스
검토
40
대응
글
##라이
좋
받
##웨이
##으
질
퇴
경쟁
##널
##접
##연패
##니다
위기
lgu
23
##닥
##압
특별
전문
관련
희
위한
계약
갈
##뉴스
지역
##욕
최저
##항공
촉구
##측
유엔
수사
kbs
##대로
도입
##리카
##원장
안전
역사
복귀
1분기
천
##정보
충북
대학
전북
잘
##참
##민주
함께
뉴
인도
인터넷
브ᄅ
##죄
##효
징
수상
##ᅦ이터
nba
##벤
##정부
사장
봄
회장
2천
3년
귀
아파트
##문화
잡
##방송
##슈
공모
##두고
향
이어
대전
##산업
영향
용
##주의보
##조선
모바일
담
대비
주택
오후
요구
##슨
##단체
##자들
중단
##연구
문대통령
금리
위해
남자
맨
검찰
##쳐
##조사
몰
##ᅡᆼ스
잇
출전
잠
##상에
##콤
아이폰
찾아
팀
반대
앞두고
효
주식
##트남
떠
침
##bc
조사
높
통일
확정
갤노트
##친
##로벌
아프
##실점
의원
아시아
선발
발사
길
국립
정책
##텔레
협상
온라인
26
##ᅡ라
##ᆯ러리
워
웨
##앙
##확
공연
문화
평창
갤럭시s
2분기
##허
##털
베트남
##텔레콤
뉴스
##ᆷ프
##기자
##ᅳ룹
착
##하면
운영
힘
##삼
##스티
한화
##통신
##세먼
가입
과기
##세먼지
즐
##10
##소식
##생명
##ᅧᆷ의
##갈
##짜
불법
##저스
폭발
프랑스
28
##취
##하라
한미
##왕
방통
##건설
배구
##이익
지도
국정
신한
인공
##야구
미사일
거래
참여
데
면
##ᅳ라
##녀
사상
##비아
보도
난민
is
시민
가장
##반도
성장
행사
##했
사용
하루
놓
lg전자
풀
##년만에
정보
발견
계속
##숙
이탈
사회
##둔
##사회
##선수
팔
##맹
##스테
##봇
가을
##지역
곳
##텐
sk텔레콤
%↑
##페이
##리는
##기관
숨
안보
예상
북미
혁신
3분기
이재
##값
정의
연기
확인
청년
업무
##ᅦᆨ시코
글로벌
##곡
##폐
##완
다저스
통합
애플
##탁
최다
##디어
##플러스
여자농구
울산
##머
##흘
##ᅮᆷ
대상
비판
##팅
존
전환
미세먼지
무역
##켓
풍
27
60
멕시코
##대출
##상품
육
##밀
도전
학생
##페인
헤
##과학
주장
산업
##ᅦᆨ시트
국방
nh
##bs
이라
개선
공급
브렉시트
2년
벌
##랙
##엄
선두
조선
##운드
##킹
이통
##었다
지속
##개발
##속보
##폼
회복
증시
벤
큰
수출
밤
공공
일부
다음
코스닥
앱
탄핵
책임
넥
##했다
인기
##ᅳ론
선언
고용
소설
##충
날씨
##교육청
이라크
별
응
##잡
식
만나
학교
2차
##그룹
##쇄
이동
##전서
##ᅩᆯ로
##동산
##안타
출간
상장
카드
없다
너
밀
마지
영입
대표팀
##멘
##계약
어ᄄ
##st
##ns
이후
대만
주목
아베
혐의
지방
고객
##거래
베네
##올림픽
tv
##시설
200
더민주
힐러리
늘어
볼
훈
##틴
##꽃
##스터
개헌
발언
##담회
단독
축제
집중
본격
게임
##시티
지난
이탈리아
느
싸
##긴
대신
한반도
신임
최초
##경제
회동
참가
4월
씨
##옥
##촉
##십
##정책
##진핑
인권
경고
해결
역전
2019
빠
##콘
##이닝
##합의
##일부터
사람
##ᅦ이트
##재단
스타
체험
##대표팀
마지막
슈
##넘
##지는
경남
모집
작가
##될
이해
주의
최소
일자리
없는
##린다
군사
여자배구
##사에
반발
외무
##노조
체포
1년
데이터
헌
흥
##큐
##하게
사드
##듯
비상
해제
위협
##실험
서울시
폭염
병
##괴
##빈
##tv
##fa
이틀
시진핑
신규
인수
부동산
##홈
##바이
원내
70
주요
제공
##문학
##들이
현장
kbo
영업이익
##층
##링
##볼
추신
##운동
##륙
프로배구
##텐츠
추신수
2명
##굴
##튜
##짝
있다
이번
시대
출발
평가
평균
교체
요금
플래
gs
##스크
##의회
신청
출범
##프트
대한항공
베네수
2위
꿈
얼
##혀
##그래
##쿠
미래부
##칼
##제재
공식
##영상
모두
##린이
규제
sns
폴
##50
##ᇀ은
전자
바ᄁ
통과
토론
아프리카
29
낙
##때
사실
##세대
화웨이
정상회담
돌아
입장
압박
잔
마감
보고
확진
##으면
뛰
브라
##좌
##텔
결승
왕
##날씨
놓고
5천
돼
##지도
빅
강세
강력
인공지
드론
##싱
##스코
##소년
매출
새로
광고
국민의
넘어
##스템
fa
엄
##하나
대책
##야기
전쟁
김영
자동
##딩
앞둔
탈출
환율
평양정상회담
31
##ᆫ다
##욱
##컴
대체
기록
##유플러스
상반기
확산
직원
넥센
쇼
##정호
시범
전시
##행사
우주
##여명
거부
##그램
혼
##기로
싶
조성
##판매
어린이
구조
바이
매체
##노총
lg유플러스
목표가
은행
방통위
걸
맹
케
##톡
제안
출신
재개
북핵
맞아
##벤트
베네수엘
인공지능
메시
범
##사장
사진
경북
##필
영화
실패
##훈련
펀드
##따라
##섬
연장
선임
영국
한국전
##란드
세종
관리
교수
분양
설치
팬
과학기술
베네수엘라
##홍
##뉴
##논
##펀드
##컬
##릴
이달
##지수
##회사
##년간
최지만
##미술
예약
예술
요청
5월
ic
암
##픈
##얼
##주택
##세계
##나다
모든
충돌
##벽
개시
유지
가족
김종
오바
밝
##메라
전문가
3명
9월
##홀
이벤트
##서비스
대출
##수수
사전
##선거
##선언
202
##투표
mw
이유
이야기
##자에
##위기
##공항
##거리
##델
##위원회
음악
mwc
망
이정
##트리
전남
전략
연합
위원장
구축
만들
호주
##협상
회의
특검
건설
점검
오바마
래
##척
##소리
경영
##관계
##협약
원내대표
들
춘
##냥
##회장
주민
사태
한파
##셋
##업체
##ᅳ린
##여행
답
로봇
활용
갤s
긴급
곳곳
늘
##몰
##핀
##대전
##회견
마련
##피탈
조국
##랜
베스트
취소
수도권
효과
브라질
뮤
##ᆺ폼
##진흥
미술
##관리
몸
프로축구
##플레이
캐나다
관광객
훈련
mv
억
##ᆻ나
##개국
여름
##웃
조기
##무원
##규모
##후보
야구
뉴욕
6월
뇌
들어
이제
중동
원달러
##할까
프로야구
탑
않아
맨유
mbc
페이스
##ᇂ게
##섭
시도
##을까
결과
##춤
##철수
법원
##캐피탈
mvp
찬
##서도
기부
화재
보안
##르드
10월
첫날
민간
착수
국민의당
db
io
견
시간
##웅
##노동
종합
ok
각
지분
전달
인간
안돼
급증
kia
%↓
루
쓰
티
흑
##프로
##정상
수원
##공단
영하
올라
관심
##협력
##축은행
그리
채용
라이
##핵화
1차
##기에
##사고
등교
통화
성과
적용
우리은행
좋은
갈등
32
cj
왜
##농
이적
##보기
##보험
중앙
비핵화
##금투
강정호
자유
자금
감사
진행
독립
캠
처리
돈
##줄
##ᆯ로
##보고
##성장
사퇴
위반
필리
체결
임명
콘텐츠
겨울
##진다
제작
예고
카메라
속도
패배
기자회견
35
4천
먹
흔
##뢰
##이스
##라운드
수익
정권
추석
고려
##와대
구성
바른
금지
##태용
청와대
현대캐피탈
태풍
##처럼
희망
갤럭시s8
##스티벌
1명
80
8월
##알
##헤
##대책
대결
기회
유치
신고
연결
비난
##미래
문학
장애
환영
항공
할인
kist
%…
3월
4년
멀
프리
##춘
##촌
##베이
##5천
##하다
##답
##는데
정규
신태용
최종
중요
제한
##니아
##학생
만든
예산
호남
거리
열려
가입자
페이스북
3천
먼
##켜
지정
한진
개혁
##윤
##셀러
가상
##ᅳ레
미중
맑
오픈
자율
일정
남북정상회담
##흐
##혼
##뷰
##3보
##갑
국무
가격
인하
인상
상용
##르도
바다
장기
투표
협의
초청
변화
##득점
플랫폼
500
k리그
머
엔
형
##덕
##지컬
##기는
##가는
수주
수단
신년
##우드
##금지
##키로
포함
##직원
핵합의
간담회
쿠르드
7월
죽
##te
##끄
##ᆻ던
##금리
##들의
웃
스페인
노조
예멘
올스타
반군
관계
샌
취임
핵실험
허용
##없는
##누리
##암
##도시
##성화
부진
##관광
안철수
소비
##모비스
회담
새해
충남
##더위
푸틴
있어
##삼공사
춘천
1만
좌
##죠
##풀
##하겠다
##리즈
##지털
수능
연극
제2
김연
##문회
여전
도로
##달라
##테크
##디오
현대모비스
집단
긴장
떠나
nc
득
##ᅥᇂ게
##것
##뷔
##하지
이승
기능
시행
사랑
최강
중소
##터리
하는
우수
##학교
무료
도발
확보
##ᆯ린
##저축은행
##항서
협약
계획
슈퍼
이해찬
한국전력
vr
v30
따
쓴
##이사
##이는
##스토
사고
##업계
##공연
강조
도시
합류
디지털
베스트셀러
숙
이집
##의원
시인
##피아
2020
##임금
챔
핵심
직접
##클리
이집트
꽃
뜨
##힌
##릉
##봄
한일
유력
추천
추락
제압
위험
남부
차기
금감
##물관
설립
철회
될
극우
귀국
nh투자
4차
빨
##ae
##일까지
아냐
국경
##밍
발생
##포츠
예정
불가
새누리
없이
##날두
우리카드
어떻게
36
mo
농구
빈
쉬
##끼
대사
##도로
개편
신용
미군
연휴
추정
##문에
발행
매수
##룡
리비아
민주노총
변경
##웨어
품
미래에
##순실
데뷔
업무협약
새로운
5명
##쉬
##ᆱ은
##사태
시험
사과
한은
개정
부총리
제1
##적인
호날두
##벨
##혁명
질주
탑재
##르도안
괴
##기록
##장서
최순실
연말
보수
상대
##키스
총격
파업
분석
##본부
##평가
골든
응원
iot
mou
컨
##시위
전면
##개혁
출마
출판
내주
나와
##운용
동반
에르도안
체제
완화
달러
블랙
34
300
it
##즘
##이드
##시즌
##일보
##조정
납
달라
##ᅲ스턴
겨냥
벤투
씽
ok저축은행
1조
g6
게
솔
옥
##휘
##500
대규모
##가지
##트워
전용
##라우드
신설
경선
##민국
선물
김학
##님
한국인
차량
실종
##버스
생산
생각
##앤
환경
치료
절반
##홈런
필리핀
1월
3연승
4명
빼
휘
휴스턴
##걸
##닌
##뜰
##대에
##주기
사무
사건
유튜
수준
##ᅳ러
미디어
제외
고발
##텍스
검색
적자
11월
대북제재
근로
바른미래
미래에셋
33
즉
혜
##ᆻ지만
##슬
이행
##돋
##궁
개성
##라도
수용
부인
소식
배터리
초등
##총장
흥국
4분기
르
##렬
##시대
##하이
##대결
##자산
기반
##인다
##앞
##트넘
##공업
##치고
##신문
고위
상황
소송
##낸
##현장
민생
현대차
설명
경기도
법안
토트넘
##혁신
징계
지도부
지난해
3위
45
봉
슬
##6억원
##있
##이어
##하세요
##하며
##스ᄐ
##릿
읽
##서트
개통
공정
유조선
인정
오전
발간
의회
취업
종료
웹
본격화
늦
상용화
lte
크리
##전환
##보호
공방
##셀
##조치
어려
구단
구매
노력
투입
돌입
클라우드
노동자
gs칼
5년
니
케이
##정적
공화
부담
##문제
##문점
발전
나서
20대
##현대
##텍
실시
투수
역할
##언론
당대회
집회
완파
##너지
대한민국
누구
ict
뮤지컬
씽큐
gs칼텍스
뚝
트
##ᆯ영
##ᅪᆯ영
##이트
주가
##치는
##연합
##타냐
등록
차단
프로그램
청소년
챔프
언급
사이버
받아
##타냐후
1인
90
ce
메이
트리
대우
대형
기관
기온
##국민
##보는
아직
공무원
신인
신문
가동
선택
김동
##재인
##미나
보호
해임
안타
일제
도착
예비
##크라
박항서
알뜰
네타냐후
##없이
sns돋
sns돋보기
2연승
찌
퍼
##pl
##주행
##전지
##상증
사흘
아침
##ᅢᆼ크
##납
여론
비대
조치
하반기
##탑
코치
현실
호우
증권
단체
판문점
건강
활동
압수수
많은
최저임금
흥국생명
압수수색
38
rd
덕
##ᆼ괴
##춰
##펜
##끈
##싸
##fc
##이란
##대응
##원에
기준
##국제
##인사
맛
##발전
##들과
문재인
다른
세월
등장
등판
바르
차세대
북적
##박물관
홍보
완료
태국
태양
취득
##평화
찾은
폐지
잇따라
이번엔
멀티
2주
2배
4강
po
측
##시험
주도
삶
전기
##만대
유출
##개선
마이
빛
나경
통산
##맨
결의
당선
승부
내일날씨
활성화
음성
##활동
약세
폐쇄
석유
잇단
김연경
epl
써
##덴
##짐
##어요
##자는
##화재
##정지
##전략
##인트
한달
##세포
가짜
보험
##체인
위클리
노트
##포럼
##못
적극
달성
민주당
15일
급락
끝내
워싱
평창올림픽
과기부
갤s8
알뜰폰
##상증자
워싱턴
탐
##찌
##40
##70
##릭
이전
이미
##트랙
전통
##드리
##드는
유니
국회의
중부
마음
무안타
나누
단일
청문회
당국
규탄
탈북
급등
항의
있는
시범경기
프리미
섬
택
##헨
##쿄
##스에
##해안
##돈
##종합3보
공습
수석
##천억원
여부
무기
소집
##중공업
만난
예선
현금
불참
매각
집권
완전
철수
된
아이폰x
예약판매
개성공단
세월호
fi
깨
녹
##잉
이민
대회
시청
사라
아닌
같은
경매
내려
##미사일
##적으로
##맞
##무리
나선
걷
승인
입국
##추위
kb손
행진
휴대전
시위대
남자배구
통일부
별세
역전승
휴대전화
떨
크
##맥
##럴
##대상
##가구
##았다
사령
전년
인삼공사
경계
내부
하원
##교안
스위
반등
동시
장중
진화
폼
임시
열어
후보자
처음
버스
징역
면담
요금제
토론회
김종인
먼저
2월
41
uae
##롱
##퓨
##7억원
이주
기소
##일로
전력
##랍
공시
중심
제조
제출
김성
##안전
##계획
보스
##타수
감염
도쿄
바람
반도
의견
장마
박지수
##심사
배치
##되는
은퇴
기념식
##미술관
득점
폼페이
3차
5개
kc
##셔
##2억원
##스플레이
##대사
대설
지시
##아야
아니
유전자
조명
고교
무실점
소개
10명
센
장비
결장
포기
서울대
검사
분야
행정
명예
##특보
7일
따라
##1보
이총리
##지구
##서관
대법
##다종합
싱
##전쟁
##인상
지급
국감
수소
연내
##칙
부회장
##천명
##신상품
보유
##파고
10년
##광고
임대
현대건설
저지
##ᅳ리고
황교안
업체
증시신상품
스타트
3개
3점
깜
베이
쏘
쌍
##크ᄅ
##400
##1억원
##시스템
이사
##대학
##정통
##인권
지금
신경
붕괴
##피해
김태
출국
내가
보복
강릉
무산
##월드컵
반정부
##버그
교통
##토론
충격
축소
젊은
살해
과기정통
자동차
그리스
혜택
놀
콜로
##3억원
##리기
##다운
수업
정기
인근
추경
마무리
여파
움
강한
강경
강풍
발의
구속
세미나
도약
옛
동부
관람
원인
진입
##규제
생활
창업
##예술
골프
메르
블록
희생
대학생
신한은행
이통사
##바이오
##스테이트
반도체
폼페이오
5일
sbs
뚜
##ᅩᆸ
##2년
##4억원
##의장
##인터
아쉬
정당
연봉
추모
##연맹
##피커
곧
강남
상대로
##무기
나온
##점검
##배당
호텔
성폭
불안
그림
청주
야당
창립
탄생
권력
많아
페스티벌
이용자
정규리그
금감원
챔프전
1억
ib
##에는
이닝
##기의
##자금
##성용
##제한
##요금
최악
내정
위안
안정
스ᄏ
소통
소재
남성
호르
북부
##감독
##워드
##런스
줄어
번째
지지율
육성
##진흥원
흔들
골든스테이트
##트워크
유튜브
냉
듀
흐
##5억원
##시민
##짓
##기온
##자인
##주가
기성용
##전에
##한국
##칭
출격
##마을
자제
무승
##방문
나ᄈ
##중국
노사
##실장
##크쇼
획
삼성화재
원유
타율
행복
맞대결
##퍼런스
축구대표팀
많이
혁명
개인정보
##선수권
국방부
지방선거
쇼핑
1호
8일
ag
g7
맥
제임
흐리고
##줘
##데이
##낙
##1년
##80
이름
##사진
시상
##상공
지구
전세
##유율
유명
수비
신뢰
##천원
##피언
조정
오리
서명
##파이
##파크
##무즈
노벨
의장
당정
##루션
합병
##범죄
올해의
채권
라인
레알
하나금투
육박
과기정통부
호르무즈
제임스
6명
mb
샤
콜
##묵
##샤
##ᅱᆫ
##데이터
##프ᄅ
##60
##도에
##장비
##정규
시스템
지진
아동
아니다
##행위
##공동
##소득
하늘
고민
##영표
##체제
안해
어디
셀
예방
재판
법정
듣
12월
150
##켈
접수
갤노트8
##기자협회
거래소
헌법
이틀째
장애인
자율주행
중소기업
##드리드
fifa
레이
삭
얘
##몬
##렁
##3사
##리스트
전주
개장
유상증자
화천
수입
##빛
부족
내한
##마르
상품
##무성
##방안
대통령과
나라
##르면
코리아
동정
차관
교사
포털
청약
탓
타격
완승
태극
##더스
심각
##스타인
석방
##머니
신태용호
이승우
벤투호
스위스
보스턴
색
핀
##놀
##하자
##하려
##리니
대부
##주주
지켜
아마
##ᅥᆨ정
공사
가속
##천만원
선출
김기
##승민
##호골
##경쟁
자신
해소
##바논
##테러
##협의회
원정
후원
##코리아
특수
속보
지원금
본회의
명단
눈앞
송환
##특위
좋아
갤노트7
이재영
주의보
메시지
범죄
밝혀
연합뉴스
랜
##노동자
만든다
도로공사
나경원
깜짝
##크롱
##정규직
3당
4일
52
멈
벗
셔
펼
##렉
##팩
##쪽
##이지
##국회
##제품
전교
신세계
##ᅳ려
##공개
최우
##영화
자산
##중앙
의무
##협정
총력
##놓
교황
임박
충청
알파고
패스트
네이마르
##졌다
끝나
기대감
레바논
##받아
공급계약
벌금
발언하는
대신증권
돌아온
잔류
대체로
김학범
크리스
메르켈
얘기
9일
브리
텍
##혈
##ᆯ시
##뤄
##브로
##튼
##ᆺ새
##꾼
##ᆮ아
##스리그
##리에
##기구
##자로
##수단
사임
##요일
아르
전체
개방
##유출
갑
마크롱
제품
출근
염
##경보
##경찰
보는
우선
위원
##중계
##실적
통해
차별
박지원
##병원
판단
취약
2017
법무
직장
##만원대
클래
##개월만에
25일
키움
흑자
패스트트랙
44
7명
ps
걱정
딸
##덜
##화폐
주당
지명
##수업
전역
전투
공유
##빙
인증
마케
비행
내전
조직
보여
해수
스웨
방북
##중단
구름
파견
손잡
##병우
언제
##더블
##악관
창원
군부
휴가
선수들
네트워크
번역
콘서트
28일
너무
ceo
떨어
37
d1
##뮤
##ᆷ파
##콜
##지에
##지사
##지방
##사스
##사건
기간
##인가
지상
유승민
마스크
##연휴
선보
##안보
비밀
##미애
##당국
상임
도움
의사
동영상
차이
불발
원격
작품
에어
##00억원
##ᅳ랜드
##해야종합
대표이사
탬파
채널
##레스타인
30일
운동
못해
인터뷰
##쇼핑
맨시티
아프간
26일
얼굴
##섬웨어
2020년
스타트업
블록체인
##상공인
랜섬웨어
탬파베이
la
둘
땅
액
##룬
##ᆺ불
##킨
##8억원
대승
전원
한중
한투
개설
국고
정지
가계
##공시
##칠
##천어
마드리드
제기
김무성
출연
출석
##영업
모델
무장
일대
소방
다운
##바람
만의
만남
재난
##법인
##둥
벨
리그
중국인
##워치
창작
##습니다
극복
##손실
16강
정상화
##받는
팔레스타인
안보리
풍성
사실상
억류
캠페인
올스타전
프리미엄
##맞이
kcc
##크숍
전교조
39
3경기
4연승
8강
둔
##솔
##폴
##gb
##ᆰ은
##ᅥᆼ가
##지대
##지고
##서울
##대화
##대우
##자가
##국가
##가격
지하
##통일
유로
국토
신종
##소설
연정
추미애
##미디어
오른
모색
##방지
위성
##렸다
##크스
총재
##작전
이란에
##외교
활약
백악관
목표주가
윤석
악수
2018년
존슨
혐의로
사령탑
움직
텍사스
국고채
1주
1승
5연승
6일
낭
##첩
##지주
##은혜
##세트
융
유은혜
신중
가자
중재
제3
김해
비중
보상
강제
##학규
무인
나흘
방안
소프트
20일
##바다
10대
##환경
포스코
##저가
손학규
야권
집행
##스트리아
생존
심사
여자축구
개막전
황총리
제주도
점유율
클리
##클럽
참석한
숨져
북미정상회담
##과학관
카드뉴스
이유는
호남권
트리플
쏟아
무승부
2개
ip
pc
헝가
##곤
##툰
##24
##ᆻ는데
##케이
##시리즈
##기준
##해도
##주자
##주는
##수비
##얀
개소
개관
##위로
공천
부패
우크라
오스트리아
##니지
스키
스포츠
##여름
방역
소나
소상공인
반기
의결
관측
##건축
배당
더위
##준표
홍영표
임금
##음악
취재
작년보다
심판
12일
눈물
말라
철도
음식
##돼야
23일
남자농구
존재
바뀌
소비자
챔피언
일제히
나누는
ibk
스웨덴
49
8명
wt
wn
쟁
##주식
시동
##전망
주재
지키
##아웃
아름
개입
##세이
##공원
추이
##연금
##연설
선전
우병우
무르
해킹
##르는
돕
의료
##법안
성능
총기
진단
특허
것종합
폭행
폭력
폭탄
홍준표
돌봄
채택
##처리
2016
본선
##람회
심의
##투자증권
네덜
뒷
22일
24일
참석하는
잡고
용의
여전히
wnba
네덜란드
2일
47
7년
ms
뽑
짜
##첨
##랭
##ᆨ트
##리지
##대한
##사로
기본
##합니다
##인들
##보니
##수석
전대
공략
##만의
유영
화성
수요
인재
인니
믿
중도
부정
##천억
선박
김현
김광
##신청
고조
고속
무더위
해상
해양
발목
방한
통제
##석희
동남
관세
##물질
포럼
카톡
##00명
##되면
생중계
탈환
##ᆯ링
말레이
않는
##없다
##받은
편집
찾았다
##확인
27일
폴란드
바이오
근로자
김동연
##인터넷
위안부
3대
3사
et
##써
##11
##이고
이르면
##김
##어야
##사들
##화학
기다
기억
##닷
시사
##가족
지연
##제도
유통
수험
신영
##빌
##ᅦ이드
##공장
최근
##조직
김재
여객
빌
고양
##경영
##프라
상한
나는
방심
구호
만화
남아
피서
실업
결제
박차
##작가
포항
##ᆯ람
##에서도
손석희
분리
분쟁
열린
영업손실
목소리
사망종합
##된다
아시안컵
악화
인사말
퇴진
##연구원
워크숍
사회적
토론토
확진자
##늄
##흡
트위
가짜뉴스
##놀이
키움증권
마케팅
46
4개
u20
긍
##네시
##이라
##스로
이인
대기업
기승
##정당
주춤
아랍
전화
##라마
##유가
가스
가빈
빗
영남
상생
무대
안개
##생활
세상
반환
##결과
박병
외인
진실
욕
파리
첼시
규명
맞춤
##앱
내일부터
않을
##블랜드
살아
플레이
악재
콘퍼런스
##욕장
주식형
사용자
정의당
어떤
전자랜드
이정현
##키스탄
즉각
소식에
베이징
아르헨
클래식
헝가리
2만
3일
fc
꼭
쌀
칼
혈
##멸
##엽
##뱅크
##sa
##느
##크로
##쓰
##ist
##기지
##도록
##화점
시리즈
##과정
##전기
##보안
주문
##트로
##젝트
아들
##위성
공항
##세력
정면
및
연일
##관위
비서
조심
##란히
묻
발굴
나란히
세기의
동참
##거운
##카이
차질
실험
성적
##버지
삼성증권
원주
교보
와이
협치
##등급
축사
열기
산불
독자
완성
##씩
황금
디스플레이
처분
격돌
##없어
쿠바
##연구소
##했던
29일
샌더스
어려워
유니폼
아마존
1조원
ar
ebs
v리그
그린
엇
##ᅨᆫ
##ls
##에스
##지엄
##엇
대기
기초
##정원
##다가
##상황
##보증
##수도
아스
개학
##라스
가치
인종
과제
최선
##용차
##간다
##조금
##단지
추위
보내
자격
##랩
안내
##북부
문체
다양
도심
의지
재산
동의
호소
확장
매직
결국
삼성생명
진정
포근
임기
타이
생명
11일
맞은
물러
휴전
13일
유럽의회
16일
농협
지도자
신한금투
공공기관
##긴다
빅데이터
망명
견제
##보고서
미래에셋대우
대우조선
오리온
2연패
3개월
48
까
촬영
폰
##렵
##렌
##sc
##톤
##테이
##ᆺ비
##꾸
##하기
##리바
이낙
##어나
##사단
##고가
##괄
주간
##아차
##동원
미니
##간담회
마약
마치고
김진
##마스
##학회
상호
무선
##차별
나들이
##타임
##분간
##르크
10일
세터
예측
재선
동물
현지
총장
매우
박원
박영
ktb
검증
열대
열흘
kb증권
양성
탈당
탈퇴
건물
사망자
창조
눈길
##폭탄
허위
논란에
##변화
강원권
절차
약속
통신비
하나금융
공모전
즐기는
2019년
##문학상
kbo리그
가상화폐
솔루션
택시
한투증권
클리블랜드
이낙연
4위
55
6년
g20
lh
rfa
sw
굴
꼬
던
봐
##ᆽ꽃
##ᆷ버
##ᅰ손
##빠
잃
##해보험
##사채
##장애
##전선
##부장
##드로
공포
화면
정국
##비전
중대
김경
비정규직
조작
##미터
오존
##닉
자영업
무력
##포지엄
의심
피아
관중
실시간
성남
##매치
박근
포켓
폭우
폭격
합동
광화
앞세
##징금
남북정상
100만
디자인
휴대
휴식
##메달
넘겨
끝에
막판
격려
##지원금
커져
높아
갤럭시s10
방통위원장
무역전쟁
벌써
이통3사
이동통신
싸움
병원
바르사
대설주의보
##중국해
삭제
수험생
2억
51
99
vn
펜
##ᆸ게
##봐
##로드
##기고
댓
대폭
##화에
기상
##보도
주인
##아이
##제리
아가
아우
공장
##업원
##만9
정세
신작
가는
##공격
최태
미리
연임
연루
김병
빙
조회
오찬
서부
##체스
##체계
자사
해야
해운
방침
소폭
소득
##중해
##바리니
##포르
남중국해
##독립
재활
동맹
현재
배후
카슈
단속
초대
참사
당신
##되나
임원
임종
돌풍
##엔터
타고
산체스
앞으로
양키스
30년
운항
변수
##희찬
간다
##페라
제주권
순방
##캠프
국가대표
넷
표현
인사하는
퇴장
담은
국립현대
##갈등
정의용
싶다
끝내기
대부분
이인영
문체부
박원순
1보
42
43
5년간
65
6개월
7이닝
9명
##몽
##셜
##컨
##리랑
이사장
##기념
##자체
대국
##도서
깊
##인식
지휘
##성과
사법
한강
공세
정신
신속
신기록
같
##나이
과징금
연대
연주
연계
연설
추방
마을
여당
##우스
하이
##들에
##들어
오세요
##니어
한국의
자리
##교류
##타르
##티브
방사
감시
소리
소속
##배치
남녀
##운영
재정
피츠
##현실
현황
##키나
##디션
불만
평년
횡
진상
촛불
##총회
축하
##추진
속출
월드
알려
알제리
국민은행
30대
본다
변호
100년
##페스티벌
##메일
이슬람
클린
접촉
누가
교육부
정의장
볼턴
헌재
한파주의보
##있는
##싸움
단일팀
나쁨
획득
일대일로
소나기
박병호
열대야
54
75
kg
데이
런
에이스
찜
컵
##힘
##밤
##sd
##ᆻ죠
##큼
##35
##리즘
잉
이대
##자의
##주간
기가
지자체
##않
##아트
한때
##ᅩᆯ찌
##통화
유대
정진
신입
##소프트
##조작
경험
중계
부품
##연대
여사
##승환
보장
##마다
##교체
굳
구자
재계약
재건축
새벽
##할인
거짓
배우
##직자
엘
체감
리버
##번호
운명
북한날씨
120
라바리니
국제유가
선수단
18일
줄줄
벚꽃
3년물
오후부터
갤럭시s9
무역협상
소설가
넣
개헌안
빠진
민간인
찍
이미지
나온다
최우수
맞춤형
아스널
박근혜
vnl
댓글
4대
vo
크루
##ᅪᆼ
##이냐
##자책
##사이
##사용
##정치
##국장
시설
##고속
전격
한자리
##듭
정체
##동의
가까
인민
과정
##소재
##소타
미네
중간
제로
제거
제휴
##재산
내용
자본
자회사
##억달러
##방위
해법
일단
##르기
호실적
불꽃
##결의
결론
박정
skb
프로젝트
파키스탄
로켓
##복지
##질랜드
##루타
중국서
균
앞서
양자
경기북부
최대주주
급감
황희찬
순익
##캠
표준
악성
14일
##샘
외교관
##효과
아파트값
침묵
갤노트9
다음달
지난달
##될까
엄마
이달의
##얼미터
2021년
1차전
##헬로
고위급
1인당
현금배당
뚫
당정청
브리핑
지상파
##천어축제
둔화
유영민
##닷컴
포켓몬
피츠버그
줄줄이
미네소타
3연패
4연패
53
6개
cc
그ᄅ
드러
묘
브랜드
컴
페이
##죽
##잠
##ᆸ다
##벼
##ᆷ비아
##팔
##db
##스와
이하
##도종합
##장치
기원
시기
시내
##가능
##가포르
##인에
##인의
##수사
##한림
##젠
한전
##유럽
##유착
공조
유감
수술
##동성
가정
##나라
과시
##공간
부당
부활
##단계
제도
제정
선고
출입
조건
오승환
##닉스
##파업
상원
상륙
스피커
##티오
방지
##모바일
바로
바라
통보
의미
##투어
##맵
##매체
매력
##코로나
거포
당부
태영
##근로
올해도
적발
##히는
##레반
변신
갤럭시노트
##메즈
처벌
친박
번호
하나은행
사이영상
받은
뉴질랜드
##효성
몰려
학생들
nhn
##충돌
티켓
유치원
맑고
nh투자증권
kb손보
센터
흡
시상식
신종코로나
쟁점
방심위
##네시아
엇갈
아가메즈
2보
3만
400
5차
64
nl
앙
졸
##9억원
##리조
잊
##기원
##어로
##대행
##원지
기획
##부르크
지중해
아웃
아버지
전파
한글
##위해
##유치
공수
##세기
유리
유학생
정식
과거
붙
##피스
##영방송
##마리
모리
자체
##무소
##교통
위치
나토
##타점
어렵
만찬
반박
##오프
동기
##남기
##딜
불허
불펜
금호
거듭
작전
##팬
에너지
체육
베를
입법
열린다
대표단
행동
30주년
남북관계
끊
방문한
힐
통신사
17일
인도네시아
잠실
떠난
시민들
시민단체
만나는
빠른
사람들
구조조정
늘려
떠나는
사무총장
슬로
##셀로나
멀티골
싱가포르
신경전
콜롬비아
출근길
아름다운
국립현대미술관
##티오피아
1일
2경기
56
뿌
##촬영
##탐
##ᆺ한
##끌
##mc
##dp
##썩
##이자
##리고
##사자
##보유
지능
##트ᄅ
한다
##라늄
유진
수수
정경
##나는
##소송
최장
경주
추격
맡
##안정
출고가
빚
##발사
##신고
고소
강추위
##파수
자연
##방울
스트
일주
닷새
만족
반영
실전
성추
##결제
매진
진전
##두로
##두산
민심
배제
증거
단기
단말
단풍
협조
에티오피아
##질까
##룸
정부군
양국
행보
판결
운행
복구
금융위
기업은행
국제사회
19일
때문
선거구
강원도
접속
폐막
누적
개인전
잘못
헬
##거래소
fa컵
4차산업
국회의장
희생자
다운로드
무릎
자사주
리버풀
2실점
58
5경기
6천
73
8개
as
ka
pd
yt
묵
##겸
##탕
##눈
##na
##이동
##이면
##엠
##리프
이익
이마트
이뤄
##로봇
##기금
##서는
대피
시연
주주
주력
##일까
##수영
##야종합
한수
##명에
공매
##공세
##소서
연동
경신
부통령
추워
선제
선관위
비리
비교
##우승
조현
보조금
우상
##교사
해고
##차관
나노
나이지
##타자
방법
##르트
##밭
10승
##렴
반격
##임대
동해
동아
동결
##디아
매입
매매
회견
외부
교환
##급제
##강화
거론
그쳐
청구
에버
##00선
분위기
계기
##즈베
리더
생태
최고치
독재
완패
언어
알아
법인
탈락
건축
심화
간부
활짝
음주
언론노조
온다
##블릿
격파
노동당
21일
방송통신
잡아
아이폰8
의원들
국정원
%↑…
##완화
##홀딩
찬성
신년사
빨리
불가피
##퓨터
수소탄
혁명수비
움직임
광화문
구자철
##한림원
나이지리아
5위
68
8천
ko
곤
덜
에이
죄
쾌
톈
##23
##ᆻ어요
##뜨
##eb
##시청
이사회
##기기
##기가
##해요
##해진
##해운
##해달라
대타
##도발
기지
기후
기아차
##전사
##전당
지식
사기
사면
##명령
공약
공백
유일
밑
중저가
부실
마친
선동
선호
선포
김민
김호
##권도
##계좌
조짐
하향
고대
##마크
##니스
##체험
##프리카
##학금
자료
무패
해군
안심
스캐
##였다
일상
일반
##밥
##청장
현역
실질
회원
금투
교류
진짜
##할듯
단장
파트
로밍
##준다
홍남기
입단
합작
##병대
김정일
110
핵무기
민주콩
창출
##검사
심상
100주년
##돌아
내년부터
1위는
##순위
살인
권고
격추
선거법
##백질
친구
편의
질문에
경쟁력
##벤처
3년간
귀환
이어져
신한금융
숨진
쌓
보고서
##지도자
혼란
싶어
켈리
만들어
##걸음
사흘째
호우주의보
석유시설
김성태
장맛비
성폭행
내한공연
해수욕장
벨기에
반기문
동남아
찜통
잉글
일주일
혁명수비대
민주콩고
1등
67
afc
gdp
im
s400
띄
멋
챙
튀
##혐의
##쓸
##ps
##스ᄏ
##스포츠
##리안
이슈
기기
시정
##전문
##상현
##가을
##인증
##부문
##구조
##수당
##성의
한류
##윈
##세로
화학
신형
최정
##치료
##조합
##개편
중고
부천
부적
부사장
제시
김주
##문고
조용
강행
서브
##무용
발령
안산
##분쟁
다이
##설명
재무
피살
##협의
박수
##심의
외신
##ᅦᆫ즈
포르
##강도
##톱
##토리
카타르
단백질
덮
폭설
##데타
계열
kbl
드라마
##레스
탈레반
군산
심포지엄
##열차
1천500
철군
130
##퍼스
극단
권한
클럽
선거제
커쇼
쿠데타
##라이나
##확대
##허가
##했나
##했지만
##볼까
##운동가
강력한
엄중
케인
답변
항공기
한진해운
장기화
##끝
블랙리스트
르포
비대면
국회의원
kb손해보험
가자지구
u20월드컵
영남권
오존주의보
클린턴
정진석
4경기
59
5대
dj
els
keb
그룹
꼴찌
컬
팩
##잔
##브리
##싼
##ic
##스키
##리나
##리츠
##ᅡᆷ보
##지서
##의지
대면
대량
기적
기가지
##고용
##과이
##보세요
주파수
##부모
##수로
##드시
신제품
가세
부정적
김일
##재해
##우기
고심
우라늄
오만
서해
##니스트
영장
한국형
무수단
##교차
해체
얻
방중
소니
소환
소형
소녀
구금
노래
노르
##운다
반드시
동료
동해안
장병
박주
원자
원전
후속
후퇴
포스트
포인트
작업
##언스
##언유착
더블
홍용
광복
열차
생일
최고위원
태블릿
미국의
스마트워치
알리
환자
창당
우리가
전국에
라틀
간편
##폭풍
금융위원장
캠프
않은
허가
필라
백두산
공격에
막아
낮부터
정상회의
누리
정치적
침해
이재갑
볼넷
##콘텐츠
뛰어
예술의
##끄지
빨라
설명회
여론조사
결의안
노벨상
자율주행차
##영화제
지하철
국토부
용의자
긍정적
창조경제
최태웅
카슈끄지
임종석
크루즈
공수처
베를린
##홀딩스
기가지니
라틀리프
1실점
2조
79
nsc
v50
벼
홀로
##ᆸ션
##ᆺ물
##ᆺ길
##이다
##시마
##에이
##리스
이기
이메일
##기간
##자유
대가
대치
대관
대중
##사무소
기사
기존
##과의
주변
짐
사물
##요구
##라탄
공간
공짜
유세
유망
국왕
화물
수여
수립
수혜
정동
인구
인류
##행진
과도
연승
연쇄
부과
부모
부결
##단장
제동
김상
여수
비용
비디오
조율
고3
고성
영어
모습
자국
자문
무상
했다
나오
##여정
##중고
20년
세대
##밴드
##키아
호조
##카르
북중
회계
##박람회
##책임
트럼프와
##00원
분열
야간
두바이
최고지도자
kb금융
양승
김정숙
##날레
우리는
종교
##목소리
언론사
연구진
압도
시리아서
##겨울
절정
할머니
페루
퇴출
향하는
금리인상
##확실
벤처
빠져
흥행
평가전
결승골
##델피아
##트릭
이젠
수익률
##ᅳ레기
납치
##자산운용
공정위
웹툰
공화당
비대위
현실화
기준금리
성폭력
듣는
화천산
셔저
김학범호
흑자전환
선보여
융합
트위터
비서실장
축사하는
한자리에
ytn
잉글랜드
튀니지
keb하나
홍용표
필라델피아
3d
3곳
7개
7천
85
꾸
꿀
덴
린
첨
##삭
##꼴
##dc
##15
##18
##ᆰ기
##이도
##읽기
##롭
##지지
##서부
##의견
##사령
##주에
시급
##보자
##부채
##일리
아산
한라
##명한
##만5천
유전
유가
##동맹
##비난
가득
##행보
부문
붉은
마두로
제4
김용
비스
내륙
##발레
##호텔
오타
강진
한국어
상담
##무역
윈
위로
위촉
##차례
안드로
스튜
##티나
##여야
일지
일교차
##분의
궁
노인
##바지
##모리
첫선
재벌
##키지
성명
불확실
매장
결산
회사
금주
금메달
박사
원칙
특화
포수
배상
배달
단식
서울서
##팸
더워
로마
참배
검거
검언유착
엘리
##준비
홍천
현대중공업
두번째
##엔지
타결
경기서
군인
##검토
운용
북한인권
종업원
토지
아이디어
1천4
탄도
온도
연구팀
기술로
오늘부터
상승세
50대
##백화점
절대
커리
플라
정치인
받는다
효율
아시아선수권
김영철
영하권
캠코
##스토어
숙박
챔스리그
뜨거운
나선다
조명균
3점포
충청권
손잡고
여객기
교보문고
런던
##자책점
모리뉴
4차산업혁명
kaist
김호철
금투협
파트너
안드로이드
2골
3주
3종
3배
57
5번째
6연패
86
st
꽁
똑
술
쓰레기
줘
척
훼손
##졸
##둑
##깨
##꽁
##쿼
##ec
##이상
##ᅳᆫ다
##하위
이세
이산
##기사
##해양
대안
대처
대상에
기ᄈ
기여
시집
##고객
##전용
주총
##구역
사형
사례
아래
전직
한상
##ᅢᆼ커
##ᅢᆼ킹
##위서
##세점
##만개
##만달러
유원지
수장
수백
정운
갖
인명
인선
인파
인식
##소비
##소속
부부
김여정
##계층
##신호
오세
강연
##파전
##식당
상위
모레
무용
##출판
해커
##월드
스완
##여자
다짐
만루
등에
등락
코트
##밸리
남은
동원
총파업
##물산
후임
포로
포상
##ᆯ레이
투구
팝
없애
손실
트럼프에
당권
합격
최고의
##근무
##창규
##히트
법적
학술
국민연금
##더니
직업
직무
목적
명령
명품
흉
탄력
허재
치열
##게임즈
국회법
오늘의
끝까지
때문에
표명
플러스
근거
외교장관
##슛
높은
통일농구
갤노트10
##스틱
즐라탄
풀려
국방장관
넓
##볼라
폴더블
맹비난
세종시
mwc서
전략적
머리
죽음
뜻
금감원장
개정안
시청률
도쿄올림픽
핀테크
기대감에
갑질
채널a
##빌딩
와이파이
kgc
중저가폰
계열사
화천산천어축제
keb하나은행
탄도미사일
71
9회
kdb
능
몽
벽
##ᆫ차
##듀
##덩
##데이트
##tbc
##12
##8천
##ra
##하성
##스러
이청
이효성
##로운
##지나
##자와
##의조
시총
##상장
##인삼공사
##보복
##일랜드
##일자리
지적
##수용
전지
한정
한목소리
##위협
##유지
##통합
유해
유입
유소년
수해
가이드
인력
인스타
과천
과이도
##공무원
경품
중기
##연장
김명
내각
조각
##경은
우간다
우즈베
##체크
상상
상징
##교실
##그라운드
스팸
방어
##낼
노선
예보
반응
##오미
##테랑
##투수
##반군
성사
불투
##능력
매도에
결혼
회장에
진통
배틀
##태세
작은
단축
파문
손해
참모
엑스
##루과이
입항
두고
열풍
집값
양효
##창훈
미국서
가능한
맞는
민주주의
##져야
##른다
토종
##평등
황창규
테마
되는
되나
된다
압승
mlb닷컴
필수
순위
순유출
업계
업데이트
막말
있을까
발표하는
부상으로
해외여행
기자간담회
14명
폐기
17명
근무
##압박
역사적
팀은
높이
국립중앙
2차전
역전패
최소화
폭염주의보
##문학상에
김영란
31일
전시회
몸값
흑인
cj헬로
엔진
##본부장
나왔다
판문점선언
##럴림픽
고교생
샤오미
소프트웨어
휴대폰
주인공
김병준
조회공시
변호사
엇갈린
수수료
성추행
kgc인삼공사
배틀그라운드
양효진
1억원
3번째
4곳
61
66
8년
jtbc
s9
괘
궤
크로
쾅
↑…
##멍
##옹
##bm
##텀
##90
##꿈
##컷
##17
##1천
##시픽
##시켜
##스피커
이종
##기세요
##어치
##해서
##자이
##자료
대거
대남
##사위
##도르
##주시
##상선
##가스
##인력
##회복
주역
##제로
아트
한계
개각
##년대
##년전
##진출
국적
화장
화제
수리
수감
수십
정무
신호
인생
경보
##개입
중진
붐
비율
좀
##밑
##경민
보통
보류
##들도
우루과이
상향
모스크
자녀
무단
무더
방식
##분야
##분석
##바브
세포
의도
의식
재발
동성
피격
##테일
실태
성황
불편
박기원
삼성sd
##코드
거장
파괴
협박
베테랑
##웠다
충분
독주
판정
11명
11개
운전
##예산
##예약
우리금융
복지
복원
##돌봄
기업에
일본서
순간
##교육감
##커스
논의종합
축구협회
권리
카카오톡
격화
250
접전
접근
피해자
##사업자
킹
뒤집
향해
아시아나
즐겨
##짜리
상장사
느ᄁ
최초로
##콘서트
외무장관
##볼넷
평균자책점
바꾼
입장하는
신고가
맑음
국무부
마이너
스크린
##샷
펼쳐
윤석열
무인기
스키장
김광현
다양한
포근한
졸업
생태계
심상정
찜통더위
팩트
꽁꽁
이세돌
스완지
kdb생명
우즈베크
김영란법
1도
1군
1시간
63
쓸
쥐
콩
펄
##묘
##ᆫ들
##ta
##픔
##따
##쌀
##1일
##8년
##이노
##에너지
##리거
이끈
##어도
##자문
##의도
대역
기재
시점
##가치
##인재
주한
주거
주둔
지나
##제약
사장에
전광
한동
##ᅥᆸ다
공부
##세안
유료
숲
##동부
##산물
##나무
##개사
제천
제대로
여러
비준
##표준
낸
내외
조종
고전
##미칼
오신
서민
한국거래소
상무
자기
무죄
무제한
무엇
해안
##타인
어워드
방위
방향
감축
2030
구현
##생산
만드는
예금
통증
재미
재확인
호투
총수
결선
박지
삼성페이
삼성바이오
삼성물산
원조
후폭풍
민정
거절
배포
증인
##패드
##집회
체류
##00억
분노
충전
현대상선
설계
양산
미국인
알고
##처분
##힐
##악단
##극장
복합
황의조
말하는
1천2
##폭력
철학
철저
투자전략
언론인
압력
홍콩시위
##활약
듯종합
없었다
격차
촉각
친선
송영
윤리
정치권
인천공항
##라이브
인터넷진흥원
향상
잠수
성장률
북미회담
전환사채
이동국
##옥션
꿈꾸
아프리카tv
낙찰
##좌관
맹활약
케냐
##논의
##트리온
곳곳에
##몰이
미술관
뇌물
쓰고
##농협
##5천만원
국무회의
k리그1
좌절
쓴다
될까
새누리당
대사관
신용등급
매수에
##슬림
써보니
##못해
집권당
이민자
제조업
쌍용차
콜로라도
듀얼
셀트리온
태극전사
의무화
전투기
상임위
원격수업
wti
고속도로
3대3
etf
빗방울
ktb투자
##설명회
김일성
노르웨이
예술의전당
대관령
첨단
오타니
이청용
1이닝
2루타
3조
87
ap
ec
ws
떼
쏜
트라
퓨
홀
##펴
##ᆻ을
##ᆻ으면
##컹
##ᆮ고
##ng
##엑스
##릭스
이견
대미
대변
시선
시찰
시각
##곽
##인하
##인도
주차
##구에
지소
사모
전수
전당
전방위
한복
한번
##유산
##만건
수성
신동
신기술
가로
가결
##행동
연다
연습
중장
부분
##단에
춤
마르
##연속
출자
출장
비즈
##신저
고립
##미니
##당한
보이
우버
옮
오페라
강타
서로
영웅
##팝
##식품
무게
무슬림
해설
##여건
어제
일방
소년
문자
20명
노란
만날
##모션
등극
올려
통한
반성
동점
##현수
##테르
##투스
##담보
실무
장학금
##억원에
##매진
##버스터
결합
결함
##증시
박종
sk하이
##코프
카이
카페
증강
그만
##집권
에스
##총선
##데스
리커
충성
현대미술
5g폰
규정
앞에서
학습
국민투표
건립
톱
##케어
##케미칼
갤럭시a
휴일
##절차
13명
일본인
칠레
압류
난항
살펴
준수
##기업은행
##됐다
권창훈
레스터
우려에
평화의
농축
편성
위기의
향연
주택대출
잠정
웨스트
##취업
혁신성장
풍경
산업혁명
식당
##거래일
얼음
##쿠르
폴드
바꿔
암호
연합이
갤s9
찬반
고려대
정규직
중요한
제한적
##ᅳ레인
형제
좌파
품질
데뷔전
메이저
예비후보
측정
전기차
당선인
탐사
##한국당
자신감
멈춰
psg
둘러
한중일
악수하는
##전망대
짧
자영업자
피아니스트
##니어링
거짓말
태영호
nhn엔터
어렵다
사물인터넷
인스타그램
불투명
모스크바
오신환
sk하이닉스
1회
5선
5이닝
76
95
dm
f35
ks
드루
쑥
털
##으려
##ᆻ습니다
##땀
##cl
##4천
##ed
##뿐
##ᆩ시
##하우스
##리테일
익
이영
이겨
이웃
##지영
##기능
##기세포
##어진
##자원
##의혹
대리
대행
##사이트
##화로
##정식
##상담
##종환
##합병
##회동
##일러
지주
지카
##수록
##아프리카
##트트릭
##제일
사살
아기
전설
공인
공감
##진대회
정선
##나종합
##나요
##공자
최하위
연출
연준
경질
부여
마라
출구
##계올림픽
비예
내놓
##우는
조합
고지
고통
고개
##영장
##영향
오래
강백
영광
한국은
상가
상하이
모멘
자치
해트트릭
##찾
어선
방미
감상
일왕
##중심
다가
다녀
노린다
10개
도서
도종환
##현종
##카쿠
##투쟁
실리
불과
평점
매일
박용
원장
외화
##작품
후끈
민족
트래
이란과
증언
단계
감독의
파이
파티
청소
##네요
##박스
초과
초읽기
논문
논쟁
폭락
입주
입증
##등록
완벽
kb국민
설전
앞에
알바
알렉
패럴림픽
맞서
##애틀
건조
목포
창단
저소득
100명
부산서
금융시장
13개
총리와
않다
않겠다
압축
막바지
멤버
광주시
사업자
친정
사이클
기념촬영
독일서
테러조직
블루
질문
특별전
천안
향한
몰라
문화재
문화예술
##삼성
풀어
풀세트
nh농협
밤부터
tv토론
이제는
않았다
왜곡
최종구
한진칼
##ᆯ린더
블랙홀
봉사
읽는
덕분
삶의
걷기
이주민
쇼핑몰
총력전
떨어져
아르헨티나
쌀쌀
흡수
힐만
단말기
##ᅡᆷ보디아
정동영
스튜디오
불확실성
##엔지니어링
리커창
연합이매진
드루킹
강백호
1주년
6연승
88
9천
es
gm
ma
slb
쇄
캄보디아
틀
##똑
##씬
##1명
##ᆩ은
##스탄
##리한
##해진다
대세
대파
##사관
##도서관
##정국
##정권
시카
##전력
##가락
##같은
##인데
##인즈
주권
짓
##숭
##수령
##성기
사의
사인
사립
전월
전담
전복
전반기
공군
##통법
유도
유포
유혈
국면
화려
정착
정취
신당
인프라
##ᅳ르
##나누
##공정
##공조
연간
연패
##치기
##조건
경상
중인
부르
추대
김선
김관
##재난
비례
비공개
##승호
##발표
고가
고령
보관
보급
보인다
##들에게
##맛
##닐
##학원
한국노총
모임
자전
무소속
##교수
해변
##왔다
대통령에
##그다
나의
나무
나올
소말
다수
구상
10주년
##생물
세금
올레
올랜
올겨울
##배상
재현
호위
호흡
관훈
##디스플레이
금강
교섭
샘
훔
왓
트레이드
단통법
파워
##말라
베일
임직원
##ᅳ래프트
릴레이
입고
축전
##플릭스
속초
산간
최고기온
챌린
미국에
##처벌
맞춰
탈세
저장
##글로벌
여자프로
12년
##평양
ai스피커
철거
##불어
홍콩서
##캘린더
점령
있었다
없어종합
코로나19로
##먼트
버전
페북
참석자들
##라이아웃
##으며
경쟁률
수상자
용병
웨어
##취소
한미일
풀타임
##과학기술
소설집
병역
부동산캘린더
맹공
사진전
분양시장
icbm
2022년
경영진
##랜트
루니
라이브
임명장
##베이션
따뜨
쉽
괴롭
연말까지
트라이아웃
바르셀로나
##맥스
징역형
김태형
##토론회
mbn
벗어나
크리스마스
정지석
나흘째
##얀마
ibk기업은행
wto
아우크스
해운대
넷플릭스
##트럼프
우상호
kov
선동열
편의점
##사령관
비슷
똑똑
비예나
slbm
소말리아
00
1개
5도
5배
5연패
a매치
sa
게이
끌어
든
싹
앵커
팽
##메이
##쇠
##브론
##덤
##놔
##2천
##5년
##3천
##16
##yt
##이사에
##시르
##시키
##에다
##에만
이자
이건
##대비
##사는
기각
시애틀
##고도
##상승
##인상에
주시
##붙
##부진
##아리
사는
##요청
아빠
아리랑
한성
한마
##라고
##명으로
##유입
유연
유족
유커
화이트
신화
신약
신흥
##비서관
가시
##소형
미얀마
연수
연예
##개특위
부각
부처
추억
제7
##연극
김포
여의도
비전
비박
빅스
조절
보다
보건
보완
우세
강등
서점
영공
영토
##학기
##학년
한국기자협회
모의
자살
무관
##방향
해지
발레
발족
##러블
##차량
스스로
##타석
##타이어
##여부
다큐
##내는
구제
##밖
10만
##려면
세력
##모델
올가을
바시르
##배정
##운전
##달아
##역서
##약품
##현안
##툼
##투갈
실수
실제
성범죄
북측
북서부
박상
박탈
##심판
교실
진압
sk증권
왔다
거점
배출
ktx
투런
##넥
로드
로버
트럼프가
초반
##복합
분할
베르
임도
계정
돌연
링
리스크
입성
중국에
##플래
대표에
최고가
양양
##철도
적시
11시
패키지
애틀
직격
건국
건너
국내외
본인
운전자
심리
##베르
물가
물질
15년
100만원
##평통
황사
말컹
테헤
1천명
못한
연속골
연구자
##불안
##퍼시픽
막는다
198
부상종합
##착륙
친이란
버튼
프레
140
대선후보
##혜진
대화하는
농업
##30분
최저치
##민주당
봄꽃
몰린
면접
정보보호
발언에
폭염특보
##홈쇼핑
플랜
gs건설
바이러스
##릴까
들고
들썩
탑승
시간당
##농단
수익성
360
응원단
검색어
등록금
안타까
증권사
태양광
측근
만난다
최악의
##ᅱᆫ헨
법무장관
2016년
##랭코프
말레이시아
김재환
남아공
인사말하는
황금연휴
인종차별
앞세워
컴퓨터
유진투자
수소탄실험
스캔들
원자력
수감자
팩트체크
ecb
메이저리그
dmz
시카고
빅스비
투런포
애틀랜
테헤란
%·
1안타
1순위
3자
4번째
6경기
72
7도
82
at
era
nyt
록
뮌헨
옹
져
##ᆯ라
##랄
##낭
##mbc
##칸
##4일
##4년
##3년
##6회
##pc
##하던
이중
이병
##지면
##자기
##원들
대박
##장으로
기로
싫
##회관
##회식
##부대
##부상
##부담
##일기
##한파
##성명
사내
아무
아람
전송
##위대
공채
공영방송
##세상
국산
화합
수정
수렁
정비
가고
가전
가야
과반
과총
최신
##조약
중거리
부채
추적
제치고
##재판
비자
내줘
##승째
조지
조속
보러
보증
봇물
오류
##마켓
상당
상태
모여
자선
뭉
무너
##방서
##교섭
어느
방출
감지
일시
소외
##분만에
문성
다룬
굿
노출
노딜
##포트
반복
##청년
##오스
##오롱
재도
피부
##거부
##거나
차원
실현
##디스
장벽
삼성폰
외면
외환
##노선
##감사
##건아
후랭코프
##콧
##코스
특혜
배럴
트럭
트렌
투쟁
감독과
파다
그대로
역시
초연
당분간
##데미
##본다
돌려
승객
##워키
##추천
러브
속속
산다
산재
독서
독도
올해는
행위
행정부
코스타
학부모
애니
##레인
##온도
##악산
창의
심재
물결
물류
라건아
딛고
테스트
##채권
연구개발
칩
준다
골드
백인
극장
메리츠
카카오게임즈
50억원
해외주식
표결
레드
하락세
관광지
판매량
키즈
경찰관
콘테
석탄
실적개선
##라이프
좋다
질의
퇴직
##널리즘
##접촉
##참여
영향력
잠재
이재명
헤인즈
참가자
서울시향
70주년
요금할인
얼마
뛴
혼돈
조성진
걸프
이정미
랩
먹통
흔적
거리두
가상현실
관계자
제2의
최강희
v30s
따른
##끼리
##트웍스
사무실
##있어
늦어
케이블
##요금제
노사정
유명산
##폴리
상한가
플레이오프
fc서울
##리바운드
김경수
앞세운
균형
악성코드
포켓몬고
cctv
번호이동
##리조나
독재자
기후변화
김주성
포르투갈
광복절
벼랑
양승동
린드
한라산
능력
무더기
잠수함
레스터시티
실리콘
화려한
김관영
웨어러블
임도헌
아람코
1점
1만명
2기
3연
4도
4배
94
96
9시
dl
em
iae
ml
na
ue
wk
wp
뜬다
뭐
셰
쏠
혐
##먹
##긍
##둘
##턱
##뇌
##눠
##녕
##팡
##팽
##페이스
##ᆺ속
##뚜
##cm
##ᅫ기
##8명
##it
##ia
##nk
##ᅡᆫ시
##이전
##하기로
##스컵
##리산
이래
##어가는
##서운
##대생
##해져
##자흐
##원대
##장군
##정신
##국악
시중
##과서
##전화
##상태
##인이
##부패
##부겸
##일에
지배
지침
앉
아내
전작
전세계
한도
한산
##통제
##통위
##세프
정조
정우
신축
신소재
##동력
##비리
##비서
##비상
##비율
인디
##나마
과태
##공유
##소로
미만
미투
미흡
연체
제어
김세
김부겸
##ᅯᆯ컴
엿새
비싼
##우리
고향
##미널
보잉
오는
오르
오름
오키나
서해안
##프리
한국문학
##란고
무대에
##무장
위법
나도
낚시
감동
노린
##포인트
도서관
코리안
코오롱
밖
##역사
##크라이나
재고
재검토
피의
##카데미
##...
관여
관건
차범
성화
성탄
확실
불러
총회
매도
결단
회고
회수
##론에
교도
진보
후반기
특사
##ᆯ런
##급여
민원
프로모션
파주
파행
##네트웍스
더불어
초기
초점
초고속
##난다
##00만원
계곡
리얼미터
합법
열전
타자
설비
설욕
채무
달아
##히기
법사위
패션
핵보유
애도
애리조나
직전
직면
30분
저항
##징계
##ᆯ리스
##예금
종목
##목표
물고
##배구조
개막전서
##웹
간판
터키군
아이들
금융당국
##골프
허리
국제표준
국회서
넘었다
##블럼
순유입
골란고
있게
메신저
없어도
카카오페이
평양공동
표창
히어로
##협회장
친환경
협력사
낮아
##휴가
농성
구글플레이
필요한
대북정책
편입
외교부
40대
천재
##문화재
용인
중단해야
몰아
발사체
난민구
하루키
팔려
업무보고
60대
헬로
##잡기
만나다
밀려
밀워키
tv조선
##촉구
체험존
바꾸
##땐
뛴다
왕이
김영남
싶은
김종민
사전예약
답하는
곳곳서
조기총선
뉴욕서
라이벌
자유한국당
필리버스터
달라진
치료제
초등생
르노
태양전지
프리미어
크게
전년보다
임시국회
아니라
여파로
심각한
김기식
송환법
2017년
가계부채
##만9천
##만9천원
횡령
진상조사
voa
기획전
뿌리
조현우
부적절
폴더블폰
##스러운
올랜도
관훈클럽
kovo
직격탄
거리두기
린드블럼
iaea
uefa
##ᅡᆫ시스코
과태료
오키나와
차범근
평양공동선언
3도
6강
9도
bm
ifa
tf
u23
곡
겸
론
솔로
쐐기
컷
##ᆯ스
##뒤
##녁
##9명
##꼬
##2명
##ᆻ을까
##3일
##po
##ig
##이터
##시도
##에선
##하지만
##리다
##리비아
##리얼미터
이송
이색
##지로
##대식
##자연
대대
대림
##사실
##주로
기조
##정은
시신
##전에서
##가입
##가결
##보장
##보합
##회계
지사
##수출
##수익
사표
사직
사냥
아모
아세안
전에
전승
한컴
개원
공기
##세탁
수치
수순
정원
정유
정확
신공항
##동진
##낮
##나운
##행정
##소장
최룡
연세대
##치로
경연
##민정
김승
김희
##안해
##문트
여신
비트
##발한
##발언
##우프
조원
조직원
고강도
##경필
보합
보령
우정
우회
옷
오프
옵션
##마토
서재
서훈
##파워
한국에
상정
자처
해리
해경
대통령이
발매
##긋
안양
습
스티
##타워
##티노
##여개
감찰
일축
##분양
문건
다문화
닮은
##르담
10년간
도르트
##모드
예탁
코미
남양
통계
반갑
반부패
##청구
동서
동장군
핑
성금
불공정
장미
장현수
##매매
결별
박찬
원로
교직원
lg화학
진땀
##작용
후반
특정
배신
##탭
카자흐
요르
단호
출시종합
투명
파열
초선
초당
초중고
것은
참패
당대표
엠
분당
##질환
승선
리니지
입시
입학
입찰
합성
합창
중국의
최고령
설문
양대
미국과
적절
직권
##레일
환호
환송
목사
창간
저녁
군벌
##검증
##ᆯ리페
##예선
심장
12개
종이
물량
##경기서
100억원
##케스트
디우프
여행객
1천만
금융사
또는
탄소
투자자
날개
연구비
치매
순천
##틀랜드
오늘은
끝난
줄기세포
항공사
합의안
표류
송파
접견
농촌
석달
대북특
인사청
kisa
펠리페
블로
검토종합
받고
안전지대
봄비
2천8
침몰
높이는
착공
##삼진
한미정상
도전장
회복종합
탄핵가결
식물
밀양
볼리비아
해결사
외무상
##괴한
5천만원
바이든
전문가들
사전투표
이정후
##진흥재단
k리그2
##덕여
최강한파
남부지방
괴물
출판계
유튜버
나서는
완파하고
##연합회
노트북
중부지방
탈북민
택배
##퓰리
국감현장
아쉬운
듀랜트
##브로드
##뮤지컬
유로파
iptv
취재진
피서객
정세균
체감온도
헬기
에버턴
잡아라
기지국
imf
##쓸이
최고위원회의
덴마크
##발레단
정운찬
몽골
과천과학관
민정수석
트라우
대변인
사모펀드
##테르테
싹쓸이
이건희
로버츠
애틀랜타
파다르
dlf
nasa
골란고원
bmw
최룡해
도르트문트
예탁원
1운동
3억
3실점
3타수
4개월
5개월
6위
77
84
cns
t맵
랭킹
뿐
틈
턱
##룩
##ᅱ셀
##펄
##끔
##5일
##ci
##3명
##시30분
##스마트
##리서
이노
##지부
##지침
##지지도
##지않
##대문
##대금
##해수
##의료
##원으로
대권
##사기
##사원
##사항
##주도
##화면
기어
기도
기계
##국에
십
##전남
##상의
##인치
##부부
##아시아
##야당
##젤
##제철
사자
사외
한인
##위험
##유예
##선물
국영
수습
정회
정말
정밀
신라
신승
##동차
##비드
가나
가져
가열
인가
인텔
미스터
연관
연락
경비
##개교
중력
##민족
추구
선도
선생
선배
김문
출동
출품
##터키
비극
내린
##신탁
좁
조달
조처
고정
고동진
##미세먼지
보니
웅
오를
##마블
강요
서방
자주
자급제
##무근
##와이
##와의
발급
발끈
안에
스카이
##속도
##틱
어머니
방해
방러
소유
노후
10억
10만명
##려는
도박
예스
예외
##입니다
올여름
밥
의정부
재즈
피습
##카라
##남부
차분
북동부
장성
장악
##결정
박준
##심도
외출
진로
##코인
포퓰리
카탈
투어
감독에
역량
없을
트럼프의
초미세먼지
참관
##복구
##루냐
홍수
임용
승진
리우
야외
두달
두테르테
속으로
산지
최고위
설득
앞당
양현종
행성
행렬
경기장
개발자
미국이
스마트홈
학원
드림
저널리즘
복수
종전
라디오
류현진의
##시장서
##평균
간호
##돌파
말아야
캡
캐릭
기업들
않고
않기로
##채용
##채널
되살
증가종합
증가세
연구소
넘는
넘게
업종
기대에
후보들
항소
메모리
땐
##변동
50주년
표정
기자들
코로나19에
촉매
울주
16명
송인
윤덕여
##침해
경찰에
사이트
근접
테러방지
##특별
40년
받는
특별한
브뤼셀
공모가
향후
주택담보
검찰총장
찾아온
높인다
길따라
웨이
착용
한화투자
신한카드
##머리
비판에
벤치
##충남
주목종합
훈풍
경고종합
군사작전
낙관
사실무근
왕세
분양가
##논란
##주택자
밝힌
들려
주민들
각국
%↓…
##성장률
엔씨
샌프ᄅ
사랑의
불가능
옥수수
닛
녹색
사령관
장마전선
대법원
대법관
임대료
3점슛
김태년
##프렌즈
듣는다
취약계층
법무부
직장인
비행기
출연연
무장괴한
프리미엄폰
##솔루션
낭독
##음악회
기다리는
신영석
펜스
기상청
##키나파
이대호
시내버스
5차전
지능형
음주운전
죄송
짐바브
stx
인명피해
##ᆫ찮
괜찮
화장품
화제의
펄펄
보이콧
박용택
자전거
괴롭힘
트렌드
심재철
얼마나
난민구조선
아모레
요르단
카탈루냐
샌프란시스코
짐바브웨
2승
2조원
2타수
3조원
4조
5만
62
6도
74
ds
fo
hdc
v40
wh
끼
는
메이스
뷰
뿔
트로
…...
##궐
##게이트
##ᆨ보
##ᆽ은
##프레
##0억원
##깔
##2부
##52
##8일
##led
##ᅡᆫ치
##시스
##스카
이원
이도
이모
이석
이태
이례
##롤
##지마
##섯
대동
대국민
##사와
깃
##다리
##다른
##전으로
##가의
##인절
##보스
##보수
주류
##구성
지출
지각
##숨
##수입
##수첩
##아파트
##제국
##제작
##요원
아태
아카데미
아나운
전공
전집
##드서
개표
개강
개봉
##라는
##유공자
공작
##만장
##만한
##만간
유권
국빈
수행
##산지
가르
가닥
과잉
##공방
##소자
최연
최적
최후
연천
연방
연료
##치아
경호
##갤러리
중지
추월
추첨
마비
제의
##연수
선진
김수
김한
김홍
##안에
##안돼
출산
출정식
##재개
옆
여왕
##우진
##우디
##신용
조세
조별
조롱
조만간
고비
오성
오피
##마저
강해
강수
강소
영역
##팎
한국서
한국경제
한국관광
한국언론
모범
자존
무효
##출동
##출마
위헌
발포
발송
발효
나이
나치
나눠
스토
소수
소행
##분리
##중일
문의장
문경은
다르
다툼
구체
구형
구직
##바르
##바페
10배
##포스
##몸
##설에
##설팅
바닥
남미
남편
남측
남경필
##청회
##오페라
의총
재심
동계올림픽
##텔링
##카메라
차지
차례
##담화
북극
##디에
평생
박물관
박혜진
원리
원화
원천
원샷
##심리
##물로
lg폰
sk텔링
포장
포스터
민병대
요인
파울
파악
파나마
청산
청문
역풍
초여름
##집행
##복귀
당원
당일
엑
에릭
에디션
에인절
체력
폭로
##총액
##광장
분기
분수령
베로나
승용차
입지
광역
##최대
##최고
월간
완판
태안
태권도
양의지
적대
##처장
달려
세계선수권
앤
맞불
터치
저가
저작
##회의서
##베스트
변동성
종사자
푸른
간절
##페셜
아이패드
말고
##곳에
1천7
탄압
일본에
음바페
강화해야
넘은
넘을
##기업에
후보에
공격수
공격으로
극적
극적인
점거
있을
50년
##겠다종합
##레이드
관광공사
커피
프란치
윤곽
노동부
전망치
평화협정
긴밀
통신망
하나의
총선서
교육과정
퇴근
담당
담판
금리인하
남자부
##쳤다
잇달아
찾아가는
침체
##친다
착한
힘들
##스팅
즐긴다
즐기세요
보도에
존중
무역분쟁
지속가능
넥슨
한반도평화
체험하는
##넘버
경남도
꿈의
쇼크
팬들
늘린다
##정상화
중앙은행
카메라뉴스
추석연휴
예산안
한진그룹
##윤리
웃음
##풀이
초등학교
봉쇄
ces
대우건설
##크라운
썼다
교통사고
놀라
관람객
스쿨
##사진전
라인업
셧
최우선
차이나
##통일농구
소프트뱅크
챔피언십
상한제
매직넘버
까다
꼼
잃은
피아노
넷마블
소속팀
##탐사
띄우기
멋따라
##전문가
답변하는
한상혁
오세근
손해배상
실태조사
박지성
꿈꾸는
비즈니스
증강현실
살펴보는
부르키나파
챌린지
문성민
재도전
혐오
##케스트라
사외이사
예스24
테러방지법
아나운서
프란치스코
%→
02
01
1골
1년만에
2도
2종
2부
2억원
4타수
6이닝
78
7차
7개월
b컷
fta
드래프트
렌
뭘
썰
쓰러
찰
첩
퀄컴
펴
펑
헐
##그ᄅ
##븐
##벅
##뱅
##브ᄅ
##bl
##톨
##ᆺ가
##ᆺ봇
##200
##뚝
##콰
##쾌
##4명
##em
##ep
##gi
##nn
##이나
##이용
##하니
이성
이진
이공
이러
##로직
##지연
##기도
##기영
##대서
##대란
##대병원
##해협
##원식
대포
대립
##사표
##다발
시가
시구
시한
시드
시속
##고사
##전담
##가고
##인지
##인원
##인프라
##보상
##회찬
주체
주장에
##구장
##일정
지문
지배구조
##숲
##수기
아주
아키
전하는
한눈
개포
공주
공산
공직
공룡
##진단
##진욱
##세종
##만7
##만6
##만으로
유의
유보
유발
유예
유죄
유벤
국악
국채
화두
수시
수학
수교
수색
정리
정전
정호
신장
##비엔
##비정규직
가구
인상에
##공화
##공모
##소위
최양
미달
연이
연타석
경례
중점
중순
중학생
부위원장
부작용
마카오
##연한
##연료
선방
##잼
비선
내홍
##승주
조금
하차
고수
고마
고졸
##당해
##경매
보편
우위
우산
우크라이나
오토
##니터
영유
##체육
##프링
한국시리즈
한국여자
상주
상업
모디
모니터
자택
묶
##출산
##교환
해명
위축
발대식
안도
스파이
스페셜
##타격
##점화
어두
어깨
방화
방치
소동
문턱
2070
구독
노회찬
세르
예결
등과
바둑
바레인
반란
반려
##역에
##석유
삼진
동행
동북
동양
##게요
차상현
실력
실내
북상
확신
확충
불복
불씨
불황
장원
장자연
총출동
##결산
##양서
회생
금속
박철
박정호
원작
진영
##작업
##규명
##코치
포착
##강국
##할것
##토벤
이란이
작아
파생
##군사
협정
검은
검출
분산
베토벤
계절
승격
승률
##음식
##워야
두경민
##엔진
5gx
산은
대표와
챗봇
##창고
적응
가능할까
2010
패권
국민에
맞이
맞고
##애나
민주화
건의
30도
본사
그래도
우리나라
남북통일농구
##츠부르크
##편집
12명
물리
100세
##희정
눈치
급식
##주의자
터키의
##페리아
추진종합
1천9
1천5
1천1
1천6
1천억원
1천만원
금융투자
않으면
강화종합
홈페이
증가율
언론자유
논란종합
찾는다
준공
##퍼드
##됐던
##너스
스마트폰으로
극동
가능성종합
18명
줄이
줄고
프로농구전망대
##변경
선거서
손흥민의
플로
##올리
버려
윤호
노동자들
악몽
전망에
감소종합
평화협상
이스라엘군
사이테크
농도
지지도
방송사
##받는다
24시간
참석차
##30억원
의혹에
테러범
글ᄊ
퇴임
23명
잘츠부르크
##효율
##슈타인
대전시
용납
몰래
팀내
침입
문화소식
##생명과학
##갈이
배구협회
국정지지도
면세점
##스텔
숨은
이재용
통합우승
##머스
밤에
코스닥시장
탄핵안
응징
식량
2차대전
밀착
1년새
사드배치
병력
돼지
됐다
혼자
##필드
펀드서
icc
충돌로
밝히는
프로축구2부
견인
각오
쓰는
35도
집단탈
##스토리
예정대로
신용카드
신용대출
##사태로
제1회
겨냥한
바른미래당
즉위
어려운
호우특보
나눔
##잉원
시청자
이주열
##셔널
##2년생
불안한
##80선
색상
밝혀야
멈추
차별화
떨어진
차이잉원
##둥이
유로존
사령탑에
트리플크라운
정면돌파
박영선
##장애인
재활용
평년보다
컵스
굳히기
vod
균열
조건부
정경두
한숨
고성능
두바이유
플라스틱
##쿼터
이산가족
수백명
만루포
가이드라인
수십명
삼성sds
대역전
전광인
퓨처
압류재산
저소득층
멤버십
##플랫폼
배럴당
정조준
더불어민주당
핵보유국
대대적
대림산업
중력파
주택담보대출
아모레퍼시픽
최연소
조별리그
sk텔링크
##그레이드
한눈에
1부
1심
1볼넷
2회
2시간
2척
3승
4번
4이닝
6번째
7시간
8도
8연승
92
98
bbc
dna
ls
oa
sf
s펜
멍
뼈
뻔
쪽
큐
켜
크레
혹
훨
##궤
##그로
##bi
##s3
##tt
##팜
##똥
##ms
##ds
##큰
##쑥
##쩌
##3당
##6일
##쁜
##hd
##이행
##이민
##시다
##하러
##스럽
##스캐
##스센터
##스카이
##리가
##리티
##리면
이지
이런
이끄
##지표
##어스
##어서
##어드
##해석
##해결
대란
##사례
##화가
기분
##정비
시군
##과제
##전시
##상봉
##종범
##종목
##인협회
##보좌관
##횡
##회에
주제
주최
##붙은
지수
지니
지동원
##성이
##성에
##성실
##제공
사찰
전반
전훈
한발
한양
한파트
한낮
##위반
공론
공립
##선발
##세에
##업자
유사
유용
유령
국보
정정
정계
정례
신혼
신저가
##비용
가담
인질
인턴
인문학
##났다
과로
##공급
##공헌
미성
미세
미소
##용호
경합
경력
##개최
부테
##단속
제약
##피는
##관세
김지영
비주
비결
내수
##신욱
조평통
핫
하자
하퍼
##미아
##미희
보낸
우원식
오클
강구
##학자
##학습
자가격
자위대
무슨
무상증자
##무사
##교회
햄
해도
해협
위장
대통령여야
발열
발탁
##차단
안랩
안팎
낳
나포
스님
##여성
소셜
##분할
##내기
구원
구미
노무
노키아
10시
10분
만장
세인트
도달
도자기
##모금
예판
예매
코엑스
바흐
남해안
반입
##역량
##청원
##오는
의문
재외
재편
재협상
동안
동네
피날레
호세프
차로
실망
성인
성큼
##디언
불성실
장거리
##매수
##매출
##륜
##버린
결성
박람회
삼성중공업
외치는
교정
교역
sk브로드
##감염
특집
포격
##ᆯ름
##ᆯ럽
##폰서
거센
밴드
이란군
작렬
증정
서울옥션
파죽
청춘
청신호
참의원
에세이
임상
계좌
##외노조
##즈볼라
##병식
중국군
광산
현대증권
두려
##플리카
열병식
타임
##스트로
생겨
생방송
속에
산책
태평양
설악산
개발에
적금
세계적
세계기자
법외노조
패전
국민께
맞손
직행
##레저
30점
30억원
군함
##극단
##검색
##람선
류중일
명소
여자부
##편소설
토크
라임
급부상
부산시
터키서
휴업
테크
1천3
1천8
캐리
##챔
연구실
칭
찾기
찾는
업그레이드
##틀러
##퍼트
골라
골절
결정에
기대종합
막는
##캡
메츠
권영
발표종합
50만원
광주전남
##한다종합
표승주
힐링
##겨운
촉진
절실
절감
친문
송금
접목
많고
대구시
필요종합
##받고
공동연구
근본
근절
교육청
블라
흰
함께하는
인터넷은행
2천억원
3년만에
담보
주택금융
침범
온라인으로
웰
사상자
사회복지
사회공헌
팔꿈
가을야구
풍랑
풍덩
멕시코서
헤즈볼라
주장종합
이통시장
수출규제
다음주
##ᅩᆯ로지
고객에
##십자
1년간
이번주
##지도부
빅리그
강세종합
거부권
바이올
mwc19
만들기
한파에
답방
억지
억제
중동평화
지분율
##프로스
그리고
등교수업
독립운동가
먹고
항공편
장기집권
엔트리
##금지법
샌디에
##암호
##관광객
극우당
빨간
시험대
질주종합
적자전환
즉시
니퍼트
도착한
2배로
마이크로
나경복
승부수
노트르담
##찍
시범경기서
처음으로
득점왕
3차전
반정부시위
정기국회
강경화
맥주
수비수
조직개편
해수부
가계대출
1주일
낭만
집행위원장
ipo
뽑은
김현수
고양이
혈투
농협은행
재선임
던진
##기념일
인민일보
##결의안
박정아
##유치원
##수영대회
에버랜드
리더십
##심의위
장병철
세대교체
전지훈련
엑스페리아
보통주
느낌
콩쿠르
전당대회
kb국민은행
알렉스
기념촬영하는
봉사활동
흡수합병
전월세
혼돈의
wkbl
##국악원
히어로즈
웅진
캐릭터
fomc
이례적
오피스텔
셧다운
##쾌한
최양희
한국여자배구
이끄는
한파특보
공론화
부테플리카
자가격리
sk브로드밴드
팔꿈치
샌디에이고
1대
2대
2점
2년만에
2라운드
3인
5시
5주
5년만에
600
6개국
700
7연승
7연패
89
82년생
9개
al
d3
in
k팝
os
pk
so
객
갱
겁
넉
덥다
레이스
브루
세이
잭
점프
쫓
험
↓…
##ᆫ스
##흔
##훼손
##ᆸ니다
##브랜드
##ᅱ도
##탱크
##뇨
##9회
##꺼
##2일
##ᆻ네
##떼
##vs
##쩍
##7명
##8천만원
##이즈
##에어
##하여
이명
이소
이천
이문
이들
이강
이근
이희
이주의
이치로
##지기
##지정
##지점
##기계
##기를
##기획
##서적
##해주
##자를
##원서
대장
대여
대외
대륙
##사의
##사랑
##돌리
##도니아
##화질
##화요일
##가동
##갔다
주는
##부족
짙은
##수급
##한도
##한듯
##아일랜드
사죄
사나이
아일랜드
전경
전태
한여름
개의
##위에
##위권
##명단
공통
공학
공직자
##선다
##선민
##선권
##만큼
유심
유람선
국장
국외
화해
화상
수집
신의
신부
신생
##비행
##비치
##비즈
갇
인물
##ᅳ름
##나코
##행성
##공제
##용품
연고
연금
##간힘
##칩
경총
##개정
부대
부글
##민당
제고
##연정
선별
선착
김환
김하성
##안먼
출사표
여진
비위
내비
내리는
##발유
##신임
##금질
조상
하면
고도
고창
##호스
##경선
보강
보세요
우린
오사
오디오
오케스트라
##마케
강보합
서안
서버
서정원
##니에
##프라이
##판결
##학대
한국은행
한국투자
상영
상처
모자
자진
자매
자카르
무덤
무디스
##출루
##방어
##방학
##방식
##교도
윌
위대한
##램
발동
안방
안건
안우진
안희정
안간힘
스모
##티드
##여대
##여가구
어르
감각
일으
##중지
##중재
문선민
20주년
20여명
##낸다
##르고
노리는
##바니
##바른
10도
10년만에
##려고
도와
##면접
예의
옐리
코레일
바그다
남이
통상
통영
통역
반전
반값
반짝
##약정
재연
피란
피랍
##현준
현안
호수
호평
관전
차등
실감
실형
실탄
확률
##망이
불량
장외
장례
장하성
##축전
매년
##버리지
결항
박미희
삼성카드
삼성전기
왼
외야
교회
진지
진주
##건의
##건우
후회
후손
후쿠
특고
특급
포괄
##ᆯ루
##강좌
민속
거취
배임
트뤼도
이란서
카메
작동
작별
작곡
요격
단합
서울시장
투톱
파기
파병
청취
로맥
손상
초강
에볼라
에콰
폭동
##루이스
##되지
임무
리콜
리선권
충주
광장
현대제철
열광
5g로
산하
산수
완간
양도
양보
행안
##번역
지원사업
취항
11년
법률
##위원장에
##씽
##렘
환불
목숨
사망종합2보
저하
저축은행
본부장
변동
종속
토마토
전국서
물어
물밑
15명
라스
100만명
##희상
내일까지
딜
딥
휴양
ai가
말까지
##메리카
##멤버
금융권
금융지원
경제부
경제정책
경제성장률
13년
13연승
기업인
총리에
않는다
연구원
연구기관
필승
순항
살려
시리아에
골키
오늘도
막힌
180
18년
점점
점심
항모
항암
상승폭
돌파구
권익
50명
부상자
격리
격전지
##한다면
히트
##20선
레전
울려
하락종합
160
친중
접경
윤상현
노동개혁
약정
제재로
키워
키프로스
##쇼크
과학자
번영
홈런포
홈런왕
사이언스
석진욱
기념행사
이용찬
편지
외교안보
##라이즌
##웨이중
질병
갈라
역사의
##참사
징후
수상작
봄이
##문화재단
잡는다
용산
담긴
담금질
주택시장
오후에
요구에
출전해
아이폰7
침수
높인
공연장
공연소식
한미훈련
배구단
데려
데얀
면역
시민권
성장세
##했는데
##폐지
최다승
2년간
책임자
고용노동
식민
식품
없다종합
축제장
작가들
외무부
서울시립
신규상장
##바이러스
##링크
폴더
돌아오
결승타
왕웨이중
##컴퍼
우주개발
혼조
어린이집
##뉴얼
암세포
만들자
들여
찬바람
루카쿠
이적료
먹거리
항공권
맑다가
바다로
부진에
##관광청
득표
이승엽
슈퍼화요일
한일전
휘발유
르브론
취업자
웹사이트
니스
박항서호
멀티히트
탐방
아이폰xs
제조장비
kcgi
명예훼손
구속영장
##80대
##60선
레이더
가속화
자산운용
전체회의
##경찰청
##뮤니
##뮤직
트리플더블
바뀐다
폭탄테러
믿어
중도금
기다려
신영철
실업급여
##이라는
안갯속
욕심
fc바르
정면충돌
묻다
나들이객
박영수
잃어
중대재해
하이투자
컵대회
신입생
##사이더
##볕
갤럭시노트8
##리조트
pd수첩
한수원
동아시아
나이지리아서
톈안먼
고대영
회원국
신한금융투자
중고폰
##협의체
##삭스
흉기
국립중앙박물관
동성애
한동훈
철저히
지소미아
일방적
##거래일째
nh농협은행
나올까
교섭단체
한성숙
적시타
시중은행
오름세
##웹툰
비트코인
오프라인
인사청문회
포퓰리즘
who
자존심
첩보
##로직스
유벤투스
세르비아
글쎄
미성년
만장일
세인트루이스
세계기자대회
옐리치
에콰도르
fc바르셀로나
1번
1주기
2호
2패
2안타
3국
3선
3파전
4종
4실점
4년간
5당
5억원
83
acl
cnn
d2
g8
lng
mm
s8
su
sh
th
꽈
껑
람
롤
며
몬
송구
으
제이
칸
##흑
##ᅳ라이
##ᆷ이
##넌
##녹
##네이
##펙
##ᆺ다
##21
##mm
##5회
##cc
##ᅣ오
##쯤
##4억
##fp
##6년
##6명
##pg
##ri
##id
##이체
##이사회
##이라도
##시한
##시내
##스쿠
##스카르
##깃
##기인
##기반
##어지는
##어링
대성
대산
##장면
##장벽
기구
기류
기무사
##다시
##국적
시일
시흥
시너지
##고시
##같
##가에
##합성
##부세
##부품
##부동산
##구로
##구단
지부
지위
지옥
지리산
##수지
##수산
##앗
##아티
##제안
사각
사옥
아픔
전해
전진
전술
전액
한경
한식
한옥
##드래
개미
개회식
##위한
공고
공청회
##통계
##진료
##업무
유안타
화가
화산
화력
수신
수강
수림
수놓
정현
정쟁
정개특위
신보
신진
##동안
##동물
##비로
##비는
##비크
##빌리
인적
곽
괌
과장
과열
##공천
##공감
##소에
최진
미미
미생물
##치지
경포
경청
경진대회
##갤럽
중남
중등
부탁
##단일
마리
마포
마틴
마라도
제자리
##연봉
선원
김신욱
##안내
##문일
출하
출루
출렁
##재원
여는
##터넷
##터미널
비싸
내셔널
##승인
##우미
##신간
조화
조배
하남
고의
고은
고공
고추
##당성
##경환
보자
보트
보물
우파
오지
오보
오염
오피스
강의
강호
강판
서아프리카
##니오
영동
##체티노
##학술
##식회계
한국방송
한국야구
모인
모아
모금
모란
자랑
자국민
무주
##억5천만원
##무대
##교협
##교향
해저
해직
해맞이
위닝
발판
안종범
스카
스코
스프링
스폰서
##점에
##여만에
어쩌
방일
방영
일요일
일괄
소감
닫
다행
다보스
구설
노려
##포터
만기
세균
##면세점
##설비
첫발
코앞
올인
바쁜
##배로
통통
##운트
반지
반가
반미
##오일
##오염
의제
삼척
재조
재차
재임
재점화
동화
동상
동생
현상
##키워드
##테인
관객
##반대
실명
실세
실마리
북구
북유럽
##푸드
불화
불똥
장정
장착
총괄
##결합
##매각
매물
결렬
회부
##론가
삼성에
원하는
교향
lg디스플레이
진심
##감시
##감찰
##건강
포용
포체티노
##ᆯ렌
##급등
##강대
거의
거주
이란의
증자
증설
단지
단교
서울국제
투혼
투교협
팟
파산
파격
청정
협업
역투
더욱
초고
참전용
검열
당혹
분주
분식회계
##말까지
베팅
계엄
승자는
리뷰
얀
야수
##융합
입당
합참
열리는
열쇠
집결
생물
생애
산천어
대표이사에
독점
독려
완공
태운
판교
경기력
알림
알레
달간
학대
패소
애국
그래핀
##ᆯ리스트
##예비
심야
##베스
##베리
##베리아
명분
명절
명칭
북한식당
물든
물놀이
눈독
부산국제
갤럭시탭
간접
디종
내년도
##곳서
1천억
투자유치
허수
날아
언론재단
제주공항
순이익
##활성화
기술이전
러시아에
기대치
백제
줄여
있으면
상승률
메디
축구선수
199
때까지
내달부터
처우
국가대표팀
국가안보
격상
추가도발
평양서
선거운동
해외서
함평
기자협회
인터파크
울고
울릉
16년
은폐
##축구협회
송도
사우새
평화당
키운다
시장서
쿠릴
22명
##클래
석현준
정치개혁
근대
장관과
독일전
문제로
준비하는
##특례
지역구
최저기온
촉구하는
안전한
안전망
천정
충북도
충북소식
대학가
징용
귀성
##문화회관
잡는
출전정지
찾아라
발사에
26점
##확산
##허설
##허브
뉴스테이
뉴스키워드
##ᆷ프턴
즐거
면제
보도국장
정보통신
##숙영
팔아
헤드
산업부
조선일보
코스닥은
##했다가
이라크서
응시
밀월
베네치아
힐러리트럼프
늪
4월부터
군사적
이틀만에
gs리테일
얼어
낙마
잔액
##컴퓨터
확산에
직원들
매체들
은행권
걸린
##홍보
예술단
이야기하는
음악회
전남도
점검하는
한파경보
##셋값
뮤직
화재로
##프로야구
##농성
캠핑
##이스라엘
대결서
환영사
열렸다
형사
형성
웃돌아
관계개선
춘천시
##ᆯ린저
슈퍼스타
한국전력에
숙제
꽃샘
농구대표팀
쉬워
내주날씨
체제로
납품
솔릭
한국인터넷
현대차그룹
슬라이
김동철
퍼스트
호우경보
증권가
##발전소
등장한
홍보대사
2주간
공습으로
완전한
사라진
사라져
동시에
공시지원금
명예의
싱크
쌍둥이
지금은
강풍주의보
원유철
행복한
어디로
헌법재판
레이커스
상품권
탓에
핀란드
좋아요
##중앙회
개방형
위원장에
언제든
재난방송
풍성한
1주당
집행유예
##케이블
음식점
돕는다
김현미
해상서
etn
여객선
고양시
기초연구
##다가스카르
까지
##테이너
무력화
빙판
##독립선언
초대형
깊은
같다
진상규명
촛불집회
운명의
고위급회담
##잠비크
공매도
대타로
더블더블
유망주
과도한
꿀잼
김용균
온도차
팝업
cj헬로비전
##90선
##자이너
송영길
신동빈
쑥쑥
지주사
모멘트
다가온
##숭이
김선형
##처벌법
여자프로농구
따뜻
쉽지
러브콜
kovo컵
솔로포
컷오프
경연대회
진땀승
초당적
설문조사
트라우트
송인서적
뿔난
이석수
##롤라이나
강수량
강소휘
원샷법
에인절스
부르키나파소서
모니터링
박철우
집단탈북
oana
##스캐롤라이나
파죽의
전경련
오사카
어르신
예의주시
카메룬
종속회사
골키퍼
껑충
중남미
조배숙
사우샘프턴
꽃샘추위
03
1강
1패
2시
2개월
2번째
3방
4주
5조
5곳
5실점
69
8연패
93
9년
9개월
cbs
cia
en
gps
lig
sp
tk
un
그려
그레인
꼽
덩
딱
뗀
랴오
멸
빵
싼
톡
탱크
흘
##쥐
##겁
##ᆸ스
##ᆸ기
##ot
##ts
##펑
##ᆺ지
##떡
##vr
##5억
##cs
##300
##7억
##fe
##ar
##gm
##빼
##is
##있다
##시계
##시킨
##에프
이다
이스트
이끌
##로밍
##지화
##지길
##어선
##어져
##햄
##자동차
##의환
대진
##사드
##사격
##사망
##사퇴
##도는
##주인
기금
기증
##정리
##정의
##정밀
시큐
##고문
##전성
##전트
##상환
##가종합
##가위
##종업원
##합창
##인민
주전
##부양
##부작
##구속
##구름
지목
##수원
##성서
##성수
##성향
##아파
##아베
##제당
사안
##은경
전무
전셋값
한샘
개념
갤러리
개회사
##라ᄃ
##년만의
##유로
##유세
공중
공익
##통치
##진압
유적
유시민
유가족
유동성
국세
국익
숫
수반
정수
신기
신분
신협
신병
신탁
신도시
신바람
##동결
##동강
가지
가평
가습
가처분
인원
인연
인문
인내
##나르
과실
과감
최재
최기영
미정
미드
밀리
미뤄
연령
연애
##개방
중상
중미
중독
중립
부시
부양
##민구
마시
마주
마스터
제각
##연주
##연히
##관에
##관서
김치
김우
출생
##권력
여지
여기
여유
여권
##우주
##신라
##신평
조문
하회
하야
하현
하태
고장
고문
고급
고등
##미안
보이스
보이는
##영사관
우천
오락
##파일
##파견
##학적
한국이
한국gm
상설
모래
모욕
모잠비크
자원
자성
자멸
무서운
##출신
해석
위태
위탁
발화
##차도
##그바
안영
안정적
나아
나를
나이스
스미
스트리
스토리
##속으로
##티스
##점차
##여론
어닝
감자
감면
일기
일러
일문일
소지
소자
소독
소규모
##중독
문희상
다리
다자
다채
다주택자
20도
20만명
2050
2040
##내야
구본
##바운드
##바키아
10곳
10연승
10기가
##포니아
세일
##모스
##모토
등산
코드
##입국
올들어
밟
남산
남태
남았다
남쪽
##청산
의대
삼바
동탄
피소
##거스
##현상
현직
##킥
##템
##테네
차명
차바
##담배
##법은
실버
북아일랜드
##푸틴
##디자인
장수
총통
총액
평등
회사채
금통위
금의환
원맨
외치
교원
교과서
sk이노
특위
특권
특강
##환자
포석
포토
포그바
민병
와인
거침
이란은
요리
증세
증오
단위
단순
단거리
ktg
##항쟁
파도
파라
##넥스
더는
로숙영
손배
손혜
손가락
트럼프는
초소형
##립니다
검정
당장
당내
##난에
체크
##품질
폭언
폭풍
##광주
임지
계산
계파
승소
리베
리허설
야심
입은
##워진
##워즈
현대로
##각서
##플라
집안
타협
##스트링
생체
생생
산림
대표자
월세
완전자
설연휴
앞장
양적
경기남부
##창업
##창용
스마트시티
적폐
취향
달린
법제
팰리스
##탄생
##탄불
국민이
##위원들
드라이브
직후
국내서
30명
##ᆯ리포니아
최대어
최대한
##예방
남북대화
명동
북한과
변함
김정은에
복당
복직
종신
종결
##목적
##대표단
물갈이
라오스
##센서
100번째
##희망
##케인
개막식
터키에
황제
##응원
아이오
아이돌
말로
테일러
1위로
1천만명
##보다는
경제협력
철폐
캐스팅
캘리포니아
기업용
또다시
음원
음란
##순위로
국제적
선수로
러시아서
극찬
막혀
줄었다
줄인다
줄이고
##캣
점수
돌파종합
합의종합
때보다
때리기
##변이
처형
광주서
히로
함정
##금융지주
은성수
##올라
사업에
사업화
우려종합
프랑
악영향
14개
약화
약물
##사업에
키워드
키르기
뒤느
통신3사
대선주자
##혜택
인천서
##특사
##으니
##으세요
특별감찰
유엔제재
역사를
복귀전서
##민주화
뉴올리
2천2
이어질
용량
담배
대비태세
중단하라
##연구회
몰타
잇는
잠잠
팀에
떴다
높여
확정종합
국립발레단
워치
한화에
과기한림원
폭발사고
한미동맹
배구대표팀
국정현안
국정농단
##반도체
놓쳐
##기관에
북미대화
멕시코전
국방위
응답
##잡이
학교비정규직
상장폐지
200억원
늘었다
느끼
##촉진
인권위
체험관
슛
병행
주요국
현장점검
##50억원
29도
잔치
잔혹
돼야
쇼트
싶어요
맹폭
한국전쟁
세종문화회관
분양권
이윤
망언
전남대
뮬러
야구장
ioc
##프로그램
라이언
1차전서
cj제일
##농축
겨울축제
정권교체
##헬스
##대책회의
유치전
프리랜
3천만원
국무장관
협의체
머물
쿠르드족
핵실험장
1만5천
집단소송
사랑한
사고로
챔스
철회하라
빈곤
쉽게
시험발사
연말연
컨테이너
납세
김학의
빼고
휩
33도
##슬라
##궁화
3위로
슬픔
##릿한
어려울
나서나
누구나
주가급등
비대위원장
덕에
승부차
탐지
단일화
수석대표
전년비
공시가격
인근서
아쉬워
아쉽다
그림자
북부서
흐림
나쁜
획정
어디서
셀카
태극기
색깔
후원금
52주
자산관리
교황청
크리스털
브리검
위원회
선보인다
액션
창작자
오른다
쏟아져
돕는
돌봄교실
뽑는다
##첨단
##랭킹
빌려
자격정지
대우조선해양
폭격기
##봐야
##리랑카
방사능
유대인
배우는
중간광고
자본시장
변신한
##트럭
추워요
##임대주택
건축가
덜미
실질적
##스크린
안산시
덮친
극단주의
권한대행
박주호
포스트시즌
누리꾼
뛰어넘
호조에
##만5천원
가득한
파트너십
##ecd
기쁘
포상금
##듈
궤도
뒤집기
아시아나항공
바꾼다
결선투표
주차장
전수조사
박종훈
짧은
##나눔
올레드
팽팽
한마당
가시화
##연극제
북서부서
베르베르
돌연변이
플랜트
실리콘밸리
신축공사
인디애나
회고록
물고기
서재덕
습격
남양주
송파구
대북특사단
##해수욕장
앞당겨
종전선언
캡틴
왕세자
들려주는
엔씨소프트
닛산
뷸러
저작권
퇴근길
##톨릭
이렇게
시가총액
시드니
##비엔날레
경례하는
신혼부부
비주류
##레저대회
주택금융공사
이소영
이근호
전태일
김환기
남이섬
라스베이
레전드
고용노동부
##컴퍼니
출하량
##교향악단
스코틀랜드
장정석
교향곡
천정배
enm
그레인키
랴오닝
제각각
일문일답
금의환향
cj제일제당
1만원
1절
1라운드
2군
2번
2타점
3시
3루타
4시간
4년만에
5억
6호
8위
800
97
900
bg
dls
md
ott
oecd
sc
u18
룰
멘
베이스
삐
을
으로
쪼
텅
탁
테이
텃
푹
흠
흐름
##ᆼ거
##ᆯ터
##ᆯ까
##궈
##룰
##둬
##km
##tf
##놀로지
##펀
##퀴
##5g
##5명
##7년
##8회
##8억
##8천억원
##ᅰ어
##ᆮ는
##삐
##ᆶ는
##이양
##이야기
##스만
##스스탄
이식
이방
이른
이순
이랜드
이것
##로비스
##지가
##서기
##서점
##대성
##대위
##해상
##해제
##햄프
##해지는
##자도
##자본
##의사
##의적
##의뢰
##원의
대주주
대테러
##장이
기차
기쿠
##국면
시계
시추
##전도
##전단
##상블
##가라
##인자
##보트
##보훈
##보며
주관
주중
##부글
##구리
##구도
##구매
지뢰
지브로
##수요
##수립
##야대
##제청
사막
아인
전후
전준
전량
한시
한광
한겨
한선수
한민구
개점
개별
##명록
##유의
공안
##세미나
##업종
##만주
##만화
##만찬
유인
숭
수은
수위
수중
수괴
수천명
수혈
정도
정예
신성
##동에
##동네
##산불
##비니
##비판
값
가중
가벼
인제
인형
##나미
최인
미일
미르
미분양
##간부
##조차
##조각
경유
##개로
중러
중견
부지
부도
부근
##민심
추돌
마트
마야
마산
마블
마다가스카르
젠
제소
제6회
선사
김장
김제
김강
김윤
##문서
출원
비닐
내무
내분
낸다
내릴
내놔
##발의
##우저
조례
하라
고사
고요
고체
고백
고침
고사장
고화질
##호우
##적용
보석
보름
보좌관
보궐
##들은
우뚝
옳
서양
##니즘
영천
##프스
##판독
##파람
한국축구
한국투자증권
##란다
상시
상환
상응
몫
모로
모은
모교
모비스
모르는
자리에
무궁화
##억제
##출석
##방해
햇
해남
해빙
해병대
위상
대통령의
##래요
발길
##러닝
##그림
안동
나가
나설
스리
스페이스
스리랑카
##타이
##타기
##티콘
##여고
어산지
방글
방명록
감원
감정
감격
소사
소중
문의
다소
다섯
##격차
20조
##내려
구경
구멍
##르바
10만원
##렷
##포로
##포먼
세무
세번째
##실업
예능
등번호
코웨이
##입장
##배우
남긴
통행
##석회의
의존
의뢰
삼지연
재개발
재공연
재가동
피홈런
##남준
##겐
##법에
##법원
실천
실물
성토
불어
불운
장소
장면
총공세
##결승
##양제
##매장
매달
회피
박성
박은
박경
원점
##물에
##물살
lg는
진해
진천
진료
새단장
##코어
특사단
포천
민중
배정
배트
작성
증원
증명
증액
투기
감독이
감독대행
##패스
##림피아
청원
협의회
로보
당론
##난민
첼리스트
폭스
##준호
##총재
##광장서
분실
##질서
##덱스
벨린저
벵거
##본주택
임신
임창용
##택시
리스트
리튜
리바운드
야후
##육성
입원
입체
중국산
##워크
현대글
둥
##추는
열정
타이스
생계
정부의
정부가
산악
완도
태권
설맞이
양호
판다
경기교육청
##철학
적정
알린다
지원종합
달린다
11연승
네이션
공개종합
민주평화
##렛
##레로
터널
##악화
젊
저도
저금리
우리의
우리도
우리에게
남북교류
##츠와
명성
종부세
토요일
물씬
100대
100일
갤럽
눈으로
급물살
부산항
부산교육청
##돌이
##돌려
휴원
ai로
테슬라
방문종합
캔
##브라
투자종합
날려
음모
되길
홈플러스
언론의
언론진흥재단
연구에
제주서
치명
치러
##불가
국회정상화
순환
##교육원
##돼지
러시아행
러시아월드컵
##퇴직
백화점
백승호
백남준
막은
논의할
유럽에
책방
책으로
##캐스트
메리
19명
권역
권순
이스탄불
카카오미니
네팔
승리종합
시위에
해외진출
표시
표심
표절
##겨진
레오
목표는
롯데카드
사업장
친서
버라이즌
프린
윤성
노동계
약진
감소세
여야정
제재에
이스라엘에
##혜선
농산물
석패
필요성
##받을
##센터서
펭
공동성명
근육
교육감
40주년
##으나
관련자
희비
도입종합
천적
##정보통신
충북교육청
대학로
##참모
뉴햄프
징벌
징크스
2천1
2천7
2천6
2천만원
2천500
##문화제
##문화축제
향년
이어폰
대전교육청
대전충남
##산업개발
영향권
모바일게임
출전권
잠시
잠금
아이폰11
효성
주식거래
침공
국립공원
국립오페라
26명
베트남서
##하면서
힘든
한화전
##통신사
##취득
##하라종합
국정운영
보도사진전
난민선
하루만에
팔자에
존스컵
무역갈등
육아
육군
산업생산
고용보험
만났다
카드사
고객에게
200만명
단독주택
집중호우
지난주
인권침해
반발종합
현장방문
평가서
신청자
출범식
규제개혁
바꿀
낙동강
뛸
결승포
빅뱅
엄청
직원에
시범서비스
걸어
맹추위
제안에
경북도
영화제
##섬유
과학기술혁신
##홍콩
##얼음
##수수료
2021
이정표
랜드
경영권
주민에
갤s10
늘고
##진흥원장
미술품
야구대표팀
들어서는
기부금
ios
견본주택
인간의
채용비리
먹는
먹구름
바른정당
맑은
투표율
형태
취임식
취임후
좌완
제2회
##스톱
철회해야
##도로공사
탑재한
괴산
보수당
총격사건
컨디션
컨설팅
게레로
솔솔
환경부
휘파람
초등학생
현대차증권
읽어
공정한
늦더위
##언론인상
트리폴리
신문협회
찔
코치로
##국제공항
맛집
주도권
무기한
예선서
이민아
행진곡
도쿄서
센서
놀이
추경안
강경파
강풍에
원인은
뚜렷
아쉬움
강남구
권력기관
냉전
신뢰도
콜센터
##공동모금
법정관리
150만원
레이저
레바논서
휴가철
액티브
##공시법인
소방관
포스코건설
쏟아지는
존재감
트윗
긍정
##이라고
아랍의
가슴
욕설
조심하세요
진정한
진정성
물러나
상호금융
ktb투자증권
굴욕
공세에
신입사원
찍어
##고속도로
가까이
제도개선
##근로자
아웃사이더
슬로바키아
언어의
곤혹
톈진
조용히
dji
##ict
후퇴종합
##에이치
비디오판독
나오나
덴버
윈도
아래로
치열한
조각가
삼성sdi
충분히
즐겨요
펼쳐진
스완지시티
기재부
여러분
조종사
서민금융
통증으로
송영무
쏜다
지소연
한복판
연습경기
웨스트햄
둘러보는
트래픽
쇄도
정착촌
##나누는
금강산
옹호
조지아
모여라
케이블tv
엿새째
박찬호
카자흐스탄
리니지m
블로킹
유로파리그
김문수
좁혀
훈풍에
dsr
아태지역
에릭슨
까닭은
지문인식
공산당
정호성
##공화국
장원준
파생상품
플로리다
훨씬
##스카이라이프
과로사
햄스트링
불성실공시법인
블라디
빨간불
inf
넉달
이명박
이문규
신생아
부글부글
자카르타
윌슨
후쿠시마
산수유
식민지
thi
유안타증권
꼽은
이다영
하현회
sk이노베이션
손혜원
임지훈
양적완화
키르기스스탄
쇼트트랙
프리랜서
연말연시
bgf
텃밭
기쿠치
지브롤터
한겨레
현대글로비스
민주평화당
뉴햄프셔
1로
1박
1일부터
1순위로
2곳
2파전
2심도
3법
350
3분의
4시
4호
5승
5만원
5만명
5주기
5세트
6조
6곳
6개월만에
7조
81
8조
8개국
8독립선언
91
d30
ibs
oled
qs
uf
ucl
uhd
겹
게이트
년
맘
브로
뽀
족
짱
탕
툴
푼
프라
##메이트
##즉
##훼
##홀로
##그린
##뱅킹
##ᆽ게
##kt
##tc
##9천
##ᆻ는
##칵
##36
##3천억원
##6천억원
##ᆮ어
##pn
##ip
##ᆩ여
##ws
##이기
##이슈
##하키
##하늘
##스님
##스바니
##리적
이시
이의
이루
이길
이변
이룬
##로로
##지급
##지션
##어준
##어촌
##해고
##자니아
대서
대해
대항
대패
대도시
대이란
##사과
##사전
##주세요
##장고
##화의
##화원
##화한
기용
기숙
기밀
기싸움
##정액
##국양제
시절
시끌
##고한
##고조
##전종합
##가전
##가르드
##종료
##인회
##인멸
##인베스트
##보단
##보내
##보건
##보스토
##보조금
##회로
주유
주니어
##부지
##부산
##부처
##구상
##구축
##일리지
지갑
##수리
##수저
##제과
##제출
사제
사계
사후
사칭
아라
아덴
전성
전방
전패
전날
전초
전곡
한남
##위크
##라노
##년층
##명근
##유화
공범
##선관위
##세스
##업소
##만가구
##만8천
유기
유재
유골
유혹
유효
국기
국조
국기에
국영방송
화이
수영
수급
수렴
정오
정찰
정몽
신산업
##동화
##동반
##비시
갚
가해
가라
가방
가맹
인지
인산
인빌딩
##공작
##소하
##소한
##소환
##소야대
최전
미안
##용지
##용의
##용량
연초
##조업
##조달
##조절
경복
##개막
중징계
부가
부영
##민순
##단과
##단비
춥다
마법
마세요
마침
마쳐
마켓
마에다
제일
제9회
##연기
선서
선봉
##피부
##피싱
김중
김형
김단비
##재균
여정
여가
여소야대
##터카
비방
##표결
내면
##발적
##우려
##신경
조영
하고
하위
하노
하얀
고시
고예
고삼
고효율
##미르
##경진대회
##적자
보행
보면
보훈
##들여
우대
우호
우편
오로
오나
오심
오히
오브
##많
##마자
##마당
서산
서면
서류
영구
##학과
##학재단
한국출판
상고
상공
자폭
자폐
무사
무한
무조건
##뭄
##무형
##출시
##출전
핸드
윌리
발달
##러시아
안녕
낯
나타
낫다
나홀로
스태
스톡
##탓
##타지
##타운
어나이
방남
일국양제
소장
소화
소요
소두
문장
문답
##격한
20여
2000
20일까지
##내각
##내륙
##르게
노화
103
108
##포에
##포기
##포서
##포니
만전
만발
세비
세네
##실세
도주
도출
도우미
##설주
예루
첫승
코픽
바티
바란다
남도
남수단
##달래
반색
##역전
##청소
##청소년
##오른
##오르는
의성
의향
재단
재탄생
동지
필름
현행
현판
현충
호황
관망
실행
실용
실책
성차별
성평등
확성기
##망에
불볕
장남
평전
금품
금값
박범
삼성은
원해
원숭이
##심포지엄
##노스
교민
lg전
lg페이
진도
진달래
sk에
##규정
##코위
특보
##강의
##저우
##형물
거대
##토니오
카스트로
요원
요건
요스바니
증폭
단종
단행
단둥
서울교육청
파란
파면
파손
청각
청탁
청원에
##네스
없으면
로엔
손에
손님
것인가
##송금
당해
당첨
엘시
폭증
##총국
분데스
##루스
##되자
##되길
##외선
돌진
##택지
리수용
리용호
야스쿠
중국과
중국내
##해야죠
광명
현대백화점
축출
##플랜
타사
타점
타당성
생긴다
정부에
산천어축제
최고인민
월급
판사
판소리
경기소식
경기부양
##창수
미국은
미국산
적법
##향계
김정남
가능종합
가능해진다
세계예선
학자
패치
##애미
##악한
목성
30여명
저격
저커
군항
##징용
본국
운반
최대종합
최대폭
남북미
##든다
북한의
##편지
##길에
복잡
종아리
톰
100원
100여명
류현진이
##초가
눈에
눈꽃
부산대
간첩
디자이너
여행소식
아이스
미래는
1천원
##대회서
금융소비
경제에
경제위기
경제민주화
철강
탄자니아
못내
못하는
되면
되찾
홈경기
언론중재
칠
치고
##불허
넘는다
확대종합
필기
선수들이
순수
순자산
살포
살비니
준우승
아시나요
골목
##됐나
러시아와
백색
극한
가능성도
막자
막아야
유럽서
18세
줄이어
항로
항생
멜
메가
##장에게
합의문
네오
광주교육청
시위대에
표적
함경
강원fc
기자재
레저
레프트
##손보
이상범
커지는
커진다
커넥
커뮤니
롯데백화점
롯데월드
사업체
##살렘
##축구대회
송치
송명근
송민순
윤동
노동법
노동신문
악용
##ᆯ레스
협력업체
평화와
평화통일
경찰청장
두산전
뒤로
낮춰
22점
21명
170
농민
대북압박
페르
이용한
이용객
수도서
진출종합
역대급
테러로
##라이트
##읍
질서
희귀
갈아
안전관리
역사에
천연
인도적
브람
수상한
봄맞이
2천3
귀가
담아
##자들이
##자들과
반대종합
떠날
선발로
길이
길목
국립국악원
정책실장
워크
착륙
힘으로
힘들어
즐기자
즐거운
##10선
폭발물
28명
한미정상회담
배구연맹
참여자
##했을
사용량
곳에
숨고
이재성
연기종합
풍계
산업용
산업기술
벌어
조선업
수출입
일부지역
책임감
고용위기
고용안정
고용유지
별도
밀어
밀입국
##멘트
지방공무원
200홈런
2008년
사람이
스타일
##될듯
군사력
헌신
비상사태
위협에
부동산시장
70대
70년
공식화
전자담배
낙점
돌아가
압박종합
왕복
5천명
빅리거
강세에
대책위
전쟁범죄
자동화
조성부
범위
범행
##필더
펀드에
세종교육청
과학기술인상에
예술감독
암살
밝은
대출규제
2025년
2023년
특검보고서
사태에
사태로
답답
마련해야
마련하라
몸에
몸싸움
여름방학
뉴욕증시
않아종합
인간과
쓰나미
통화정책
독립유공자
속도전
기자회견하는
흔드는
3천억원
개혁안
국무위원장
신년담화
김연철
##테크놀로지
집단대출
도발시
협약식
따로
##스토랑
숙인
위험한
극우정당
국경서
품에
품은
품격
데뷔전서
괴한
출판사
나와라
34점
300명
ok저축은행에
1조5천
솔직
실종자
절반이
절반은
수준으로
초등돌봄
##신문협회
45명
##스테이
오전까지
늦춰
구단주
니카라
케이뱅크
대우증권
해임건의
예비특보
퍼레이드
퍼포먼
사흘간
사흘만에
현실로
##평화상
삶을
마이애미
승부조작
음성인식
한달만에
보험사
전통시장
완전히
녹취
사라진다
내려놓
걷는
진화한
전력분석
감염병
##대사관
아니야
아니면
소개하는
센카쿠
냉동
냉장고
개인정보보호
맥스
##60대
안해종합
어디까지
보스턴에
##하려는
##하려면
김기춘
깜짝실적
##팩토리
벌금형
방북단
에어컨
8강전
윤석민
움직이는
제3회
비중확대
눈물의
짜릿한
##김정은
실업률
아랍권
악재에
베이징서
##쓰비시
김진수
##타임스
허위사실
하나금융투자
g20서
카슈미르
평년기온
월드시리즈
정체성
##동의안
자본주의
일단락
양자암호
##캠퍼스
뚫고
앙숙
앙상블
거듭나
##팬들
늘려야
빚은
닷새째
증거인멸
asem
묵념
연동형
방송통신위원회
에이전트
지식재산
유일호
밑돌아
챙기세요
부적격
오만해
후속조치
태블릿pc
공수처법
홀로그램
압도적
##일리nk
엘리엇
기뻐
없앤다
직무정지
테마주
테마파크
크로아티
신호탄
판정승
졸업식
1도움
유료방송
방위상
방위비
중장기
옮겨
카이로
연출가
모멘텀
사이클론
덕분에
스튜디오드래
espn
쇄신
유혈사태
여자프로배구
따뜻한
sat
##메이션
로드맵
베르나르
링링
360도
코스타리카
김세진
피의자
성탄절
허리케인
헬로모바일
르노삼성
론칭
닮은꼴
핑크
이노베이션
선생님
괜찮아
hdc현대
트로피
이모티콘
깃발
오성운동
썰렁
##ᆺ가루
##만7천원
보편요금제
오토바이
영유권
예결위
홈페이지
##그롬
##스럽다
오클랜드
노무현
##챔피언
세이브
잭슨
이들립
공학한림원
조상우
고도화
왼쪽
경제부총리
친중파
혼조세
중대재해기업
만장일치
suv
꽉
##시내티
시일내
한경연
수강생
수림문학상
최진수
##단일팀
고춧가루
위닝시리즈
스프링캠프
재조명
##테인먼트
##ᆯ렌스키
참전용사
꿀잼여행
멸종
가습기
미드필더
하태경
자원봉
원맨쇼
야심작
##헬스케어
라스베이거스
sc제일
아인슈타인
세무조사
징벌적
bgf리테일
##보스토크
경복궁
고예림
고삼석
오히려
윌리엄
소두증
세네갈
예루살렘
코픽스
불볕더위
분데스리가
저커버그
크로아티아
스튜디오드래곤
1단계
2세
2방
2단계
2학기
3호
3라운드
4회
5개국
6시
6회
6승
6실점
7시
7호
7실점
7년만에
8개월
8번째
9호
9연승
b2
bc
bnk
cg
e스포츠
g5
ng
nbc
qa
u19
u5g
땀
쇠
쏙
욱
쥬
짝
퀸
흐르
∼…
##ᆼ한
##메시
##츠로
##ᆯ범
##겁다
##르르
##셰
##벗
##볍
##9년
##0명
##ᆺ수
##ᆺ매
##껏
##끌어
##2억
##씀
##4천명
##3억
##1호
##7천
##84
##eu
##6천
##6억
##뼈
##빨
##ips
##이에
##이야
##이었다
##시인
##하길
##스위
##리트
##리치
##리버
이수
이한
이호
이내
이현
이광
이착륙
이끌어
##로바
##로부터
##롭게
##지하
##지오
##기환
##어터
##얼리
##어린이
##대환
##해선
##자격
##의무
##원경
대로
대단
대두
댈러
대연정
##사우디
##도움
##돕기
##주고
##주민
##주재
##주환
##화력
##화법
##화탄
기선
기름
기습
기사회
기탁
##정한
##정산
##정오
시원
시아파
##고발
##전은
##전파
##상사
##상한
##상륙
##가베
##종의
##인해
##인과
##인단
##인범
##보드
주상
주석
##구호
##일드
##일본
##일만에
짙
지단
지혜
지폐
지킨
##수장
##수위
##수권
##수술
##앉
##아르
##야권
사명
사생활
사개특위
아쿠
아테네
전개
전차
전극
한해
한병
한풀
##라시
##라기
##년의
공무
공항서
##통운
##선도
##선미
##선료
##선박
##세일
##만공사
유성
유아
유관
유물
유희
유채
화기
수명
수송
수산물
##동호
##비도
가다
가수
갔다
가면
가끔
가톨릭
가뭄
인센
인쇄
##나가
##공식
##공미사일
##솟
##솥
##소시
##소방
##소녀
##소방서
최단
최영
최준
최승호
최경환
미시
미친
미공개
미쓰비시
연중
연평
##치산
##치면
##조회
##조성
경산
경축
##개헌
부스
부자
부추
부친
##민속
##단합
추세
마운드
마피아
제국
제20
제네시
##연락
선장
선회
선선
선행
선율
##피드
##피엔
##관대
##관제
김의
김천
김창
김어준
##안심
##안토니오
##재생
##재욱
비로
비바람
##발굴
##우고
##신화
조폭
조던
조코위
하한
하프
하든
곰
고액
고삐
##미수
##미경
##밀리
##당에
##호가
##경로
##경자
보위
보선
보존
##영입
##영희
##영웅
우체
우울
우완
오해
오라
오너
오랜
강사
강도
강국
서영
서머
서포터
##니는
##체류
##학의
한국과
한국타이어
상표
상속
모기
모드
모양
자축
자극
무색
뭇매
무가베
##무효
##방역
##방망이
위키
발무
발휘
발롱
##차로
나비
나이트
##타고
##티비
##틱스
##점포
##점유율
##여도
방점
감기
감성
##으로만
문서
닮
다크
다뤄
2080대
구도
구스만
노숙
##바로
109
105
10조
10여
10조원
##포털
##생들
만원
만드
만연
만료
만끼
도용
도미
도난
도덕
도둑
##모데
옐런
등재
코너
바가지
##밴
남한
통장
##운티
반납
반쪽
##역할
##석영
##오토
##옵션
삼부
재택
재선거
재추진
재집권
동력
피칭
핏비
##거장
호잉
##카카오
##남용
##울까
##겠습니다
관한
관영
관찰
차장
차출
##협조
실사
실장
실속
실증
실외
실효성
성지
성향
성희
성균
북러
북새
##망원경
##딤
불매
불응
불붙
불출석
장사
장터
맺
매주
매장서
결집
박봉
박동원
삼성그룹
원년
원희
##물가
##물품
##물량
교양
진격
sk네트웍스
샌드
##건수
##코미
##코스트
특가
##두라스
##강연
민선
민감
거액
거쳐
배송
뱃길
트루
##토건
카풀
요트
증발
증여
증감
단골
kt에
kt스카이라이프
서울에
프로필
투타
감독님
없고
더비
로스
로하니
손보
초교
초래
초비상
##집중
검사장
당시
당무
당청
##난한
체계
체납
폭주
##락슨
분해
분명
분분
분향
홍명
계단
계승
계기로
승패
리츠
리옹
리뉴얼
##병세
광물
현대카드
두드
축포
##추어
##추고
열리나
집유
산행
대표연설
독식
완수
태세
앞바다
양정
행락
판독
언팩
##창진
##창출
미국발
스마트팩토리
적어
알샤
취하
달고
세계사
2012년
법조
학살
패러
패트리
핵탄
맞게
##더라
직구
환대
환상
환수
건배
30만원
저평가
저출산
##검진
##예수
남북한
남북단일팀
명시
명인
명문
명백
12년만에
복면
##탈삼진
물폭탄
네이버웹툰
라운드
라가르드
##핵전력
류현진은
급파
부산지역
##웰
간츠
간섭
##열병
황병
황재균
황석영
##풍향계
##페드컵
말리
##곳으로
텔레
##콩쿠르
##폭발
##투자자
방문자
방문객
금융그룹
금융지주
경제제재
경제보복
꺼낸
일본과
투자의견
##턴트
못미
##채택
서비스로
강화에
온두라스
연구성과
치솟
국회연설
코스피200
확대해야
##블리
선수는
순찰
난제
난색
살린
살피는
살얼음
준po
##활용
기술개발
##넣
시작종합
후보군
백서
백업
백령
백신
##커니즘
극대화
가능성은
막을
책의
점화
메인
##랑이
축구장
194
19대
권오
카카오프렌즈
클레이
클락슨
##변호
50주기
##균제
격화에
네바다
광주세계
해외미디어
표지
강원교육청
촉발
레스토랑
##지원센터
울상
손흥민과
관광산업
컸다
롯데건설
롯데홈쇼핑
##올림피아
버틀러
송희
할부
프렌즈
윤종
윤영
윤소하
여성과
전망종합
사우스캐롤라이나
우승후보
경찰청
두산중공업
두산밥
낮은
낮에는
낮기온
21세기
대구서
통신요금
콘텐
외국인선수
누락
17개
농심
농식품
농어촌
대북확
사우디군
공동개발
2018시즌
##30선
외교적
40명
40여
40억원
퇴치
경쟁서
경쟁자
##널드
갈길
지역서
유엔서
수사의뢰
안전사고
천명
대학농구
전북도
인터넷신문
수상자에
봄의
봄날
2천400
귀순
잡기
향기
향방
향배
이어갈
담합
##연구원장
검찰개혁
잇따
효능
떠넘
침략
의원들과
의원총회
길을
웨일
##기자재
운영위
힘내
과기장관
불법이민
28점
신한지주
사상최대
isa
##했어요
풀릴까
팔린
##스텍
가을여행
곳에서
숨지고
혁신금융
이재민
##완료
무역합의
풍선
60년
60억원
##과학자
벌랜
증시풍향계
큰손
탄핵심판
책임져야
인기몰이
선언종합
날씨에
응급
식사
식중독
만나면
학교서
2차례
이동하는
##시설에
늘었지만
볼거리
집중력
이탈리아서
해결에
체험단
체험행사
최소한
여자배구대표팀
체포종합
시진핑과
2위로
꿈꾼
전자책
낙폭
입장권
뛰고
뛰는
브라운
왕자
왕실
넘어서
엄지
##딩크
넥센에
어린이날
##톡스
제안종합
북핵대응
##필요
팬택
##홍석
##논문
요청에
암흑
2026년
망신
위원장과
만들고
점검종합
점검회의
랠리
활용한
긴급재난
늘릴
몸살
들어선다
프로야구전망대
라이트
라이프
자금세탁
감사원
독립성
처리해야
35명
맑아
투표소
초청장
500명
500만원
500만명
##키로종합
예멘반군
샌안토니오
충남교육청
집단감염
긴장감
긴장고조
##것종합
vr현장
쓴소리
디지털스토리
숙명
뜨거
남부서
귀국길
아냐종합
국경없는
발생한
미군기지
업무협약식
시험장
제1당
제1야당
컨페드컵
동반성장
300만원
옥상
##앤비
##앤티
##앤씨
뺏
휘말
미디어데이
수용소
##렬한
공정성
크리에이
케이옥션
언급에
보호무역
해임제청
건강한
빛난
적극적
적극행정
섬유
크지
크기
하원의원
임시정부
보스니아
바람직
3차원
행정장관
대법원장
보유세
업체와
쌍끌
이사장에
충격에
살해한
놀란
창업자
골프장
5일간
sbs노조
ibm
위안화
흔들림
듀오
자제해야
행복주택
맥도
지구촌
콜레
##공동체
셀프
멈춘
벗은
끝났다
염기
기간제
상임위원
무장단체
위성우
제3자
제3국
생존자
##케이션
바뀌나
스웨덴전
##세이브
기본료
고조종합
유통점
분리주의
칼바람
기초과학
과제는
##랩스
타이틀
김진표
굴복
화면에
방침에
43점
##도서전
깊이
사법부
사법개혁
같이
같아
알려준다
헌재소장
##아트홀
엘시티
체감경기
##사용자
가까운
불꽃놀이
##캠페인
##헬로비전
그레이
페이코
##근로제
갤럭시노트9
nlds
금호아트홀
떠난다
지능정보
##발사체
스트레스
정부군반군
737
쾌청
쾌투
톈궁
이사회서
사면초가
김민재
쌓여
민주콩고서
##스퀘어
시정연설
시정명령
##무용단
박수치는
컬링
간편결제
막아라
홀로코스트
김상식
##15일
더워요
홍천강
북한인권법
줘야
해커톤
동원해
한정판
김명환
참모진
재발방지
독주회
느껴
주한미
무엇인가
카이스트
암호화폐
이영하
공인구
출구조사
조합원
단계적
완벽한
알바그다
비례대표
병역특례
아우크스부르크
아리랑tv
연예인
제7회
##밖에
3자배정
싫어
중거리핵전력
조속히
애니메이션
골드번호
정우람
연체율
초고속인터넷
사직서
김희진
조원태
입학식
턱밑
정회원
미스터리
홍수피해
리우올림픽
전공의
##만장자
국빈방문
연료전지
한국관광공사
스토어
청문보고서
꼼수
##탐사선
이진현
화두는
비선실세
반려동물
100세시대
큐레이
##보좌관회의
사회복지공동모금
이희호
외야수
키워드는
면역세포
몇
사각지대
마라도나
반가운
허수봉
울릉도
얼어붙은
쉬워진다
싱크탱크
팝업스토어
unist
톡톡
과감한
안영준
스트리밍
남태희
차명계좌
완전자급제
히로시마
이윤택
가벼운
모로코
리튬
짱기자
기숙사
인산인해
엘시시
야스쿠니
군항제
아이스하키
항생제
숨고르기
녹취록
중대재해기업처벌법
sc제일은행
윌리엄스
cgv
ngo
기사회생
인센티브
제네시스
##연락사무소
우체국
만끽
핏비트
성희롱
성균관대
북새통
원희룡
알샤바브
패트리엇
핵탄두
클레이튼
두산밥캣
대북확성기
벌랜더
긴급재난지원금
크리에이터
알바그다디
중거리핵전력조약
0원
1척
1득점
1타점
2만명
3기
3부
3건
3시간
3가지
3개월만에
3단계
4세
4만
4승
4억
4건
4편
450
5주년
5조원
5타수
6대
6자
6점
6년만에
6년간
7위
8억
8경기
8조원
9승
9일부터
co
fbi
gp
lc
mit
no
p2
s10
u21
u프로야구
wfp
끈
끌
꽝
님
덤
드려
떡
엉
콰
크라
톤
탱
프래
폄
프라이
흐려
##갱
##게이
##ᆸ고
##ᆸ지만
##쉐
##샹
##셴
##브레인
##ᆽ아
##뎌
##sk
##ti
##팍
##ᆺ돈
##깐
##꼴찌
##27
##2천억원
##2천억
##ᆻ지
##ᆻ더니
##뜨린
##ma
##5도
##cj
##쑤
##썰
##짱
##44
##4보
##4당
##4천억원
##34
##37
##3회
##3천명
##77
##700
##7천억
##800
##fl
##6개월
##gh
##뻔
##lg
##pd
##pp
##pi
##rd
##xz
##이통
##이식
##이탈
##시기
##시바
##시스트
##에르
##하장
##하산
##하락
##리자
##리며
##리얼
이만
이게
이긴
이혼
이영표
이중고
##로워
##로켓
##지던
##기회
##기일
##기종합
##기행
##기류
##기강
##기아차
##어라
##어축제
##서리
##대국
##대상에
##해지
##해질
##해각서
##자치
##자에게
##자시바
대정부
##사지
##도스
##주권
##주총
##화물
##화진흥원
기세
기운
##다페
시황
시스코
##고에
##과후
##전집
##상가
##가도
##인은
##인드
##인문
##인생
##인을
##보이
##회종합
##회피
주터키
##붕괴
##구가
##구치
##구려
##일수
지기
지인
지령
지향
##수에
##수정
##수행
##수학
##성훈
##아버지
##제르
사천
사연
사격
##요건
아치
아델
아메리카
##은희
전사
전야
전임
전두
전창진
한승
한러
한부모
##드론
##드림
개도
개국
개교
##라종합
##라시아
##명훈
##유기
공표
공장서
공지영
##통보
##진입
##진강
##섹
##셈
##세종합
##만금
유선
유산
유행
유학
유방
유네
유광
유홍
유라시아
국유
화석
화질
화창
화순
화답
수면
수료
수록
정시
정년
신원
신상
신개
신격
신시내티
##산단
##비중
##비츠
갓
가사
가진
가산
가려
가림
가볍
인삼
##낯
##나리
##나도
과세
과테
##공학
##소원
##소종합
최주환
미러
밀레
미쳐
연인
##조끼
경로
경인
경우
경협
중형
중학교
부나
부마
##천지
##민호
추도
추상
추종
마일리지
제가
제보
제명
제막
제왕
제물로
젤렌스키
##연습
선점
##피안타
##관련
김지
김혜
김철수
##문자
출항
##재정
##재일
##계자
##계단
비유
비치
비호
비은행
빌리
##표명
내야
##승부
##발급
##신당
##금자리
조업
조력
조태
조언
조응
조윤
하동
하겠다
고무
고래
고온
##밋
##미팅
##경비
##경협
보인
보성
보육
보답
보츠와
보금자리
##영수
##들고
우아
우군
옴
오면
오디
오버
오재원
##마이
강아
서약
서남
서초
서피스
서커스
서대문
##닛
##니까
영원
영세
영월
영예
##팟
##파에
한국판
한국외
한국기업
한국도로공사
상선
상금
모방
모친
모처럼
모듈
자정
자세
자릿
잦아
무리
무등
무책임
해넘
##와는
윗
위에
위조
위증
안전자
안한다
안착
안된다
나상
나은
스승
스테이
##북도
##속기
##팁
어버
어른
방패
방탄
방불
방과후
일은
일하는
일촉
일어나
소원
##분자
##분권
##분열
##중종합
문정
문무
문태
문예
문정원
닭
다산
다각
다이어
다우디
20억원
20홈런
20만원대
##내비
##내용
구한
구분
구입
구석
구조선
##ᆻ다종합
##르디
노히트
##바코
104
106
10선
10억원
10번째
10연패
10여명
10주기
##포고
만리
셈
세제
도구
도망
도깨
##면허
예전
등급
코딩
코바코
##입법
바짝
남기고
통했다
##운항
##독한
##청약
##오름
##오션
의전
삼정
삼양
삼각
재해
재보
재허가
재소자
동국
동일
동조
동창
동향
동률
동굴
동대문
피신
현주
호화
호랑이
##테나
##테스트
관문
관방
관악
##반발
실체
실점
실사용자
성주
성실
성매매
북방
북남
불명
불교
불변
불평등
장신
장군
총상
매서운
결전
회화
금통
금수산
박진
박세
박치
박빙
박건우
삼성엔지니어링
원서
원톱
외주
##물류
##놈
##노위
교문
진동
진흥
##감정원
샐러리
새만금
##규칙
##건종합
##건비
##건물
후배
후후
특감
특성화
##강에
민관
민음
민낯
##형도
와이드
와일드
거물
거목
거친
거대한
배수
배분
배워
##태승
##태양
트럼
##토록
이란산
요양
요즘
kt엠
파인
파편
파문에
파파고
그의
그라운드
##림돌
##군수
청사
청명한
협연
역성장
##네트워크
없던
##책에
로비
로즈
로저스
로이터
손열
손짓
손태승
초상
초치
것이
것도
것을
것속보
##송환
검경
##복무
당사
당진
당협
논술
에르
체코
분류
##데르
임정
임동
임차
임영희
승점
승강
##즈니
리드
리설주
입실
입주자
중국행
중국폰
현대기아차
##은행장
열기구
##엔에스
집에
집착
타계
타파
타깃
##스트리
러츠
속절
정부와
산문
산학
산사태로
##팀에
월마트
월평균
완봉
완연한
태도
태백
##근당
규격
설정액
올해보다
양상
양수
양심
양강
양해각서
판도
채식
채팅
경기침
적임
알파
알리바
지원에
취급
달해
달빛
달렸다
세계에
세계로
11번
##히토
법관
학계
패밀리
국민단합
맞대응
맞붙
공개된
##애애
직업계
탈림
탈꼴찌
건수
사망사고
국내주식
저조
본토
##검찰
운전기
심해
명의
북한군
변한
변희
김정은의
12도
12연패
복제
##탈전
##탈출
종근당
토스
전국이
물건
물꼬
15개
15만명
##센트
100여
100만대
##초에
##켐
급여
부산에
갤럭시j
갤럭시워치
갤럭시폴
추진에
딜레
디그롬
디도스
휴교
여행사
끄떡
내년엔
ai는
말소
말리서
활주로
미래를
##메카
##메모리
방문에
금융교육
금융기관
금융상품
금융서비스
경제난
기업가치
sktcj
일본이
일본의
허창수
되고
되새
강화군
홈구장
언론에
제주에
제주항공
국제회의
넘나
넘을까
넘치는
꺾여
##블록
선수상
난수
난관
난타
살리기
업황
준결승
홍콩인권
##활력
##돼도
끝장
시작된
후보로
백지화
극과
극심
가능성에
막고
줄리아
줄였다
책상
대한제국
있지만
메일
메달
메커니즘
19개
권유
50점
##균형
격론
격퇴
승리투수
해외로
함양
강원랜드
##착수
##20억원
##레이스
##레이트
25점
이상민
절도
커버리지
플루
롯데마트
롯데하이
롯데케미칼
은빛
친일
버티
윤병세
전망은
14년
14연승
약탈
##침입
협력방안
여야4당
eu에
평화를
제재에도
우승은
##에겐
많다
쿠웨이
두산건설
뒤져
낮춘
22억원
2200
2170
2100선
번개
대선출마
하나된
##클린
대화면
정치보복
구글홈
지지부진
인천국제공항
##받침
펠
페로
펠로
공동체
공동대응
이용률
수도종합
편안
장관에
테러에
테러리스트
개인사업자
문제는
문제없
준비위
겪은
##특구
받을
질타
질환
##널티
갈림
지역경제
촉구종합
유엔에
유엔총회
kbs교향악단
역사상
역사가
복귀전
복귀한
복귀할
대학들
전북대
전북기자협회
##민주주의
2천5
2천억
귀경
##문화원
잡지
잡은
잡음
##슈머리
이어질까
영향은
용역
용선료
담화
대비해
대비해야
##단체장
##단체들
중단종합
검찰에
몰락
찾아서
효력
##친구
협상서
뉴스룸
##10대
폭발로
28일부터
28gh
한미연합
거래액
시민사회
성장동력
정보위
정보보안
계속되는
##숙한
사회주의
팔자
가을비
확인종합
##완다
통합관리
애플워치
##머신
존경
전환종합
풍자
27명
멕시코에
##밀한
조선의
조선시대
밤샘
공공일자리
탄핵조사
탄핵정국
책임론
상장예비
너의
밀라노
대표팀에
##멘터리
어때
대만서
아베와
지방정부
늘어종합
싸우
싸게
회동서
씻
##옥수수
해결책
해결해야
체험하세요
경남교육청
데이터센터
헌정
흥겨운
해제종합
폭염경보
병진
원내대책회의
70억원
현장서
규제혁신
sns에
전자파
낙태
사실과
입장료
잔여
잔디
마감종합
5천개
5천억원
매출액
새롭게
##하나종합
김영주
탈출종합
우주정
어린이용
구조물
걸려
걸릴
범실
사진으로
영국서
세종텔레콤
관리종목
이달말
가족들
##선언문
2024년
전남교육청
만들어야
춘제
활용해
갤s7
늘리고
미술가
미술소식
##플레이어
캐나다에
캐나다인
##ᆻ나요
##개국으로
야구단
시도지사
첫날부터
안돼종합
급증종합
티맥스
1차관
cj대한
이적설
이적시장
##보험료
중앙과학관
자유무역
자금조달
캠퍼스
현대캐피탈에
80대
문학과
kistep
거리로
먼지
국무총리
상용망
500원
500만
머니
죽이는
웃는
새해맞이
춘천국제
연극계
여전한
중소형
우수사례
##학교에
슈퍼매치
따돌리
핵심기술
이집트서
한일관계
우리카드에
빈손
빈자리
컨슈머리
출마선언
내주부터
블랙박스
300만
납부
옥천
옥류
##500원
경선서
김학용
생산량
생각해
뺀
##걸이
미디어교육
근로기준
이행하라
소식통
##하이머
민생경제
민생법안
##혁신센터
45점
봉합
##있게
늦은
공방종합
케이팝
사이버공격
선택은
도착종합
여론조작
코치진
등판서
차세대소형
##박물관서
삶과
한달간
급락종합
탐색
##40선
전통문화
당국자
무기판매
깬
녹음
사라지는
걷다
크림
경계령
하원의장
##퓨팅
이주노동자
공시가
제조업체
3차례
행정명령
명예교수
지급액
지금이
보복조치
교통안전
교통정리
여파에
권력이양
안정성
스케이트
노사민정
획기
노벨평화상
채권시장
콜라
##샵
삭감
태극전
태극마크
##리니스트
대부업
아마추어
펼치는
##렉스
##렉션
우선주
위원들
클래스
손잡은
창원서
상임위원장
얼굴인식
둘째
정지윤
출석하는
무장세력
벨트
팔레스타인인
융커
강제징용
나흘만에
의결권
##돼야종합
챔피언스리그
쟁탈전
지키기
무르시
돕고
총기난
총기규제
돌봄전담
본선행
뒷돈
뒷받침
폴란드서
빌딩
아랍연맹
##쓰기
##트롤
묻지마
성적표
교보증권
대기오염
안내하는
동의안
확장억제
망명신청
3개월간
##렌즈
마약왕
김진욱
동물원
열흘간
던져
조작설
폭우로
수험생들
대폭발
최태원
미리보는
당신이
표현의
사법농단
연설하는
방사선
알제리서
데이비스
데이비드
이대성
최우수상
2021년까지
브리핑하는
그란
가정의
엇갈려
금호타이어
##mca
정경화
정경심
최장수
맡겨
스트라이
스트라스
헬스
묵인
이뤘다
우상화
방송통신위원장
밑돌
선호도
##벤처스
챙겨
화학물질
##브릿지
영장심사
얻어
수여식
##지지율
##만5천명
유전병
엘리트
이산화탄
주총서
갖고
갖춘
오세훈
당권주자
직업교육
풀려나
##ᆫ차이즈
##수용소
가이드북
국립중앙과학관
궤변
크롬
이종걸
정무위
붐비는
마이너스
마이너리그
기재위
비준동의
삼성바이오로직스
가로수
어제보다
모스크바서
털썩
익명
마라톤
kb국민카드
사립유치원
2022년까지
화이트삭스
신흥시장
다큐멘터리
박상기
물가상승
프레스센터
##낭독
기로에
무너진
소외계층
메리츠증권
질의하는
상한가종합
3연전
##둘러
##비상사태
교도소
패션쇼
##꼼
김승기
김희옥
보합권
코미디언
반갑다
단호히
틈타
박준영
임용시험
되살아
울주군
##52시간
유권자
선진국
구체적
엑자시바
넘을듯
쇼크에
헐값
이공대
연이틀
고마워
동북아
대역전승
##궤도
##전시회
정례화
경합주
비결은
두려워
토크콘서트
칭찬
바이올리니스트
중동평화안
마이크로소프트
3인방
대장정
##호스팩
스모그
장례식
행안부
##멤버십
들여다
미성년자
mmf
시흥시
지붕
얀선
##클래스
즐거움
시큐리티
##합창단
##라데시
국세청
보이스피싱
오락가락
어닝쇼크
거침없는
손배소
현대로템
종신형
뉴올리언스
승부차기
테이블
한광성
음모론
권역별
윤성빈
잠금화면
엄청난
찔끔
블라디보스토크
프라임
##즉발
##인베스트먼트
마침내
여가부
하노이
낯선
나타난
바티칸
박범계
최고인민회의
필기시험
멜론
커넥티드
커뮤니티
윤동주
해임건의안
퍼포먼스
양자암호통신
hdc현대산업개발
욱일기
흐르는
##지하철
##상한제
주상복합
화기애애
##소시엄
연평도
김의겸
삼부토건
재택근무
관영매체
양정철
쌍끌이
주한미군
p2p
##셴코
전두환
유네스코
유홍준
신개념
가림막
과테말라
밀레니
제막식
조응천
보츠와나
안전자산
어버이
일촉즉발
손열음
완봉승
경기침체
알리바바
변희재
딜레마
홍콩인권법
롯데하이마트
쿠웨이트
28ghz
상장예비심사
cj대한통운
춘천국제레저대회
컨슈머리포트
근로기준법
차세대소형위성
엑자시바시
..
1경기
1곳
1달러
1타수
2심
2건
2이닝
2홈런
2인자
3전
3번
3주년
3안타
3이닝
3척
4방
4골
4일부터
4척
4개국
4개월만에
4쿼터
5호
6주
6편
7회
7곳
7번째
7년간
8시
8만
8이닝
8호골
9위
9억원
9곳
ab
ac
aws
bb
cp
f조
g2
id
if
lpg
oc
obs
oci
si
t멤버십
us
v3
wi
zte
깐
깔
딴
뜬
땡
람보
브
쥔
퀴
킨
쿡
콕
튜
테임
팡
훌
헤이
헛
##즐
##왜
##ᆸ쓸
##ᆸ시다
##브러
##on
##듬
##ᆷ린
##ᆷ베
##퐁
##ᆺ대
##ᆺ말
##꼴로
##2천만원
##ᆻ고
##띠
##뛰
##딴
##땅
##ve
##dt
##퀸
##쏘
##쓴
##4천만원
##1억
##100
##1천원
##14일
##7회
##7천억원
##as
##af
##ai
##6천만원
##600억원
##빵
##lo
##ib
##ᆩ이
##이와
##이지만
##이죠
##하모
##하네
##하마을
##하도록
##스가
##스런
##스콘
##스페이스
##리크스
이장
이화
이관
이면
이철
이념
이효
이완
##롯데
##지시
##지위
##지진
##지식
##기대
##기정
##기한
##기조
##기면
##기운
##기까지
##기축제
##어난
##서한
##서치
##대교
##해종합
##해설
##해졌다
##해튼
##해보세요
##자부
##자종합
##자취
##자베스
##원전
##원장에
대유
대목
대기록
대용량
##도급
##돌린
##주공
##장의
##장성
##장터
##장학금
기종
기보
기수
기아
기타
기내
기득
##정기
##정서
##정세
##다오
##국인
##국으로
##국장에
시에
시세
시장에
시베리아
##곶
##곰
##고기
##과는
##전투
##전형
##전긍
##상거래
##가요
##가드
##가니
##가율
##종금
##인구
##인포
##인사회
##볼리
##회장에
주고
주일
주축
주루
주범
주지사
주52시간
##붓
##부정
##부다
##일간
지스타
##수자
##수준
##한인
##한테
##아냐
##아리랑
##제기
##제의
##제압
사바
사료
사항
사운드
사자에
아자
아는
전이
전과
전라
전산
전운
전매
전범
전전긍
한용
한우
한판
한림
한솔
한궈
##ᅥᆨ스
##드름
##드라마
개화
개척
##위치
##위축
##위의장
##라서
##유관
공해
공관
공문
공적
공판
공예
##통한
##진영
##선고
##선임
##만이
##만족
유한
유공
유남
유작
유공자
유쾌한
수어
수두
수락
정해
정재
정적
정직
정리한
정교회
정명훈
신차
신사업
신나는
##동기
##동일
##동계올림픽
##산악
##산분리
##빗
##비자
가요
가축
가극
가봉
가른다
인체
인플
인건비
##ᅦ이크
##행종합
##행렬
과르디
##공장서
##소통
##소동
최원
최성
최은
미주
미라
연호
연등
연찬
##간섭
##치니
##치홍
##조기
##조의
##조종
##조직원
##조6천억원
##조형물
경희
##개학
중이
중성
중종합
중개
중반
부장
부합
부동
부안
부심
##천장
##민석
##민정부
##단기
마곡
제8회
##연계
선구
##관들
##관왕
김도
김인
김유
김애
김봉
김웅
김수영
출현
##재개발
##권으로
##권익
여중
##터쇼
##터널
비만
비비
비단
비겨
내고
내성
내라
내세
내내
##승리
##승원
##승차
##우산
##우찬
##신도시
##신러닝
##금액
조양
조류
조희
하메
하지만
하이트
고리
고생
고흥
고흐
고드름
##미엄
##호포
##경대
보기
보직
보며
보좌
보이지
##영민
우방
우박
오판
오직
오하이
오빠
오디션
##마라
##마드리드
강하게
강좌
서정
서동
서거
서둘러
영해
영종
영문
영양
영암
##판에
##파울
##학상
한국에서
한국ms
한국감정원
##란트
상권
상견
상벌
상봉
상폐
모형
모병
모랄
모나코
자화
자가
자구
자민당
자외선
무시
무서
무급
무례
무섭
무혐의
##무제한
##출자
##방비
해종합
해산
해당
해볼
했는데
윙
위생
위배
위약
위스콘
발자취
##차질
##그니
안할
안하면
나진
스포
스노
스탈
스케
##속에
##타항공
##티스트
##티뉴
##점서
어린
감산
##으로부터
일가
일당
일출
일각
소로
소아
소극
소액
소멸
##분담
##중립
##중근
문민정부
다할
다쳐
다변화
다윈
다국적
203
20만
20일부터
20호골
구리
구출
구애
구의원
노림
노영민
##바닥
##바꿈
102
107
10회
10경기
10만대
##려야
##생이
##생에
만한
만큼
세리
세워
##실에
##실태
도루
도이체
##모나코
예년
예우
등기
등서
코끼리
##입학
올린다
올바른
올스톱
바나
바까
남해
남용
남겨
반년
반세기
##을박
##청탁
##크푸
##오리
##오면
의석
재출
재건
재료
재송
재해석
재승인
동요
동메달
동유럽
픽
피폭
피싱
##현산
##킷
##키는
호재
##카트
##카에다
##겠죠
관제
차우찬
##투구
##반응
실상
성산
성당
성난
성찰
성윤
북아프리카
북마케
##푸르
불시
불티
불신임
장식
장르
장강
장충
장윤
장편소설
총영사관
평일
평행
##결혼
##양사
##양성
매화
매월
##버드
결코
결백
##증인
##론을박
박민
박맹
삼성자산운용
삼성디스플레이
원가
원산
원심
원료
원익
원한다
원구성
##심에
##심포니
외투
외곽
외딴
##노인
교장
lg생활
진에어
진선미
sk는
sk인포
새마을
후기
후계자
특판
특례
##환수
##환영
포옹
포틀랜드
##ᆯ럿
##후군
##강사
##강남
##저지
##형제
##할수도
와해
거스
거창
배부
밸런
트레
카트
카프
증진
##에서의
##에서만
서울은
투병
##항에
감독은
파장
파국
##패키지
그대
그때
##군단
청계
역주행
없도록
##박자
##박두
더이상
손경
초월
초이스
##익스
##립대
참전
당한
당당
당직
당뇨
에러
에코
에스에
에듀
##난데스
체온
첼로
폭등
분화
분단
분신
분출
분배
분담
##말고
##질문
##질러
##질듯
##루미
##데일리nk
홍수로
임찬
계룡
##외광고
승자
##즈모
##즈키
##택트
##택근
리시
리서치
얇
입자
입구
입추
입맛
##병욱
##음에
중국이
중국계
광란
광양
현대화
현대중
##추적
##플란트
열사
##엔텍
집으로
집대성
5g망
5g서비스
타석
##범한
러에
러일
생긴
생체인
속의
속리산
산유
산사태
대표로
최고점
최고액
완역
양회
양식
양측
행운
판세
판타지
언니
경기하
경기는
경기방송
개발사
##창조
개최지
적합
적은
코스모스
알프스
알카에다
지원할
##별로
세계의
세계경제
##날드
##날까
2011년
2014년
115
11승
11일부터
##히고
패스
패널
핵개발
핵도발
##탄압
국민청원
애로
맞선
맞나
민주평통
드는
##온다
탈바꿈
환담
목격
사망한
창사
창고
30일부터
저감
저렴
군경
그램
그랜드
##글라스
남북공동
남북군사
남북경협
##베트남
##베니아
명운
북한산
##편대
변론
김정은과
122
128
##탈퇴
토마스
물적
물망
네이버랩스
15억
15억원
15곳
라마
라면
100배
류현진과
##케스
급변
갤럭시폰
풋
푸홀
##열기
황우
황태
황현산
##훈장
디펜
디딤
휴면
여행지
여행의
아이콘
내년에
내년까지
말할
말씀
텔
템
테라
1위에
1천400
방문해
방문진
코로나에
금융회사
금융위기
금융감독
경제학
경제장관
캐시
캐치
##브스카
투자설명회
허점
허물
못할
못한다
음반
음양사
되다
강화한다
홈피
온천
국제전화
##불교
국회에
넘으면
필립
선수에
난다
살인사
골대
오늘밤
듯종합2보
러시아제
러시아군
결정종합
##퇴진
외국계
주말까지
막기
유럽시장
유럽축구
유럽이란
18개
##캐슬
항구
상승종합
메모
메뉴
축구대회
축구스타
19점
1970
발표에
없어서
합의종합2보
##축제에
카카오뱅크
클립
클로바
50만
50여
50만명
국가교육
국가과학기술
국가비상사태
추가취득
네번째
평양시민
광주에
광주은행
시위로
해외식당
힙
함성
##2019
##손해보험
울림
관광버스
16개
이상한
이상무
절친
영상권
영상통화
롯데제과
사업부
버닝
##라인드
악의적
여성의
여성들
여성독립
약점
폐회식
제재완화
키트
우승까지
우승하고
쿵
쿠슈
쿠팡
쿠어스
쿠티뉴
경찰서
##파트너스
두산그룹
두산인프라
뒤에
낮최고
22일부터
21일부터
과학의
번에
대구에
대구시장
통신사들
하나투어
구글과
지지자
인사나누는
인천상륙
페미니
페널티
공동주택
20182019
이용해
성공종합
교육생
249
24개
24점
편법
편견
##획정
독일인
##30일
문제없어
겨우
블라인드
40여명
40홈런
대응책
대응해야
좋겠다
좋을까
받으면
퇴원
위기에
전문직
계약금
갈수록
지역위원장
지역사회
지역신문
유엔총장
수사팀
kbs사장
역사적인
천장
천리안
전북교육청
함께한
인도서
브레
봄배구
봄기운
잡혀
잡을까
공모주
이어지는
대전소식
대전세종
영향종합
용기
용평
모바일로
주택경기
금리동결
금리역전
맨해튼
몰고
몰카
몰리는
몰린다
출전국
아이폰6
효소
높일
선발진
길거리
국립극장
국립민속
정책협의회
정책기획
온라인서
26개
##확보
##확진
문화가
문화행사
평창동계올림픽
베트남에
베트남전
##기자단
##스틸
한화건설
##통신망
##소식통
불법행위
한미약품
국정원장
국정조사
인공위성
거래량
델
뎀베
면세
면밀
보도는
놓은
풀어야
##둔화
##지역에
##지역서
##기관장
혁신의
정의선
연기된
청년일자리
애플에
최다골
울산시
비판종합
존폐
270
60일
60만원
도전하는
학생에
헤일리
산업화
nhk
벌집
조선총
조선기자재
벤츠
벤슨
밤새
공공주택
다음에
탄핵표결
책임총리
인기에
##충전
별개
##잡은
2차관
이동호
이동식
밀수
대만과
주목받는
고객센터
200만
2007년
볼까
개헌논의
싸이
싸운
싸울
최초의
회동종합
##촉매
인권단체
빠지
##콘퍼런스
사람과
##재단에
이해진
군사협력
외무성
외무차관
체포돼
흥분
서울시당
서울시청
서울시교육청
이틀간
인수합병
##바이저
시대에
교체출전
플래시
2위는
꿈을
꿈나무
얼룩
규제완화
##50원
전자상거래
돌아왔다
입장차
압박에
보고받아
브라우저
강력제재
강력대응
드론으로
##소년단
광고시장
전쟁터
탈출한
31점
대체투자
기록한
시범운영
우주에서
거부에
혼합
혼잡
은행주
맹위
재개관
북핵공조
실패한
영국에
설치미술
##펀드에
예술가
암시
가족돌봄
밝힐
전략은
연합훈련
만들었다
호주서
건설사
로봇이
긴급돌봄
캐나다서
억만장자
여름휴가
6월까지
이제부터
중동서
법원에
착수종합
db금융
각종
전달하는
루스
티저
티움
##프로젝트
올랐다
##사고로
적용한
32점
32강
##보험공사
자유당
감사의견
독립기념일
예고종합
추석맞이
고려해야
금지법
1명은
##헬
##대책위
비난에
최종전서
가상화
자율차
국무조정
협의중
변화의
500억원
머리에
머신러닝
신년음악회
신년인사회
쿠르드군
죽이기
웃으며
푸틴과
있어야
있어요
1만3천
좌석
긴장완화
떠나자
떠나요
이승만
vr로
도시서
도시락
##의원들
##클릭
꽃다발
##힌다
위험자산
국경절
36명
리비아서
품목
시험지
개정판
제1차
##벨트
괴력
보수단체
골든타임
컨퍼런스
컨소시엄
완화에
34도
it기업
납득
게양
전용열차
뺀다
휘청
미디어아트
33일
이행해야
##궁전
수용종합
르완다
고위인사
설명하는
봉하마을
5년내
발전에
사이버보안
받아야
메이커
신인왕
신문의
선택한
찢
증권주
단체교섭
압수수색종합
rd에
덕수
##싸인
맛의
문재인정부
태국과
마이클
빛바
결의대회
보험료
노트9
노트7
노트8
##포럼서
끝내고
수석코치
수석보좌관회의
경매서
크다
동시다발
임시대통령
김성식
바람에
##셨나요
대설특보
보유자
임대주택
업체에
쌍용
##대학원
신경세포
김태균
젊은층
그리스서
정기예금
추경처리
도약종합
생활치료
창업지원
메르스
##바이오텍
##인터뷰
추모행사
호텔서
호텔업계
호텔신라
안정화
북부권
흔들리는
흔들리지
##80억원
이름은
전세대출
신뢰회복
조정래
서명국
노벨문학상
채권형
라인프렌즈
호르무즈해협
샬럿
##프랑스
아동학대
아니다종합
어디에
중소기업에
삭발
##몬드
차관급
색다른
##하려다
##경쟁력
특수학교
범죄자
52시간
펼친
##팩트
신세계백화점
끝나지
끝나고
갑론을박
##경찰서
취약점
마케도니아
보여주
보여야
보여줄
보여줘
손잡았다
스타트업에
##킨슨
창작뮤지컬
8강서
총재에
윤석헌
텍사스는
신중하게
중재자
김해란
김해공항
포스코ict
쏟아진
배당금
지키는
##공원서
선전포고
돕기
수요강좌
인재영입
믿을
중도파
카톡으로
etri
지연종합
유통업계
만화신간
실업수당
분리공시
분쟁조정
욕망
살아남
살아난
주식형펀드
공항에
실험실
원주민
1조원대
엇박자
##상황실
보내는
재산공개
깎
김진태
봐야
##빠진
합동훈련
당신의
변수는
지휘자
연주회
알려주는
100년전
중계기
새벽에
배우자
넣고
찍은
가까워
중간배당
호실적에
박정희
로켓포
2021년도
드러내
드러낸
묘소
컴퓨팅
부활한
바라본
의미는
태영건설
갤럭시노트fe
번호안내
nlcs
유리천장
붙잡
##교통공사
##교통방송
위치정보
슬로건
슬로베니아
##보유액
만족도
성추문
에티오피아서
as로
as모나코
이마트24
선제타격
방법은
신년사서
광화문광장
밑그림
##스쿨
##무용제
다이아
재무장관
폭설에
1천500명
대량생산
기적의
소녀상
v50s
대중교통
국왕컵
수혜주
압도적인
벤처기업
유전체
제4회
비슷한
윈터
윈윈
엘리자베스
척척
한상진
코트라
후임에
포로셴코
합격자
탄력근로제
근거없는
죽음의
##12일
##유지군
중기부
고교생들
주인공은
정무수석
좀비
성황리
우리금융지주
##묘지
##이노텍
##자문회의
무엇이
2030년
알고리즘
친선경기
윤리위
3대3농구
첨단기술
한번에
중장년층
동점골
웨스트브ᄅ
암호화
탐사선
멈춰야
멈춰선
지주회사
##찾기
감상하는
외화증권
청소노동자
사이클링
쇼핑몰서
쌀쌀한
국면전환
올레tv
호위연합
왓퍼드
든든
##시킬
##시키는
신흥국
제7차
1987
at마드리드
아무도
정비사업
외환보유액
창의재단
극장골
퇴직금
셰프
##뇌부
앉아
전작보다
교도소서
카카오페이지
프리미어12
ifa서
곡성
##수익률
스틸
스티븐
파열음
적절한
직권남용
블로그
택배노동자
틈새
##결정전
박준식
드림팀
항소심
표정으로
stx조선
요르단강
이도희
이모지
이태원
개봉박두
가르시아
선진화법
적대행위
세계선수권서
꼼꼼
뭘까
펑펑
이공계
아킬레스
공직선거
연타석포
2070선
2010년
즉위식
퓨처스
크렘린
##어드바이저
소셜미디어
담보대출
풍랑주의보
엑스페리아xz
갱신
험로
갇힌
선별진료
##마케팅
바그다드
작곡가
휴양지
항암제
권익위
서울시립미술관
자산운용사
읍
전해철
수신료
신진식
##빌리티
고공행진
스카이스
어쩌나
실명제
불화설
분주한
합참의장
갤럭시탭s3
헤드셋
한국인터넷진흥원
빙판길
오사카서
##겁게
숫자
다채로운
검정고시
리베라
##플라스틱
뒤늦은
특별감찰관
기쁘다
멘토
##펀딩
스페이스x
방글라데시
로보어드바이저
권순찬
thing
ufg
가맹점
최전방
현판식
금융소비자
언론중재위
초등돌봄전담
니카라과
b2b
기선제압
한병도
보위부
서포터즈
발묶여
발롱도르
도미노
##모델링
박봉주
분향소
행락객
##블리싱
백령도
콘텐츠로
잇따른
불법이민자
맑아져
맥도날드
염기훈
제3자배정
프랜차이즈
대정부질문
유방암
유광우
화창한
신격호
조태룡
조윤선
우아한
오디세이
자릿수
해넘이
나상호
문무일
도깨비
삼각편대
재보선
샐러리캡
특감반
민음사
와일드카드
당협위원장
임동혁
속절없이
11번가
직업계고
물건너
sktcj헬로비전
줄리아니
페로브스카
따돌리고
옥류관
획기적
테임즈
기득권
전전긍긍
한궈위
##만족도
유남석
수두룩
##산악영화제
과르디올라
연찬회
김애란
조양호
조희연
오하이오
상견례
모랄레스
위약금
위스콘신
스탈린
노림수
##크푸르트
성윤모
북마케도니아
장강명
박맹호
lg생활건강
sk인포섹
임찬규
생체인증
디펜딩
디딤돌
여성독립운동가
쿠슈너
쿠어스필드
두산인프라코어
페미니즘
페널티킥
대전세종충남
국립민속박물관
뎀벨레
가족돌봄휴가
생활치료센터
웨스트브룩
아킬레스건
페로브스카이트
1분
1루
1등급
1학기
2원
2사
2연
2주년
2금융
2주기
3분
3루
3만명
3개국
4인
4라운드
400명
4부작
5자
5인
5부
5분
5시간
6종
6차
6배
6호골
7대
7원
7배
7경기
75억원
8k
8호
8배
8곳
9번째
9천억원
bj
bi
btv
cb
ct
d7
dg
d10
d램
f16
gk
hmc
jp
kp
kj
kr
k스포츠
k리거
led
mc
ns
nbi
op
pb
sm
tbs
u17
u골프
var
xr
xz
그러
낀
널
넛
늑
닥
드ᄅ
덱
뢰
랑
락
뭔
쉐
쾨
쿼
케이스
톨
텐
힌
헥
㎜…
##메이드
##ᆫ걸음
##엉
##ᆯ체
##그레
##그러
##ᆸ입
##벙
##베이터
##딘
##ᆷ새
##튀
##늠
##프린
##꿔
##29
##2천명
##ᆻ어
##ᆻ으니
##또
##딸
##뜸
##뜨리고
##mo
##mg
##da
##케이스
##캉스
##크래프트
##5만원
##4회
##3천만원
##14
##7건
##700억원
##82
##8건
##ea
##fta
##6천억
##ᆮ은
##뿌
##뽕
##rc
##rl
##ᇁ이
##ᆰ탕
##nc
##이치
##이그
##이벤트
##시안
##시노
##시진핑
##시멘트
##에른
##에세이
##하시
##하마
##하루
##하람
##하거나
##스태
##리어
##리위
##리노
##리스크
이은
이차
이을
이임
이양
이론
이준
이목
이대로
이베스트
##로도
##로웨이
##로이터
##지성
##지출
##지작
##지형
##기어
##기부
##기나
##기심
##기본
##어음
##었나
##서의
##서정
##대장
##대만
##대영
##대역
##해성
##해라
##해차
##자탑
##자위대
##자마자
##원과
##원조
##원칙
대어
대러
대만에
대좌
대납
대하여
##사회의
##사람
##사절
##사옥
##사이드
##도무기
##주현
##주자들
##장기
##장구
##장소
##장교
##장학재단
##화성
기한
기행
기독
기항
기립
기사단
기형도
##닫
##닭
##다이
##다움
##다리기
##국어
시비
시티
시그니
##고위
##고려
##과열
##과잉
##과컴퓨터
##전입
##전달
##상어
##상정
##상권
##가자
##가야
##가름
##가너
##가속기
##가시노
##인더
##보겠다
##볼루
##보틱스
##회수
##회사에
주자
주사
주행
주자들
주제로
주세종
##부과
##부답
##구르
##구입
##구석
##일듯
지장
지표
지점
질ᄅ
##수주
##수미
##수무
##수습
##아세안
##트위
##트론
##제어
##제원
##제휴
##종합4보
사로
사사
사정
사유
사재
사양
사저
사교육
사측
아바
아포
아리아
아틀
아슬
아궤
아사드
아부다
전도
전한
전현
전락
전분기
전념
전혀
한가
한창
한밤
한잔
한가위
한아세안
##드카
##드립니다
##듣는
갯
개천
개보수
##라드
##명품
##유통
공로
공원
공기업
공헌
공사장
##진로
##선지
##선전
##선택
##셉
##만은
##만파
##만여명
율
유비
유조차
국화
국부
국비
화전
화염
수고
수산
수천
수령
수당
수호
수협
수질
수만명
수확
수뇌부
정용
정복
정찬
정황
신도
신안
##동서
##동현
##빅
##비가
##비오
##비디오
##비앤비
가서
가위
가문
가린
가겠다
가곡
가시마
가늠
인한
인용
인양
##나간
##나게
과다
과연
과방위
##공대
##공관
##공판
##공약
##소화
##소보
##소연
##소문
최상
최명
최전선
최첨단
최홍석
미원
미들
밀린
미이란
미인도
미취업
연상
연립
연좌
연주자
연석회의
##간의
##치서
##치락
##치며
##조리
##조종합
##조위
경감
중시
중화
중구
중증
부ᄁ
부녀
부르는
##단협
##단절
추인
추후
마찰
마사회
마쓰
마차도
제5
제구
제조사
제보자
제일기
##연출
선양
##관표
##관람
##관측
김대
김복
김훈
김위원장
##안위
##문건
##재벌
##재건축
##권고
엿
여주
여건
비발
비건
비추
비자금
내사
내는
내보
내게
##승계
##승장구
##발행
##우지
##우나
##우월
##우면
##우며
##신보
조장
조인
조립
조추
조슈
조끼
하트
하마
하모
하마스
하와이
하도급
고작
고군
고갈
고성장
고금리
고품질
고구려
##미도
##미포
##미노트
##미콘
##미우리
##미레이트
##당위원장
##호주
##경에
##경화
##경고
##적한
##적격
보란
보코
보태
보이면
##영국
##영재
##들기
우도
우한
우진
우표
우클릭
오정
오은
오레
오르면
오르는
오렌
##마에
##마임
강서
강정
강성
강간
강북
강탈
강효
서두
서막
서강대
영리
영등
영사관
##첼
##체전
##프닝
##파르
##파만파
##식은
##식물
한국도
한국여
한국선수
한국영화
한국작가
한국과학기술
##란한
상실
상습
상파울
모독
자이
자책
자사고
자발적
무지
무모
무형
무거운
무이자
##억에
##억불
##무가
##무실
##방크
##방법
##교원
해방
해달라
해프닝
위력
위하여
위구르
대통령은
발주
발등
발칸
발빼
발칵
##러코
##러밴
##찮
##그리스
안주
안겨
안했다
안되면
안방서
안테나
안치홍
나사
나루
스팅
스톤
스즈키
##티즌
##티리얼
##여제
##여점
##여객
##였던
어울
어벤
어빙
어시스
어워즈
방수
방학
방정오
감수
감옥
일자
일구
일행
일간
일터
일격
일감
일등
일가족
일찍
일파만파
소용
소매
소음
소각
소탕
##분산
##분별
##중에
##중동
문명
문신
문호
다나
다승
다친
20세기
##내역
굽
구두
구례
노치
노예
노골
##바인
##바겐
1020
10만개
##려종합
##생자
만회
만취
만비즈
만지작
세트
세배
세운
세상에
세탁
세리에
도는
도울
도레
도교육청
도미니
##모임
예감
등에서
첫판
첫눈
코디
코소보
올릴
올봄
##밸
##뱀
##배축제
통지
통치
통학
통감
통째
##운수
##운반
반출
반이란
##석대
##석주
##석환
##청서
##청사
##약체
##크니
##옷
##오피스
##하는지
의약품
의대생
삼화
삼청
재회
재생
재검
재앙
재투표
재신임
재진입
잰걸음
동구
동계
동포
동두
동쪽
피자
피치
피하려
피곤
##거절
##거돈
##현악단
현송
현기환
##키움
호응
호칭
호캉스
호크니
##테리아
##카페
관행
관료
차고
##퉁
##투극
##반입
##반환
##담당
##담패
실검
실거래
성소
성분
북일
확립
불통
불타
불이익
불출마
장대환
총사령관
평택
평론가
##억원어치
##결집
##축소
##능후
매파
매슈
##버넌
결핵
금산
금빛
금자탑
박해
박인
박한
박현
박대통령
박능후
삼성의
원장에
원하지
원룸
원소속
원포인트
외벽
외통위
##물리
##노력
교전
교훈
교착
lg이노텍
진미
진술
진흐
sk케미칼
##감에
##감정
새끼
새내기
후진
후면
##코르
특종
특성
포도
##두에
##두리
##ᆯ른
##후원
##급식
##강원
민노총
##저하
##저축
##저널
왔나
거세
배유
배웅
##태인
트레이
##토에
##토스
##토류
이란대통령
카운트
요동
요미우리
증편
증평
단수
단편소설
##에서는
kt도
kt파워
서울로
서울역
서울신문
투스크
투트랙
감독으로
파일
##패로
그것
##군절
청렴
협상에
역차별
##네는
##네바
더운
로또
손으로
손병
손목
손쉬
손본다
손정의
초록
초대전
초가을
##익범
##송이
당명
당연히
논평
에도
에스티
에쓰
에미레이트
체인지
폭파
##광년
분사
분통
분명한
##막이
##질주
##데스크
홍익
홍채
홍미노트
임의
임을
임서정
임단협
승전
승승장구
##즈만
##택배
리처
리턴
리프트
리얼리
리모델링
야유
야경
야생
야시장
입문
입점
입양
합쳐
합리적
##음료
중국은
##웍스
##웠던
##워크숍
충당
현대미포
두께
##추격
##플라이
열세
열심
집에서
##최초
5gb
5g장비
##범위
러와
생성
속수무
정부지원
산정
대표들
최고종합
월성
완투
탭
태아
앞날
양당
양파
양복
행선지
판촉
판가름
언행
##창의
##창구
##창작
##철호
미국행
적기
적설
적립
코스맥스
김정태
알기
알린
알아야
알몸
지원방안
달리
달래
세계가
세계평화
세계최초
2015년
119
118
116
11억원
법사
법규
학사
학과
학력
학내
패닉
영업정지
핵안보
핵포기
국민과
국민안전
앰
애경
맞대
맞다
맞을
##덮
##레길
터져
탈선
탈원전
건재
건전성
##벌이
국내여행
창비
창설
30만
30만원대
군주
본질
##검다리
운송
##예고
##예프
##져스
심층
남북회담
남북고위
명작
북한에
12만
종로
종말
종편
##대표로
전국망
전국체전
물의
물품
네이버가
15도
15분
라카
##핵실험
100개
100조원
100gb
##희생자
류현진에게
##케아
급성장
##평의회
##평론가
푸에르
푸이그
간소화
##혁의
황정
황영
황인범
황동일
내일도
##페스타
추진해야
추진종합2보
디트로
디즈니
휴보
끓는
아이티
아이슬
ai에
ai기술
말도
말한
활발
활발한
미래기술
##멜
##멧
##메드
##메르
1천여명
##투자대회
금융시스템
금융보안
금융안정
경제발전
경제활성화
철원
캐러밴
꺼내
탄약
총리후보
않게
허사
허경민
허벅
허익범
날짜
음담패
되돌아
되풀이
서비스법
강화할
언론계
온실
##순방
연구재단
제주시
치유
치킨
국제법
국제심포지엄
국회로
넘쳐
넘긴
확대에
꺾은
찾다
찾고
순회
순조
순직
순례
난동
난망
난투극
살균제
홍콩경매
골잡이
기술력
끝날
끝낸
스마트폰사업
##퇴근
후보는
후보등록
백건우
##커머스
공격하면
공격받아
논의하는
유럽파
18득점
줄인
줄다리기
책에
책은
점차
점포
메밀
축구의
축구팀
197
1900
발표회
때는
카카오맵
50승
50여명
국가에
추가지원
네티즌
광주시장
승리로
시위종합
선거자금
해외투자
##스타일
##스타트
표기
히틀러
히딩크
히가시노
함부르크
강원영
강원산불
##협회와
기자상
기자단
##귀화
##개월만
손흥민은
25명
25개
25득점
##백서
##백신
목표로
관광명
절박
커졌다
영상회의
롯데쇼핑
롯데호텔
롯데콘서트
은하
은평
은산분리
사업가
친러
##축구연맹
##축구선수권
송출
할당
할까
할로웨이
접었다
프레임
노동권
전망대
14위
협력종합
여야대표
폐업
폐암
평화적
##봉기
우승팀
경찰과
##파트너
두산은
낮엔
낮에도
이스라엘서
이스라엘과
21년
정상외교
과학자들
번트
대구fc
대선서
대선결과
하나로
하나카드
홈런으로
##휴업
##휴직
##혜영
대화로
대화는
대화할
농담
석권
##러스터
구글의
필요해
필요하면
대북소식통
지지층
방송법
방송협회
방송대상
방송독립
인천교육청
사우디에
##센터장
실적부진
##조원대
성공에
242
24명
2400
편향
##장관회의
독일에
한국당에
한국당과
문제없다
외교전
외교부장
곁
블룸
40분
대응종합
대응훈련
대응조치
좋음
퇴사
경쟁사
##접속
23점
23일부터
특별판
특별귀화
전문인력
희토류
계약직
지역에
지역방송
##측근
수사종합
수사권
kbs이사회
도입에
##리카락
안전성
안전하게
안전장치
천지
천막
천둥
천경자
##정보도
대학살
대학교수
잘할
인도에
인터넷망
인터넷기업
브레이크
##죄기
##죄부
징검다리
##벤션
봄바람
2천9
2천년
2천명
3년째
귀화
##문화의
##문화산업
공모에
용서
주택연금
요구종합
중단하고
##연구센터
남자대표팀
잠룡
팀의
반대하는
반대시위
효도
떠오른
침투
조사종합
통일장관
선발투수
길로
국립극단
정책에
워커
문화올림픽
문화유산
갤럭시s7
힘은
한화투자증권
##갈비
불법촬영
프랑스에
프랑스서
방통위원
방통심의위
배구여제
국정지지율
미사일방어
면적
면죄부
시민의
행사에
하루하루
풀린
정보기관
사회당
##선수에
가을에
가을엔
가을축제
곳이
숨통
안보실장
예상보다
혁신상
혁신위
통합정부
울산서
울산소식
##머티리얼
비판한
비판적
존스
전환에
미세먼지에
27개
27점
60여
##밀란
헤지
헤딩
##과학원
산업은행
산업재해
개선안
공급과잉
브렉시트당
선두타자
조선중앙
##개발에
회복세
공공부문
코스닥벤처
앱은
탄핵소
식히는
만나요
학교에
학교폭력
2차전서
##쇄신
이동형
카드수수료
마지노선
개헌발의
늙
##긴장
한반도기
4월까지
씨앗
인권법
인권문제
경고에
##콘텐
사람은
사람중심
체험공간
경남fc
작가의
##될것
주의해야
주의하세요
군사회담
군사정보
군사봉기
헌혈
비상종합
비상경영
비상근무
폭염에
병합
인수에
인수전
원내지도부
제공종합
있다고
시대의
평가전서
##혔다
##쿠스
##쿠버
미래부장관
모두를
모두투어
아프리카돼지
29명
29점
정상회담에
돌아올
확진에
뛰었다
##좌파
5천원
5천억
됐으면
빅3
빅매치
인공지진
##스코리아
엄정
엄호
31도
대체할
상반기까지
전시된
싶었다
바이에른
은행연합회
걸음
걸림돌
케어
재개방
북핵해결
인공지능이
범가너
사진작가
##필지
영화의
영화관
실패종합
##섬서
관리비
관리체계
분양보증
팬투표
팬텀
##릴라
유지할
유지해야
가족의
전문가가
9월까지
음악가
음악감독
mwc에서
이정대
이정철
연합체
만들겠다
호주에
회의서
건설적
래미안
##업체와
답한다
긴급회의
곳곳에서
늘린
늘리는
베스트11
브라질서
프로축구연맹
##플레이스
##플레이션
여름철
여름밤
야구의
6월부터
뇌세포
들어가
##할까종합
프로야구결산
맨유에
결과에
결과는
mvp에
mvp는
찬사
찬물
각계
지분매각
인간을
루시아
쓰세요
씁쓸
흑백
##정상회의
그리즈만
채용설명회
라이카
등굣길
갈등에
32gb
중앙정부
중앙일보
중앙선관위
돈줄
돈세탁
사퇴하라
카메라로
패배종합
4천500
정권에
80만원
##알뜰
문학은
문학동네
3월의
멀리
##하다는
##답게
정규시즌
최종전
중요성
거리의
거리행진
페이스북에
3천400
먼로
먼바다
가상통화
가상계좌
인하로
바다에
바닷물
장기화에
머스크
머리카락
엔에스
7월부터
죽은
웃고
웃돌
예멘서
반군과
샌즈
허용종합
허용해야
##도시범
충남대
충남도
있어종합
춘천마임
1만개
1만1천
##하겠다종합
연극으로
제2차
김연수
시행령
사랑하는
무료로
사고에
도시재생
합류한
핵심은
##클리어링
꽃길
추락한
극우정치
불가리아
36년
쉬어가는
연휴에
추정종합
품고
데뷔골
5명에
총격범
분석해
응원전
iot로
컨트롤
전면전
전면금지
동반자
300억원
itu
it업계
납북
씽씽
1조2천
옥외광고
옥죄기
김학민
한국인의
차량폭탄
##버스에
생각하는
##앤지
필리핀에
사건에
미디어패드
제외한
검색창
##자산신탁
소송전
민생고
봉송
##6억원에
읽기
읽다
읽을
인정종합
의회에
웹소설
본격화하나
늦게
크리스토
##보호예수
공화국
발전소
발전기금
투수상
##언론상
언급한
사이버테러
기관장
신문윤리
김동명
일제강
예비심사
퍼진
퍼블리싱
##전지용
여론전
단체관광객
건강관리
덕담
잇따라종합
멀티출루
2주째
약세종합
석유장관
한달새
보험금
위클리스마트
노트10
##40억원
중부는
마음의
항의방문
깨고
걷고
인삼공사에
내부고발
스윙
토론회에서
##7억원에
기소돼
중심에
##계획서
의견거절
은퇴식
대설경보
유전자가위
10명중
분야에
명예회장
따라잡
국감장
임대사업자
베이비
쌍포
##1억원에
붕괴종합
##피해자
강릉서
무산에
충격적
정기총회
움ᄎ
동부서
##예술축제
이통사들
정당별
불안정
1억8천만원
내정자
내정간섭
골든스테이트에
듀브론
흙
##시민행동
삼성화재에
맞대결서
서명운동
##묵부답
##프레이
##60억원
법정에
법정구속
헌법소원
화천군
지켜야
지켜보는
지켜보자
김기현
##경쟁률
원정서
본회의서
눈앞종합
##렉터
신세계인터
신세계ic
의무보호예수
크리스마
크리스퍼
염원
지명타자
##중단에
언제까지
언제쯤
군부에
군부야권
기간에
불발종합
땅볼
액면
액티비
소방당국
안보리결의
39명
지하디
##미디어센터
오른발
신중해야
김해시장
집행위원
클리퍼스
쏟아내
쏟아진다
pc방
개관식
부패혐의
오스트리아서
##음악제
챔피언전
챔피언결정전
ibk투자
ibk투자증권
주재하는
지킬
총기참사
뒷걸음
msn
뽑아
수요낭독
믿기
믿고
믿음
동남부
동남권
관세부과
편집상에
근로자의
##114
신영증권
김재원
구호단체
만화로
만화가
목소리로
4개사
##이라면
세상의
세상을
진실과
파리서
2만5천
3일간
꼭두
혈관
혈액
차질없이
원주서
와이브로
완성차
안내서
물러나라
빅데이터로
##테이블
##리밭
탈당파
택시기사
꼬마
던지
공포의
성남시
광화문에
휴대용
격려하는
병원서
##봤다
당신은
임종룡
변수로
##컨설팅
##기념식
깊어지는
연주로
방사성
소리꾼
##추진위
변호인
이슬람권
이대은
120억원
넣은
넣는다
찍고
##사용료
한자리서
양자회담
표준화
당정청회의
그런
드러나
##벼락
##스와프
시기상
선고공판
상원의원
흡연
쟁점법안
아웃링크
한글과컴퓨터
유학생들
싱가포르서
맡아야
강추위에
양국관계
선거구획정
묵묵부답
주주총회
매매가
움직임에
##시청자
지식인
유일한
부실채권
선포식
##권도전
무패행진
일상의
일반에
현역의원
김주찬
조용한
조용병
쿠데타로
엄중한
블랙리스트에
컬렉션
##잔치
우라늄농축
동료들
장병완
박주선
박주민
백두산에
누리호
누리과정
빨라진
빨라진다
이기주
공짜폰
화물기
김상곤
자문위원
트위터로
비서실장과
붉은색
궁금
플라자
아시아선수권서
안드로이드폰
3주째
stc
정운호
상위권
##출판사
등락종합
##근무제
학술대회
직무유기
##덩이
##스러워
지적에
수해복구
경품행사
김명관
우간다서
##낼까
성사될까
해외여행객
폐기물
괘불
궤멸
##시켜야
이종현
화장실
인생의
중진공
의식했나
동성결혼
우즈베크전
무엇을
해안서
api
wsj
떼고
쏜튼
신동엽
가로막
출장정지
강타한
결합상품
카페24
바꿔야
f35a
##으려면
익산
이웃사랑
대리점
아기상어
공감대
내놓은
내놓는다
조합원들
자치구
감상하세요
파이팅
알바니아
친정팀
esg
대파하고
공군기지
경상일보
고령자
보급형
샘슨
훔쳐
왓슨
##메이카
한마디
##비서관에
추억의
검색어는
안타까워
안타깝다
말레이시아서
원자력안전
att
atm
이중섭
이병기
싫다
가전제품
뭉쳐
##교섭단체
물류창고
백인우월
메리츠종금
퇴직연금
잠재력
뭐가
쏠린
한산한
정우영
김세영
##프리텍
##프리미엄
확실히
합법화
채무조정
달아오르는
애리조나전
저항의
바꾸는
프리미어리그
조원우
우정사업
반갑게
투명성
합창단
사전투표율
트라우마
기어s3
국영석유
신라젠
차분한
북동부서
울주세계
웨이브
벤치클리어링
닛케이
낭독공연
##프레스센터
이원종
김홍걸
##벅스
공직기강
##만6천명
##공모전
연이은
영유아
어두운
2070대
구독자
민주화운동
준공식
버려진
윤호중
멈추지
대역전극
퓨처스리그
뼈아
이지스
한양대
신저가종합
핫라인
해협서
두려움
메츠전
권영진
웰컴
객실
브루클린
쫓겨
공통점
갇혀
연고지
##프라이즈
바그다드서
진지하게
포괄적
초강력
딜라이브
약정할인
폴더폰
잃어버린
5당대표
롤러코
##펙트
수놓은
정현백
중등교사
내셔널리그
오지환
다보스포럼
계엄령
야수파
알림톡
알레나
형사처벌
이스트소프트
##정밀화학
인내심
나이스신평
스미스
세일즈
민병두
체크카드
법제화
아이오와
프랑크푸르트
국정현안점검
어디서든
색깔론
mdl
쪼개
탁구
이방카
전준우
정예군
최인훈
부근서
내무장관
고요한
보궐이사에
소중한
태권도시범
네이션스리그
펭수
국립오페라단장
1박2일
겹쳐
뽀로로
대항마
사계절
전성시대
정몽규
선서하는
보행자
상공서
발달장애
스톡옵션
현충원
청탁금지법
페르시아
풍계리
수출입은행
방위비분담
자원봉사자
##메시지
##스위스
##어린이집
##라시코
유성엽
유채꽃
##개헌안
부추겨
오라클
위키리크스
실속형
##코미디
분명히
명백한
복면금지법
##변호사
##올림피아드
여성과기인
농식품부
향방은
이어갈까
떠넘기기
꿈꾼다
콜레라
737맥스
출구조사서
6자회담
드려요
톤플러스
탱고
이만수
시황변동
주터키한국
아델만
전야제
수료식
추도식
보금자리론
무등산
무책임한
문정인
셈법
동창리
박치형
kt엠모바일
운전기사
난수방송
펠로시
우주정거장
망명신청자
스트라스버그
헬스케어
물가상승률
밀레니얼
cpu
브이
##하모닉
한용덕
여중생
하메네이
##마라톤
모병제
무서워
스노우
세리머니
장윤호
원익ips
카프카
손경식
##루미늄
리시브
경기하강
128gb
푸홀스
살인사건
힙합
인천상륙작전
조선총련
싸이월드
덕수궁
빛바랜
as로마
꼼꼼히
선별진료소
thingq
2금융권
hmc증권
nbiot
쾰른
헥터
기사단장
시그니처
##볼루션
아궤로
제일기획
비발디
조추첨
조슈아
하모니
보코하람
오레오
오렌지
한국작가회의
상파울루
발칸반도
어시스턴트
동두천
현송월
진흙탕
kt파워텔
에쓰오일
에미레이트항공
리처드
현대미포조선
속수무책
남북고위급
디트로이트
아이슬란드
허벅지
음담패설
롯데콘서트홀
방송독립시민행동
블룸버그
코스닥벤처펀드
아프리카돼지열병
춘천마임축제
듀브론트
액티비티
수요낭독공감
백인우월주의
롤러코스터
04
0시
0명
1r
1원
1초
1학년
1선발
2선
2박
230
2일부터
2층
2대책
2시즌
2볼넷
3q
3회
3세
3억원
3강
3편
330
3일까지
4원
4전
4중
4억원
4조원
46억원
4위로
5원
5종
5건
5편
57억원
53억원
5호골
5만원대
5위로
6만
6억
6건
6조원
6일부터
6라운드
6천억원
600억원
7만
7일까지
74억원
8회
8승
8억원
8년만에
8득점
8천억
800명
9대
9종
9억
9조원
a8
bts
cs
cv
d4
dgb
e편
ir
idb
ilo
jo
j리그
kpo
ndt
q6
rc
se
ste
spc
scm
tpp
utv
url
ys
yg
뜰
똘
롱
럭
렌즈
뱅
뱅크
브라이
섀
섭
쏴
썸
쌩
쳐
촌
캉
턴
툰
팍
㎞…
##멀
##멕시코
##흠
##걱
##겹
##ᆸ스키
##럭
##럼프
##베이스
##os
##or
##s4
##si
##sbs
##kp
##kbs
##kia
##tb
##탱
##냉
##96억원
##0만
##ᆺ기
##ᆺ빛
##ᆺ밤
##깜
##껍
##2o
##22
##26
##ᆻ네요
##ᆻ으나
##떨
##똘
##dm
##di
##콕
##컥
##크론
##52억원
##싹
##썸
##쏠
##쌩
##쭉
##45
##41
##47
##4구
##4개
##4호
##4천억
##3호
##3법
##350
##31일
##1b
##1패
##12억원
##7대
##7일
##7천만원
##8천명
##8천원
##800원
##fm
##fi
##ac
##a호
##6만명
##ᆮ기
##쁘
##뻑
##pa
##ᆩ인
##x누
##ymca
##이로
##이니
##이크
##이른
##ᅮᆨ스
##시동
##시점
##시헌
##엘리
##에스티
##에디션
##하우
##하듯
##슴
##스패
##스닥
##리도
##리미
##리더
##리우드
이국
이춘
이베이
이케아
##로스
##로그
##지명
##지호
##지게
##지노
##지에서
##지휘
##기만
##기경
##기억
##어트
##어낸
##어워드
##서원
##서주
##서전
##대리
##대의
##대가
##대구
##대종합
##대선
##대체
##대왕
##대사에
##대학교
##대첩
##해소
##해준
##해온
##해변
##의총
##의향
##의민족
##원우
대차
대검
대불
대의원
댄스
대권도전
##사리
##사정
##사유
##사적
##사범
##사장에
##사냥
##도구
##도까지
##도루
##줌
##주째
##장부
##장려
##화종합
##화강
##화성서
기권
기생
기울
기강
기말
기량
기리는
기둥
##정청
##정착
##다스
##다임
##다이스
##다이노
##국지
##국수
시공
시들
시달
시련
시름
시골
##고서
##고생
##과점
##전부장
##상지
##상서
##상에서
##가정
##가르
##가게
##가처분
##종양
##합격
##인수
##인간
##인파
##인형
##인척
##보지
##보사
##보라
##보이는
##보수당
줌
주소
주입
주름
주홍콩
##붐
##부자
##부림
##부즈
##부장에
##부아르
##구나
##구멍
짚
지성
지루
##수라
##수소
##수협
##수반
##수집
##수막
##수법안
##수산물
##한남
##한데
##한옥
##한세상
##성산
##성공
##성적
##아의
##아동
##아와
##아슬
##아메리카
##트비아
##트럴
##야죠
##제이
##제가
##제트
##제츠
##젤로
##종합화학
사대
사원
사보
사은
사열
사활
사소한
##요타
##요양
아비
아현
아디
아버
아토
아픈
아티스트
아수라
##은택
##은범
전인
전부
전소
전까지
전보다
전원에
한유
한조
한영
한방
한다종합
한민족
한신평
##ᅥᆯᄍ
##ᅥᆯ까
##드나
##드당
##드와
##드려
##드게임
개악
개소식
##위복
##위니아
##라리
##라지
##라호
##라면
##ᅥᆸ지
##명대
##명수
##유조선
##유소년
공전
공소
공실
공석
공존
공들이
##통로
##통장
##통과
##진에
##진호
##진적
##선이
##선두
##세권
##세오름
유화
유고
유동
유타
유격
유임
유턴
유종의
유강남
국어
국공
국책
화신
화들
화환
화백
화폐
화엄
화끈
화훼
수기
수가
수재
수모
수밖에
정서
정은
정파
정청
정준
정도로
정읍
정성훈
정대영
신일
신체
신성장
신촌
신중국
##동포
##동아리
##산서
##비례
가천
가던
가볼
가난한
인판
인버스
인허가
인플레이션
##나노
##나루
##나가는
##행한
##행복
과대
##공고
##공예
##공습
##공원에
##소가
##소독
##소집
최용
최문
최남
최휘
최측근
미사
미식
미루
미지수
미끼
미첼
연차
연저
연변
연꽃
##치나
##치려
##조트
##조항
경의
경전
경동
경관
중태
중대한
중무장
붓
부하
부어
부위
부재
부러
부른
부다페
##천동
##민수
##민일보
##단신
추문
추승
추운
추궁
추기경
마그
마중
마광
제6
제노
제언
제5회
제네바
##연령
##연석회의
선다
선우
##피어
##피자
##필리
##피에스
##관이
##관석
김원
김소
##안양
출퇴근
##재편
여력
여친
옅은
여직원
엮은
여대생
비하
비해
비화
비관
비엔
비열
비켜
빌린
비수기
비공식
낼
내리
내림
내몰
냄새
##승자
##발라
##우대
##우터
##신인
##금은
##금속
조소
조우
조경
조항
조준
조흥
하다
하승
하청
하세요
하우스
하버드
고기
고종
고아
고유
고치
고운
고집
고베
고참
고층
##미옥
##당이
##당해도
##당정청
##호의
##호화
##호소
##경상
##경력
##경남
보은
보라
보조
보헤
보라스
##들썩
우익
우석대
오고
오산
오포
오현
오르기
오티스
오재일
오거돈
##마일
##마련
##마시티
##마인드
강공
강렬한
강민호
서리
서기
서한
서천
서적
서병
서별
서예
서른
서귀
서청원
서밋
##니발
##니커
영재
영덕
##체불
##체스터
##판단
##판본
##파티
##파리니
##학회장
한국사
한국고
한국산
한국관
한국토
한국팀
한국금융지주
##란도
상의
상사
상담회
상납
상인들
모던
모인다
모른다
모빌리티
자인
자수
자력
자막
자취
자숙
자메이카
무려
무능
무난
무대로
무전기
무차별
무분별
##무로
##무는
##무선
##무중
##교정
##교과서
해피
해적
해역
해운동
해리스
해역서
해역에
##와도
위주
위크
위작
위에서
위메
대통령실
대통령에게
대통령측
대통령개헌안
발광
##러미
##러브
##차에
##차입
##그라
##그너
##긋불
안나
안마
안면
안긴
안데르
안중근
나르
나게
나에게
나만의
나스닥
스테
스파크
스펙
스피드
##북적
##타나
##타결
##점에서
##여만원
##였나
어리
어업
방망이
방공미사일
방콕
감안
감경
감속
감동의
감도는
감리위
일이
일원
일손
일몰
소명
소망
소련
소홀
소치서
##분투
##분군
##분서주
문인
문구
문단
문책
문병
문승원
문미옥
다해
다하겠다
닫아
다지기
##격히
20승
20억
20만원
20년만에
20년간
2080선
##냈다
굶
구인
구명
구내
구하는
구테
노라
노약
노량
노재욱
##바도르
##바퀴
10원
10번
10분의
만점
세수
세조
세운다
세몰이
세븐
##실패
돋
도마
도모
도청
도매
도핑
도넘
도왔다
도이치
##모자
##모형
##모집
##모터쇼
##깎이
##면서
##설은
예수
예열
옐로
등대
등단
등반
등장에
첫해
첫주
첫걸음
코언
코팅
##입어
##입찰
올드
올린
바리
바자
바보
바디
바늘
바하마
바그너
##배제
##배달
남원
남포
남을
남극
남동부
남탓
남관표
통하는
통할까
통큰
##운행
##운규
##운송
반일
반문
반중
반기는
반칙
반체제
반난민
##독재
##청객
##약처
##크시티
##오제
##오르
##오늘
의안
의욕
의암호
삼아
삼국지
재원
재수
재승
재래
재배
재능
재학생
재신청
재배치
동전
동문
동심
동분서주
피로
피하는
피겨
피닉스
##거점
##거노인
현명한
현수막
##키즈
호전
호세
호감
호기심
##텟
##남자
##울산
##울렛
관통
관용
관저
관철
차주
차차
차익
차은택
##협화
##반만에
##반하장
실바
실급
실직
실구매
성신
성격
성형
성관계
성전환
성직자
성수기
성학대
##디는
##디움
##디부아르
불신
불태
불륜
불구속
불청객
불협화
장치
장타
장점
장난
장대비
장제원
총동
총장에
총사퇴
평범한
##결연
##양우
##양면
##매도
##륭
##륨
##류에
매치
##버전
결실
결빙
회항
회색
##증가
##증진
##증여
##증후군
금광
금액
금요일
금수저
박선
박관
박순
박양우
삼성과
원치
원금
원본
원스토어
원안위
외상
외연
외압
외쳐
##물자
##노미
##노래
교란
교감
lg에
lg의
lg그룹
lg생명과학
진위
진안
sk건설
sk바이오
##작물
##감소
새시대
새크라
##건전성
##코엔
##코비치
##환급
포트
포르도
포항서
포워드
포지션
##후퇴
##강변
민경
##할수록
##할아버지
거제
거북
거울
밴
뱀
배경
배려
배운다
배경은
배넌
##토늄
##토마토
이란전
이란핵
카터
카잔
카운티
카지노
작용
작심
요충
증상
단어
단서
단원
단양
단색
단죄
##직구
서울외
투척
##항모
감독상
감독에게
파스
파고
파벌
파커
##팰리스
그건
그늘
그리는
##군에
청부
청바지
협찬
역설
역부족
##네스티
##박사
##박수
##박종합
로고
로그
로열
로맨
##까지종합
손아
손질
손준호
손바닥
손시헌
트럼프아베
트럼프김정은
초안
초석
초저
초음
초고가
초호화
초판본
##집결
것들
것종합2보
검문
검역
##복원
##복식
당기
당황
당겨
당직자
논산
논설
엡
에그
에너
체인
체불
##품목
폭죽
##준형
##총사
##광민
##질의
##루다
##루스코
##되고
##되네
##되도록
##본사
##본드
##본능
임실
임현수
임병욱
돌발
승무
승차
##즈브러
리틀
리퍼
리쿠
리딩
리사이
리빌딩
리트위
야마
입각
입춘
입김
입건종합
##쟁이
##쟁점
##병동
##병혁의
중국발
중국기업
충실
광기
광안
광폭
현대리바
현대무용
두자리
두렵
두차례
##추구
##추방
##플릿
##플렉스
집배
타다
타선
러시
러닝
생사
생가
생후
생길
속셈
정부혁신
##농구대회
산소
산단
산으로
산케이
##팀과
##팀목
최고기록
월미도
독감
독특
독수리
독거노인
완주
태광
태워
태화강
##근육
규칙
설동호
올해만
앞장서
앞질러
양구
양면
양팀
양극
양궁
양석환
양제츠
행태
판로
판화성서
채비
채태인
##번스
##번영
경기전망
경기회복
##창호
##철회
미국민
미국을
스마트공장
스마트팜
개최종합
적반하장
코스메카
알리는
알루미늄
알가르
지원하는
취해
취한
취미
취할
달리는
세계에서
세계은행
세계유산
2013년
11회
11조
11개월
##히지
법령
법대로
법칙
학자들
패드
핵미사일
핵무장
국민통합
네이처
네이밍
애정
앨범
맞춘
맞서는
맞교환
##씨어터
##더비
민주언론
드디어
드립니다
직영
##온라인
터진
탈피
탈취
환매
환급
##벌레
국내로
국내은행
창어
창과
30개
30만명
저해
저주
저임금
저유가
##회의소
군수
군비
군중
##징후
##극복
##만원부터
본점
운하
최대압박
##예정
##예권
##예측
##를까
심문
##글스
##증권시장
남북협력
남북노동자
남북연락사무소
##츠에
##벳
##베컵
명명
명진
명량
북한서
북한단신
##편성
변종
변형
김정은푸틴
124
123
127
12승
12연승
12시간
12일부터
복리
복병
복근
##탈레반
종사
종식
톰프
토끼
토크쇼
토레스
##목항
물체
물총
물방울
물타기
15만
15점
15연승
15조원
##경기장
라즈베
라니에
라트비아
1004
100호
100점
##초소
눈의
눈노
눈빛
급속
급거
급랭
급상승
부산신
부산소식
부산일보
##족수
##평생
푸드
간격
간사장
터키가
##열어
황주
##페코엔
디오
디비전
디젤
디에이치
휴직
여행자
여행상품
아이가
아이언
아이파크
내년에도
ai서비스
말에
말해
말자
말은
테스
테니스
활로
활력
1위종합
미래의
미래교육
미래전략
##메기
##메인
1천여
##폭행
코로나로
금융중심
경제인
경제활동
경제행보
경제활력
철쭉
133
138
13만
13점
13일부터
13대책
캐세이
##브이
기업지
기업의
기업과
기업가
기업은
기업대출
기업전용
또다른
탄탄
않지만
일본군
투자하는
투자자들
허정
허영
허락
허브
못했다
날에
날릴
날치기
음해
##채무
되겠다
강화해
강화한
홈에서
증가에
증가폭
언론이
언론들
##순환
##순례
연구단
연구산업
연구장비
제주에서
제주소식
치는
치마
치여
치를
치른
국제기구
국제유소년
##불명
국회는
국회가
넘길
넘기고
확대간부
꺾인
찾을
찾을까
순차
순매수
##교육에
살만
살짝
##기술원
##활비
기술적
기술금융
기술사업
기술협력
끝이
끝없는
결정적
결정할
스마트폰에
스마트폰은
외국기업
외국유조선
시작은
시작하는
시작됐다
후보물질
백기
백의
백화원
백원우
공격은
공격용
공격적
막내
막내려
유럽의
유럽행
유럽진출
##례없는
18도
18호
18점
18민주
책과
대한축구협회
점자
항해
있나
있던
상승종합2보
메타
메카
멜라
195
19년
19세
19곳
19일부터
권은희
없어야
합의로
때도
때마다
때이른
내달초
카카오와
카카오내비
502
50분
국가공무원
국가rd
부상에
부상병동
격랑
격동의
추가시간
평양의
평양회담
평양공항
광주형
광주소식
선거전
선거제도
선거개입
선거인단
해외파
해외송금
##스타브
##스타코비치
표어
표출
히스패
함북
강원지역
기자상에
##20대
레일리
레볼루션
##귄
울긋불
하락에
256
25만명
25전쟁
##백제
목표종합
관광업계
16세
이상으로
이상돈
영상으로
롯데면세점
롯데정밀화학
##올스타
사업협력
##살해
##살인
##살바도르
친노
친정부
친인척
버리고
버팀목
송유관
송은범
송광민
할리우드
접대
윤재
윤관석
노동절
노동장관
노동자에
피해자들
여성작가
142
14일까지
약보합
판매금지
여야3당
eu와
##위원장과
폐점
평화체제
제재금
##봉사
우승을
긴박
##달러대
시장에서
시장경제
쿠폰
두산의
뒤흔
뒤샹
뒤덮
낮에
22년
22곳
21개
21점
21일까지
2160선
정상들
과학관
과학계
번복
대구소식
대구교육청
##클라우드
누르고
대화형
대화량
대화공세
17년
17세
17조
17점
17건
17일부터
17일까지
사이에
사이로
사이먼
사이드카
농림
농해수
석촌
기념관
기념사업
정치범
구글에
구글코리아
필요시
지지자들
인사에
인사종합
인천시
인천대
사우디서
##받지
##받았다
##센터에
공동대표
공동개최
실적도
2018서
근현대
이용권
이용마
이용시간
다시보기
삼성전자에
교육정책
24일부터
편하게
장관급
장관후보
의혹은
의혹으로
개인화
문제종합
문제점
외교수장
준비종합
준비해야
겪
검토할
검토해야
40점
40만명
40만대
대응방안
좋지
좋았다
받나
퇴역
경쟁은
##접수
위기종합
위기감
##압력
특별상
특별법
특별장학금
전문성
갈비
##뉴스에
촉구하며
수사에
kbs본부
도입한
도입해야
안전점검
역사와
복귀종합
천국
천병혁의
##정보시스템
뉴로
뉴캐슬
인도양
인터넷에
수상작품
봄철
3년새
귀스타브
잡힌
##슈팅
##슈비츠
대전환
대전교육감
용품
담담
주택가격
주택재개발
요구한
##단체와
##자들에게
맨체스터
##쳐야
몰수
잇는다
출전금지
잠들
찾아가
찾아야
반대파
주식시장
조사결과
조사거부
높다
높이고
아시아선수
선발승
정책조정
정책토론회
26억원
26일부터
26득점
웡
워터
웨인
공연계
문화로
문화계
평창서
##허용
뉴스데스크
##기자상
##기자회
##기자회견
착착
운영자
힘찬
힘겨운
힘입어
한화생명
한화테크
과기혁신
즐기고
불법보조금
불법체류
폭발한
폭발종합
28도
배구대회
지도자들
지도자로
거래대금
거래재개
보도국
보도사진
is조직원
##했더니
사용료
놓지
풀비전
정보당국
발견돼
계속된다
##선수들
숨긴
숨겨진
안보상황
예상밖
혁신기술
혁신도시
혁신방안
이재오
연기에
업무용
업무제휴
##폐기
##폐쇄
울산시장
울산옹
풍력
27일부터
60여명
헤쳐
국방비
이라크로
개선에
선두로
선두경쟁
조선인
조선통신사
조선신보
이통사에
회복한
회복2보
회복1보
수출업체
밤이
밤바다
밤느
밤사이
공공임대
공공임대주택
앱스토어
책임연구원
선언문
고용부
소설로
이라크군
응수
##잡지
식약처
만나보세요
2차전지
카드로
밀집
영입에
영입인사
어떡
아베정권
고객만족도
200일
200명
200여명
힐러리에
늘어난
늘어날
게임으로
싸우는
한반도에
신임장
회동에
참가한
##정책협의회
인권개선
인권법안
해결할
빠뜨리고
사람의
사람에게
스타벅스
슈팅
슈텐츠
경남소식
경남지사
작가가
군사합의
군사충돌
반발로
반발종합2보
헌납
위협종합
서울시와
##빈관
부동산114
원내수석
70일
##굴기
있다종합
있다면
이번에
교체종합
교체할
플래그
신청종합
대한항공에
꿈에
꿈틀
꿈꿔
공식발표
모두에
모두가
모두발언
sns서
폴리
##50선
바뀐
통과종합
낙뢰
정상회담서
잔금
보고하는
뛰던
결승행
왕따
왕치산
5천9
5천3
5천대
돼지고
매출은
광고모델
엄단
김영재
김영권
31로
31명
직원들과
넥센전
넥센은
쇼스타코비치
전시관
혼선
어린이들
은행들
걸고
걸러
맹타
맹추격
케리
재개종합
북핵위기
범인
사진현장
선임에
영국인
세종서
교수팀
분양물량
설치종합
팬들에게
과학기술인
과학기술계
과학기술정책
베네수엘라에
##컬처
요청종합
암초
충돌종합
개시종합
유지종합
가족과
김종대
김종규
밝아
사전계약
사전판매
음악의
음악극
mwc18
망상
구축종합
호주인
호주와
##협상대상
특검법
경영계
경영위기
원내대표와
들끄
주민투표
##업체에
로봇의
취소종합
취소하라
뮤지션
##진흥회
미술사
##관리시스템
몸짓
억울
억새
억압
여름이
여름축제
조기상환
야구부
야구대회
야구세상
뇌관
들어가는
중동에
중동의
프로야구선수
맨유와
법원행정
기부자
보안점검
10월까지
견지
견뎌
시간이
시간을
##노동조합
각자
각의
전달할
kia전
루비오
쓰기
팁
틱
수원과
##협력사
그리다
라이베리아
등교중지
통화스와프
적용종합
32명
##농가
이적생
중앙위
중앙통신
감사패
##줄까
##줄기세포
사퇴해야
체결식
임명동의안
겨울이
겨울바다
제작현장
속도로
속도제한
속도조절
35개
35점
35억원
4천9
4천1
4천6
4천억원
##이슬
수익금
정권수립
고려인
고려항공
청와대서
태풍에
희망의
희망퇴직
갤럭시s8플러스
1명꼴
80명
80억원
80만명
80주년
기회로
문학세계
멀다
##답방
중요종합
3천5
3천명
3천500
지정에
개혁해야
미중갈등
자율성
자율협약
바닷속
협의해
협의종합
500경기
엔화
엔터
수단서
신년회견
포함해야
핵합의서
죽지
죽고
죽인
죽을
웃지
웃은
노조법
반군에
샌더
##도시공사
춘천서
1만4천
좌초
제21
김연아
집단폭행
긴장속
nc다이노
##것도
이승원
기능은
사랑을
최강자
중소벤처
도발에
도발행위
계획에
강조종합
숙청
뜨고
뜨는
한일정상회담
추천하는
추락사
제압하고
설립자
4차전
4차례
36년만의
빈소에
쉼
신용보증
연휴에도
발행액
발행어음
품으로
품새
제15회
제17회
보수적
보수통합
분석한
출판인
출판진흥원장
동반한
달러당
블랙베리
300원
1조1
1조1천
게릿
옥석
옥션
선물세트
실종된
생각한다
##앤이
절반으로
빼앗
빼돌려
휠체
##걸고
사무국
사무총
사무처장
수준종합
제외종합
근로시간
근로감독
미래에셋운용
혜성
혜민
수용시설
르네
소송에
민생행보
설명종합
지도부와
읽은
읽어야
본격화종합
늦깎이
lte폰
어려움
구단들
노력해야
니제르
##문제로
나서야
나서라
투수들의
역할론
##언론사
##언론인
집회종합
대한민국을
대한민국만화
누구도
gs칼텍스에
##연합회장
언급하며
받아들이
받아들여
90년
90분
대형주
공무원노조
신문기자
가동종합
일제가
2연승종합
퍼펙트
아침까지
조치종합
코치에
판문점서
활동가
38년
38노스
덕유산
##펜스
맛있는
북적이는
북적북적
홍보관
태국에
태국서
태양의
멀티뷰
4강행
##시험장
삶이
전기요금
마이크
빛으로
빛나는
음성통화
##전략회의
달성종합
워싱턴서
탐구
이전에
마음대로
청문회법
탈북자
섬진강
완전무제한
fiba
깨달
녹화
녹조
녹소연
사라질
사라졌다
경매에
걷어
별세종합
##대상서
내부통제
진화의
처음부터
전력투구
공시지가
김성현
감염자
3차전서
5개년
유전자가
소개합니다
포기한
포기하지
행정관
싱어
저지하고
3개사
베이브
충격의
젊은이
젊은작가
놀아
구속기
옛동
생활가전
골프장에
골프존
대학생들
아쉽지만
정당화
강남권
불안에
그림책
청주서
권력형
1억건
1억5천만원
남성에
줄었지만
냉각
##시민연합
나빠
원유수입
지구의
전세보증
오리무중
##파크서
채권단
호르무즈서
mbk
샤페코엔
지진에
##공동위
##소득세
셀피
재판에
12월에
헌법위
레이건
전주시
화천토마토
수입차
차관보
청약경쟁률
이승우는
지켰다
김기태
해소에
특수부
특수부대
밝혀라
밝혀질까
3당대표
멈출
셔틀
##렉티브
##렉트릭
##팩스
신세계그룹
끝나나
제품에
염혜선
##경찰청장
우선협상대상
위원들과
판단할
전역에
전역서
조직력
파견검사
창원시
창원성산
휴가에
선수들에게
불발탄
원격교육
에어비앤비
##쇼핑몰
2020년까지
탬파베이는
땅끝
액정
전원회의
모델하우스
소방공무원
재난문자
벨라
16강행
39점
##폴란드
##서울대
국토교통
모색종합
##크스바겐
2018년형
1승1패
5연승으로
융복합
중재외교
야권연대
생존경쟁
개막전에서
개소세
공천관리
스포츠10대
방역지침
소상공인에
임금인상
임금체불
철도노조
지키고
아름답
아름다움
돕지
의료진
폭행한
네덜란드에
ms와
공략종합
인재육성
김광림
고속도
해상자위대
발목잡기
편집국장
폴란드에
시사종합
김재수
구호품
피서는
분리독립
46명
아랍국가
전화통화
가스파리니
상생발전
반환점
##결과에
살아있는
콘퍼런스서
헝가리서
2만4천
##크로스
##전기차
성적은
원주시
그린란드
##보증공사
인종주의
추위에
보낼
자격증
다양성
생명의
생명체
휴전합의
상호변경
열흘만에
열흘짜리
양성평등
하나금융지주
봤다
중대보도
자영업대출
무력시위
관중석
휴식기
격려금
높아져
높아진다
무역전쟁에
아우슈비츠
빙하
빙어축제
오찬회동
소득주도
재활에
동맹국
##되나종합
##엔터테인먼트
국립현대무용단
깊어가는
지휘봉
하이브리
방사청
횡성
횡단
횡포
##추진위원회
속출종합
헌재에
kgp
잉크
##않는
##아트센터
중계권
엘살바도르
라바리니호
넣어
찍는
최우수선수에
시설서
인민군
자본금
해법도
해법은
##르기니
박정훈
고위급대표단
뚫렸다
드러난
묘사
페이퍼스
이하로
가정에
부당징계
부당해고
제정하라
상원의장
바라는
바라보는
당부종합
갤럭시노트7
친박계
쟁점화
400만명
5차핵실험
잊은
지중해서
유리한
모리셔
자체가
자체개발
금호석유
에너지장관
체육회
베를루스코
입법회
입법촉구
끊은
끊임
끊이지
국립현대미술관서
뿌연
자연재해
실전배치
실전투자대회
행보로
강원도민일보
잘못된
6천500
주주배정
추워져
선제공격
나노입
법인세
건축물
죈다
##23일
대타협
밑으로
김민수
안심대출
스캐너
110만명
창출에
심상찮
신한금융그룹
쌓아
보고서에
멋진
챙긴
챙기기
##인증서
화학무기
다이빙
박수현
##토리코
카타르서
덮인
1천500개
답변서
컬러
##잔액
##브리핑
대면조사
얻은
창당대회
정상회의서
볼넷으로
뛰어난
베를린필
벼락
주변국
화물선
인류학
과도정부
부결에
김상균
자문단
무상점검
나오는
북중관계
##책임자
양승태
납치문제
튀니지서
꿇
꾸준
##사령부
유전질환
유가증권시장
제4이통
김용진
궁중
결산배당
박사방
배달의민족
종업원들
정치인생
숙박음식
숙박업소
런던서
술렁
척결
이산상봉
##해양대
기쁨
##고객에
갖는
인파로
무용계
코트디부아르
팝스타
법적대응
흉상
넓혀
넓히는
죽음을
중기중앙회
##연장근로
상상력
참모총장
열풍에
가능한가
대남전단
우루과이전
재발견
불편한
충분한
펼쳐지는
이끈다
지나도
한동민
한동희
유료화
상무부
2030선
호투에도
증인채택
복합점포
케냐서
미술관서
뇌물수수
콜로라도전
듀얼카메라
듀얼스크린
apec
##엑스포
가로채
연습경기서
춤추는
마르크스
일방주의
노란조끼
그만두
에스엔텍
톱10
정규직화
둘러싼
이겨야
지카바이러스
공인인증서
연준의장
오래된
상하이서
자치분권
다녀갔다
매일신문
외화예금
민족주의
파티게임즈
건조주의보
천안함
몰랐다
문화재청
##삼성전자
걷기여행
ess
틀렸다
짓는
짓는다
경상수지
고가주택
고령화
보급률
호위함
훔친
훔치기
저장한도
ibk기업은행에
소말리아서
끌어올
팽목항
한성백제
추억을
##학년도
모의고사
자살폭탄
구제역
##넥센
초반부터
링컨
##플래닛
탑승자
안타까운
남아공서
졌지만
아무것도
국산화
가야금
비자발급
외환거래
초연결
골드만
콘테스트
플레이오프행
1점대
mlcc
wk리그
앉는
정우택
오르나
오르반
코리안심포니
확실시
회고전
민원기
설비투자
국제표준화
##문화재연구소
헬로비전
김영남과
론스타
정유라
정확도
여신심사
##파워텍
안양시
코믹
통계청
반갑습니다
동서고속도로
특정인
초선들
리니지2
양대노총
직권취소
탄소섬유
석달간
민정수석과
t맵x누
턱걸이
##스마트폰
오를까
야외활동
간호사
간호장교
연구소기업
윤덕여호
##특별법
녹색당
무장괴한에
##프레스
지각변동
최적화
경호원
김한길
옆에
조세회피
스토크시티
북극곰
앤디
관람객들
까닭
증강현실로
7차전
렌털
렌터카
쓰러진
펴는
이성열
아주대
개포주공
##만7천
##만6천
##만6천원
고맙다
우산혁명
스파이크
반려견
회생절차
2010년대
금융투자협회장
홈페이지서
차별화된
뻔뻔
##정비사업
지니뮤직
경력단절
오클라호
위장전입
대통령여야대표
낳는
구원투수
코엑스서
교역액
근본적
바이올린
샌디에이고전
1대1
soc
이강인
대외관계
대륙별
오디오북
모자라
자매결연
무덤서
관전포인트
장외투쟁
##씽큐
딥마인드
점심시간
울려퍼
한미훈련에
득표율
몬스터
으뜸
##녹스
대성당
경포해수욕장
경청하는
내셔널축구선수권
강호인
스폰서십
닫힌
통통영상
진심으로
팟캐스트
알레포
애국주의
갤럭시탭s4
##클래식
귀성길
잔액기준
슬라이크
##케이블카
김용균법
카메룬서
탱크맨
유적지서
신분증
최재형
연애의
마시는
김우재
우천취소
상설공연
2050선
구본무
총통선거
외치며
포토라인
집안싸움
생생한
변함없다
캐스팅보트
음란물
뒤늦게
빈곤층
컨테이너선
뛰어넘는
남이섬서
삐걱
흠뻑
이순신
이것이
수은주
김강민
비닐봉
모교에
박경리
폭스뉴스
적정성
젊음
부산항만공사
치명적
치명타
순환출자
메릴린
여야정협의체
석패율
펭귄
국립오페라단
랜드마크
좁혀져
브로커
족쇄
이시구로
대서양
사제폭탄
전초전
유재학
가해자
부가세
조영욱
자폐증
2000년
세비야
동지중해
관망세
당첨자
복잡한
탄자니아서
질서있는
브람스
1조5천억
핑크퐁
##챔피언스리그
##셸
댈러스
시원한
미시령
선선한
하한가
하프타르
서영교
다크호스
다뤄야
실외활동
민선시장
당무위
홍명보
패러다임
황병서
텔레그램
권오준
광주세계수영대회
송희채
인터넷신문위원회
휘말린
해임제청안
쾌청한
##스퀘어에
사회복지공동모금회
lcd
크라우드
흐려져
##게이션
##썰매
##이탈리아
사격훈련
개도국
추종자
조력자
옴부즈
강아지
윗세오름
방탄소년단
문태종
문예지
구석기
총상금
트럼프로
에르난데스
채식주의자
적임자
갤럭시폴드
넘나드는
##블록슛
극심한
플루토늄
2170대
갈림길
##옥수수축제
녹음파일
콜라보
태극전사들
총기난사
그란달
스트라이커
이산화탄소
되살아난
스모그에
어버이연합
깐깐
땡큐
람보르기니
팡파르
##왜곡
##듬는
이화여대
이효희
대유위니아
사바시아
아자르
정해구
인플레
최은영
마곡사
선구자
김유정
김봉길
내세워
하이트진로
서동철
상벌위
나진하산
스포티
소아암
다윈의
도이체방크
바나나
재송신
재해석한
불시착
밸런타인
청계천
에러나도
물적분할
황우석
황태자
텔스타
허물기
델타항공
db금융투자
국무조정실
수석코치에
깎아
윈터미팅
공직선거법
스카이스포츠
멘토링
dgist
kj프리텍
opec
닥터
기독교
기립박수
아포엘
아슬아슬
아부다비
갯벌
미들즈브러
김복동
고군분투
##적격성
오정훈
한국여기자협회
무형문화재
나루히토
어벤져스
세탁기
세리에a
도미니카
##운반선
재검표
실거래가
성소수자
##버넌스
배유나
카운트다운
손쉽게
리턴매치
열심히
학력평가
애경산업
라카제트
푸에르토리코
허사비스
메밀꽃
탄핵소추
개헌발의선
컨트롤타워
내부고발자
크리스마스에
액면분할
시기상조
울주세계산악영화제
뼈아픈
태권도시범단
페르시아만
주터키한국문화원
##마라톤대회
2박3일
4중전
cvid
e편한세상
kpop
stepi
똘똘
쌩쌩
팍팍
##kpmg
이국종
기말고사
사은품
사열하는
아디다스
아토피
아수라장
유격수
화들짝
정청래
인판티노
최용수
최문순
연저점
부다페스트
추승균
마광수
선우예권
##필리핀
내림세
고층빌딩
보헤미안
서별관
해운동맹
위메프
안데르센
나르시
노약자
노량진
실급검
새크라멘
요충지
초음파
리쿠드당
리사이틀
현대리바트
두자릿수
러닝메이트
속셈은
코스메카코리아
알가르베컵
톰프슨
라즈베리
라니에리
디비전시리즈
확대간부회의
기술사업화
멜라니아
히스패닉
울긋불긋
수상작품집
한화테크윈
울산옹기축제
밤늦게
돼지고기
대한민국만화대상
젊은작가상
샤페코엔시
화천토마토축제
스포츠10대뉴스
하이브리드
베를루스코니
t맵x누구
오클라호마시티
옴부즈맨
05
1기
1사
1발
1급
1편
1분만에
2g
2ｍ
2권
2달
2만원
2편
219
2달러
2득점
2일까지
2gb
2연속
2a호
3g
3박
3각
3만원
3세대
3시즌
3타점
3연속
3학년
3쿼터
4k
4g
4기
4당
4점
4분
4법
4호골
48억원
4분의
4파전
5회
5점
5번
5득점
5기가
6기
6전
6억원
6만명
6시간
6득점
61억원
6gb
6천억
600명
600억
6만9천
6인치
7기
7승
7억
7억원
7급
7만명
7득점
77억원
7천만원
7개월만에
7인치
8대
8원
8건
86억원
9k
9점
9배
9건
910
9년만에
93억원
9개월만에
900선
aa
a6
anc
ba
bw
big
b52
b1b
cu
d5
d6
ee
fda
ge
hw
i30
idc
kk
k3
kn
ltv
mec
mts
n번
nfl
o2o
pg
pp
qr
rf
ssd
to
ui
u우리
wc
x4
그루
꿰
꼴
눌
둬
드로
데이트
똥
렉
므
벙
브래
벅스
으ᄅ
젓
쩐
쩔ᄍ
쿨
캄
툭
튄
펀
팜
흐리
흐린
㎝…
##ᆼ의
##ᆼ야
##맘
##멈
##잘
##즈ᄅ
##으러
##훨
##혐
##ᆯ립
##륵
##벡
##베이트
##bn
##b로
##ᆷ니
##ᆷ방망이
##ᆷ네스티
##kg
##kl
##t급
##텨
##늬
##푹
##92
##9대
##9일
##9억
##08
##ᆺ이
##ᆺ날
##꿀
##꺽
##2시
##2회
##2조원
##2천원
##ᆻ어도
##ᆻ거나
##뜩
##뜨려
##mb
##do
##dn
##캉
##쿤
##케시
##켄
##크루
##썬
##쓴다
##쭐
##찜
##49
##4천원
##39
##3만명
##3천원
##3천억
##323
##3호스팩
##1천명
##7개월만에
##700원
##737
##87
##86
##8대
##82억원
##et
##el
##etf
##63
##6개
##6호
##빡
##ㆍ자
##ᆶ어
##ᆶ은
##nq
##이한
##이소
##이적
##이카
##이론
##이네
##이몽
##이주민
##시로
##시보
##시니
##시와
##시중
##시오
##시작
##시리아
##시온
##엣
##에버
##에셋
##에스에
##하스
##하자는
##스처
##스웨
##스팩
##리토
##리언
##리하게
##리포트
##ᅡᆷ뽕
잎
이나
이경
이니
이학
이력
이언
이범
이별
익스
이혜
이륙
이중국
이기고
이니에
이룰
이토록
이택근
##로에
##로는
##로전
##로종합
##로선
##로쇠
##지라
##지분
##지능
##지향
##지검
##지널
##지스터
##지옥
##지켜
##지갑
##기상
##기요
##기며
##기밀
##어리
##어든
##어진다
##었던
##어졌다
##어지나
##서라도
##대기
##대산
##대치
##대관
##대북
##대강
##대축제
##대위원장
##대밭
##해경
##해임
##핸드
##자별
##자찬
##자지라
##의제
##의식
##의석
##의결
##의심
##의장에
##의존
##원자
##원인
##원양
댄
대원
대도
대정
대보
대공
대조
대금
대마
대교
대내
대입
대반
대담
대심
대작
대헤
대혼
##사도
##사무
##도리
##도바
##도박
##주대
##주영
##주석
##주파수
##주나무
##장과
##장한
##장종합
##장에서
##화장
##화는
##화합
##화랑
##화원에
기장
기고
기체
기약
기협
기린
기꺼
##정종합
##정차
##정현
##정복
##다수
##다니
##다음
##국서
##국우
##국립
시리
시국
시승
시무
시거
시공사
시사에
시큰
시멘트
시전집
##고리
##고대
##고요
##고은
##고래
##고등
##고향
##전국
##전술
##전복
##전람회
##상스
##상대
##상담회
##상무기
##가나
##가디
##가폰
##가이드
##종교
##합차
##인턴
##인듯
##보리
##보관
##보러
##보면
##보급
##보육
##보레
##보일러
##보카트
##보리밭
##회선
##회생
주선
주호
주무
주심
주노
주급
주광
주먹
##부스
##부가
##부인
##부심
##부커
##부의장
##부수법안
##구대
##구니
##구장서
##일가
##일출
##일반
##일뿐
지어
지고
지재
지체
지형
지름
지평
지친
지낸
지웠다
##수스
##수대
##수전
##수동
##수신
##수광
##수사에
##수렴
##성고
##성동
##성비
##아레스
##트에
##트의
##트라
##트케
##트공업
##트륨
##제주
##제조
##제점
##제조업
##종합일보
사하
사주
사구
사위
사치
사들
샀다
사설
사거리
삶은
사민당
삽입
##요인
아리
아드
아소
아약
아난
아예
아끼
아무리
##은사
##은성
##은종합
##은숙
전선
전동
전령
전에서
전철
전시장
전대출
한스
한주
한선
한현
한올
한시간
한솥
한트케
##드라
##드러
##드릴
개회
개명
개그
개나리
