{
  "version": "1.0",
  "truncation": {
    "direction": "Right",
    "max_length": 128,
    "strategy": "LongestFirst",
    "stride": 0
  },
  "padding": {
    "strategy": {
      "Fixed": 128
    },
    "direction": "Right",
    "pad_to_multiple_of": null,
    "pad_id": 0,
    "pad_type_id": 0,
    "pad_token": "[PAD]"
  },
  "added_tokens": [
    {
      "id": 0,
      "content": "[PAD]",
      "single_word": false,
      "lstrip": false,
      "rstrip": false,
      "normalized": false,
      "special": true
    },
    {
      "id": 1,
      "content": "[UNK]",
      "single_word": false,
      "lstrip": false,
      "rstrip": false,
      "normalized": false,
      "special": true
    },
    {
      "id": 2,
      "content": "[CLS]",
      "single_word": false,
      "lstrip": false,
      "rstrip": false,
      "normalized": false,
      "special": true
    },
    {
      "id": 3,
      "content": "[SEP]",
      "single_word": false,
      "lstrip": false,
      "rstrip": false,
      "normalized": false,
      "special": true
    },
    {
      "id": 4,
      "content": "[MASK]",
      "single_word": false,
      "lstrip": false,
      "rstrip": false,
      "normalized": false,
      "special": true
    },
    {
      "id": 5,
      "content": "[UNUSED0",
      "single_word": false,
      "lstrip": false,
      "rstrip": false,
      "normalized": false,
      "special": true
    },
    {
      "id": 6,
      "content": "[UNUSED1",
      "single_word": false,
      "lstrip": false,
      "rstrip": false,
      "normalized": false,
      "special": true
    },
    {
      "id": 7,
      "content": "[UNUSED2",
      "single_word": false,
      "lstrip": false,
      "rstrip": false,
      "normalized": false,
      "special": true
    },
    {
      "id": 8,
      "content": "[UNUSED3",
      "single_word": false,
      "lstrip": false,
      "rstrip": false,
      "normalized": false,
      "special": true
    },
    {
      "id": 9,
      "content": "[UNUSED4",
      "single_word": false,
      "lstrip": false,
      "rstrip": false,
      "normalized": false,
      "special": true
    },
    {
      "id": 10,
      "content": "[UNUSED5",
      "single_word": false,
      "lstrip": false,
      "rstrip": false,
      "normalized": false,
      "special": true
    },
    {
      "id": 11,
      "content": "[UNUSED6",
      "single_word": false,
      "lstrip": false,
      "rstrip": false,
      "normalized": false,
      "special": true
    },
    {
      "id": 12,
      "content": "[UNUSED7",
      "single_word": false,
      "lstrip": false,
      "rstrip": false,
      "normalized": false,
      "special": true
    },
    {
      "id": 13,
      "content": "[UNUSED8",
      "single_word": false,
      "lstrip": false,
      "rstrip": false,
      "normalized": false,
      "special": true
    },
    {
      "id": 14,
      "content": "[UNUSED9",
      "single_word": false,
      "lstrip": false,
      "rstrip": false,
      "normalized": false,
      "special": true
    },
    {
      "id": 15,
      "content": "[UNUSED10",
      "single_word": false,
      "lstrip": false,
      "rstrip": false,
      "normalized": false,
      "special": true
    },
    {
      "id": 16,
      "content": "[UNUSED11",
      "single_word": false,
      "lstrip": false,
      "rstrip": false,
      "normalized": false,
      "special": true
    },
    {
      "id": 17,
      "content": "[UNUSED12",
      "single_word": false,
      "lstrip": false,
      "rstrip": false,
      "normalized": false,
      "special": true
    },
    {
      "id": 18,
      "content": "[UNUSED13",
      "single_word": false,
      "lstrip": false,
      "rstrip": false,
      "normalized": false,
      "special": true
    },
    {
      "id": 19,
      "content": "[UNUSED14",
      "single_word": false,
      "lstrip": false,
      "rstrip": false,
      "normalized": false,
      "special": true
    },
    {
      "id": 20,
      "content": "[UNUSED15",
      "single_word": false,
      "lstrip": false,
      "rstrip": false,
      "normalized": false,
      "special": true
    },
    {
      "id": 21,
      "content": "[UNUSED16",
      "single_word": false,
      "lstrip": false,
      "rstrip": false,
      "normalized": false,
      "special": true
    },
    {
      "id": 22,
      "content": "[UNUSED17",
      "single_word": false,
      "lstrip": false,
      "rstrip": false,
      "normalized": false,
      "special": true
    },
    {
      "id": 23,
      "content": "[UNUSED18",
      "single_word": false,
      "lstrip": false,
      "rstrip": false,
      "normalized": false,
      "special": true
    },
    {
      "id": 24,
      "content": "[UNUSED19",
      "single_word": false,
      "lstrip": false,
      "rstrip": false,
      "normalized": false,
      "special": true
    },
    {
      "id": 25,
      "content": "[UNUSED20",
      "single_word": false,
      "lstrip": false,
      "rstrip": false,
      "normalized": false,
      "special": true
    },
    {
      "id": 26,
      "content": "[UNUSED21",
      "single_word": false,
      "lstrip": false,
      "rstrip": false,
      "normalized": false,
      "special": true
    },
    {
      "id": 27,
      "content": "[UNUSED22",
      "single_word": false,
      "lstrip": false,
      "rstrip": false,
      "normalized": false,
      "special": true
    },
    {
      "id": 28,
      "content": "[UNUSED23",
      "single_word": false,
      "lstrip": false,
      "rstrip": false,
      "normalized": false,
      "special": true
    },
    {
      "id": 29,
      "content": "[UNUSED24",
      "single_word": false,
      "lstrip": false,
      "rstrip": false,
      "normalized": false,
      "special": true
    },
    {
      "id": 30,
      "content": "[UNUSED25",
      "single_word": false,
      "lstrip": false,
      "rstrip": false,
      "normalized": false,
      "special": true
    },
    {
      "id": 31,
      "content": "[UNUSED26",
      "single_word": false,
      "lstrip": false,
      "rstrip": false,
      "normalized": false,
      "special": true
    },
    {
      "id": 32,
      "content": "[UNUSED27",
      "single_word": false,
      "lstrip": false,
      "rstrip": false,
      "normalized": false,
      "special": true
    },
    {
      "id": 33,
      "content": "[UNUSED28",
      "single_word": false,
      "lstrip": false,
      "rstrip": false,
      "normalized": false,
      "special": true
    },
    {
      "id": 34,
      "content": "[UNUSED29",
      "single_word": false,
      "lstrip": false,
      "rstrip": false,
      "normalized": false,
      "special": true
    },
    {
      "id": 35,
      "content": "[UNUSED30",
      "single_word": false,
      "lstrip": false,
      "rstrip": false,
      "normalized": false,
      "special": true
    },
    {
      "id": 36,
      "content": "[UNUSED31",
      "single_word": false,
      "lstrip": false,
      "rstrip": false,
      "normalized": false,
      "special": true
    },
    {
      "id": 37,
      "content": "[UNUSED32",
      "single_word": false,
      "lstrip": false,
      "rstrip": false,
      "normalized": false,
      "special": true
    },
    {
      "id": 38,
      "content": "[UNUSED33",
      "single_word": false,
      "lstrip": false,
      "rstrip": false,
      "normalized": false,
      "special": true
    },
    {
      "id": 39,
      "content": "[UNUSED34",
      "single_word": false,
      "lstrip": false,
      "rstrip": false,
      "normalized": false,
      "special": true
    },
    {
      "id": 40,
      "content": "[UNUSED35",
      "single_word": false,
      "lstrip": false,
      "rstrip": false,
      "normalized": false,
      "special": true
    },
    {
      "id": 41,
      "content": "[UNUSED36",
      "single_word": false,
      "lstrip": false,
      "rstrip": false,
      "normalized": false,
      "special": true
    },
    {
      "id": 42,
      "content": "[UNUSED37",
      "single_word": false,
      "lstrip": false,
      "rstrip": false,
      "normalized": false,
      "special": true
    },
    {
      "id": 43,
      "content": "[UNUSED38",
      "single_word": false,
      "lstrip": false,
      "rstrip": false,
      "normalized": false,
      "special": true
    },
    {
      "id": 44,
      "content": "[UNUSED39",
      "single_word": false,
      "lstrip": false,
      "rstrip": false,
      "normalized": false,
      "special": true
    },
    {
      "id": 45,
      "content": "[UNUSED40",
      "single_word": false,
      "lstrip": false,
      "rstrip": false,
      "normalized": false,
      "special": true
    },
    {
      "id": 46,
      "content": "[UNUSED41",
      "single_word": false,
      "lstrip": false,
      "rstrip": false,
      "normalized": false,
      "special": true
    },
    {
      "id": 47,
      "content": "[UNUSED42",
      "single_word": false,
      "lstrip": false,
      "rstrip": false,
      "normalized": false,
      "special": true
    },
    {
      "id": 48,
      "content": "[UNUSED43",
      "single_word": false,
      "lstrip": false,
      "rstrip": false,
      "normalized": false,
      "special": true
    },
    {
      "id": 49,
      "content": "[UNUSED44",
      "single_word": false,
      "lstrip": false,
      "rstrip": false,
      "normalized": false,
      "special": true
    },
    {
      "id": 50,
      "content": "[UNUSED45",
      "single_word": false,
      "lstrip": false,
      "rstrip": false,
      "normalized": false,
      "special": true
    },
    {
      "id": 51,
      "content": "[UNUSED46",
      "single_word": false,
      "lstrip": false,
      "rstrip": false,
      "normalized": false,
      "special": true
    },
    {
      "id": 52,
      "content": "[UNUSED47",
      "single_word": false,
      "lstrip": false,
      "rstrip": false,
      "normalized": false,
      "special": true
    },
    {
      "id": 53,
      "content": "[UNUSED48",
      "single_word": false,
      "lstrip": false,
      "rstrip": false,
      "normalized": false,
      "special": true
    },
    {
      "id": 54,
      "content": "[UNUSED49",
      "single_word": false,
      "lstrip": false,
      "rstrip": false,
      "normalized": false,
      "special": true
    },
    {
      "id": 55,
      "content": "[UNUSED50",
      "single_word": false,
      "lstrip": false,
      "rstrip": false,
      "normalized": false,
      "special": true
    },
    {
      "id": 56,
      "content": "[UNUSED51",
      "single_word": false,
      "lstrip": false,
      "rstrip": false,
      "normalized": false,
      "special": true
    },
    {
      "id": 57,
      "content": "[UNUSED52",
      "single_word": false,
      "lstrip": false,
      "rstrip": false,
      "normalized": false,
      "special": true
    },
    {
      "id": 58,
      "content": "[UNUSED53",
      "single_word": false,
      "lstrip": false,
      "rstrip": false,
      "normalized": false,
      "special": true
    },
    {
      "id": 59,
      "content": "[UNUSED54",
      "single_word": false,
      "lstrip": false,
      "rstrip": false,
      "normalized": false,
      "special": true
    },
    {
      "id": 60,
      "content": "[UNUSED55",
      "single_word": false,
      "lstrip": false,
      "rstrip": false,
      "normalized": false,
      "special": true
    },
    {
      "id": 61,
      "content": "[UNUSED56",
      "single_word": false,
      "lstrip": false,
      "rstrip": false,
      "normalized": false,
      "special": true
    },
    {
      "id": 62,
      "content": "[UNUSED57",
      "single_word": false,
      "lstrip": false,
      "rstrip": false,
      "normalized": false,
      "special": true
    },
    {
      "id": 63,
      "content": "[UNUSED58",
      "single_word": false,
      "lstrip": false,
      "rstrip": false,
      "normalized": false,
      "special": true
    },
    {
      "id": 64,
      "content": "[UNUSED59",
      "single_word": false,
      "lstrip": false,
      "rstrip": false,
      "normalized": false,
      "special": true
    },
    {
      "id": 65,
      "content": "[UNUSED60",
      "single_word": false,
      "lstrip": false,
      "rstrip": false,
      "normalized": false,
      "special": true
    },
    {
      "id": 66,
      "content": "[UNUSED61",
      "single_word": false,
      "lstrip": false,
      "rstrip": false,
      "normalized": false,
      "special": true
    },
    {
      "id": 67,
      "content": "[UNUSED62",
      "single_word": false,
      "lstrip": false,
      "rstrip": false,
      "normalized": false,
      "special": true
    },
    {
      "id": 68,
      "content": "[UNUSED63",
      "single_word": false,
      "lstrip": false,
      "rstrip": false,
      "normalized": false,
      "special": true
    },
    {
      "id": 69,
      "content": "[UNUSED64",
      "single_word": false,
      "lstrip": false,
      "rstrip": false,
      "normalized": false,
      "special": true
    },
    {
      "id": 70,
      "content": "[UNUSED65",
      "single_word": false,
      "lstrip": false,
      "rstrip": false,
      "normalized": false,
      "special": true
    },
    {
      "id": 71,
      "content": "[UNUSED66",
      "single_word": false,
      "lstrip": false,
      "rstrip": false,
      "normalized": false,
      "special": true
    },
    {
      "id": 72,
      "content": "[UNUSED67",
      "single_word": false,
      "lstrip": false,
      "rstrip": false,
      "normalized": false,
      "special": true
    },
    {
      "id": 73,
      "content": "[UNUSED68",
      "single_word": false,
      "lstrip": false,
      "rstrip": false,
      "normalized": false,
      "special": true
    },
    {
      "id": 74,
      "content": "[UNUSED69",
      "single_word": false,
      "lstrip": false,
      "rstrip": false,
      "normalized": false,
      "special": true
    },
    {
      "id": 75,
      "content": "[UNUSED70",
      "single_word": false,
      "lstrip": false,
      "rstrip": false,
      "normalized": false,
      "special": true
    },
    {
      "id": 76,
      "content": "[UNUSED71",
      "single_word": false,
      "lstrip": false,
      "rstrip": false,
      "normalized": false,
      "special": true
    },
    {
      "id": 77,
      "content": "[UNUSED72",
      "single_word": false,
      "lstrip": false,
      "rstrip": false,
      "normalized": false,
      "special": true
    },
    {
      "id": 78,
      "content": "[UNUSED73",
      "single_word": false,
      "lstrip": false,
      "rstrip": false,
      "normalized": false,
      "special": true
    },
    {
      "id": 79,
      "content": "[UNUSED74",
      "single_word": false,
      "lstrip": false,
      "rstrip": false,
      "normalized": false,
      "special": true
    },
    {
      "id": 80,
      "content": "[UNUSED75",
      "single_word": false,
      "lstrip": false,
      "rstrip": false,
      "normalized": false,
      "special": true
    },
    {
      "id": 81,
      "content": "[UNUSED76",
      "single_word": false,
      "lstrip": false,
      "rstrip": false,
      "normalized": false,
      "special": true
    },
    {
      "id": 82,
      "content": "[UNUSED77",
      "single_word": false,
      "lstrip": false,
      "rstrip": false,
      "normalized": false,
      "special": true
    },
    {
      "id": 83,
      "content": "[UNUSED78",
      "single_word": false,
      "lstrip": false,
      "rstrip": false,
      "normalized": false,
      "special": true
    },
    {
      "id": 84,
      "content": "[UNUSED79",
      "single_word": false,
      "lstrip": false,
      "rstrip": false,
      "normalized": false,
      "special": true
    },
    {
      "id": 85,
      "content": "[UNUSED80",
      "single_word": false,
      "lstrip": false,
      "rstrip": false,
      "normalized": false,
      "special": true
    },
    {
      "id": 86,
      "content": "[UNUSED81",
      "single_word": false,
      "lstrip": false,
      "rstrip": false,
      "normalized": false,
      "special": true
    },
    {
      "id": 87,
      "content": "[UNUSED82",
      "single_word": false,
      "lstrip": false,
      "rstrip": false,
      "normalized": false,
      "special": true
    },
    {
      "id": 88,
      "content": "[UNUSED83",
      "single_word": false,
      "lstrip": false,
      "rstrip": false,
      "normalized": false,
      "special": true
    },
    {
      "id": 89,
      "content": "[UNUSED84",
      "single_word": false,
      "lstrip": false,
      "rstrip": false,
      "normalized": false,
      "special": true
    },
    {
      "id": 90,
      "content": "[UNUSED85",
      "single_word": false,
      "lstrip": false,
      "rstrip": false,
      "normalized": false,
      "special": true
    },
    {
      "id": 91,
      "content": "[UNUSED86",
      "single_word": false,
      "lstrip": false,
      "rstrip": false,
      "normalized": false,
      "special": true
    },
    {
      "id": 92,
      "content": "[UNUSED87",
      "single_word": false,
      "lstrip": false,
      "rstrip": false,
      "normalized": false,
      "special": true
    },
    {
      "id": 93,
      "content": "[UNUSED88",
      "single_word": false,
      "lstrip": false,
      "rstrip": false,
      "normalized": false,
      "special": true
    },
    {
      "id": 94,
      "content": "[UNUSED89",
      "single_word": false,
      "lstrip": false,
      "rstrip": false,
      "normalized": false,
      "special": true
    },
    {
      "id": 95,
      "content": "[UNUSED90",
      "single_word": false,
      "lstrip": false,
      "rstrip": false,
      "normalized": false,
      "special": true
    },
    {
      "id": 96,
      "content": "[UNUSED91",
      "single_word": false,
      "lstrip": false,
      "rstrip": false,
      "normalized": false,
      "special": true
    },
    {
      "id": 97,
      "content": "[UNUSED92",
      "single_word": false,
      "lstrip": false,
      "rstrip": false,
      "normalized": false,
      "special": true
    },
    {
      "id": 98,
      "content": "[UNUSED93",
      "single_word": false,
      "lstrip": false,
      "rstrip": false,
      "normalized": false,
      "special": true
    },
    {
      "id": 99,
      "content": "[UNUSED94",
      "single_word": false,
      "lstrip": false,
      "rstrip": false,
      "normalized": false,
      "special": true
    },
    {
      "id": 100,
      "content": "[UNUSED95",
      "single_word": false,
      "lstrip": false,
      "rstrip": false,
      "normalized": false,
      "special": true
    },
    {
      "id": 101,
      "content": "[UNUSED96",
      "single_word": false,
      "lstrip": false,
      "rstrip": false,
      "normalized": false,
      "special": true
    },
    {
      "id": 102,
      "content": "[UNUSED97",
      "single_word": false,
      "lstrip": false,
      "rstrip": false,
      "normalized": false,
      "special": true
    },
    {
      "id": 103,
      "content": "[UNUSED98",
      "single_word": false,
      "lstrip": false,
      "rstrip": false,
      "normalized": false,
      "special": true
    },
    {
      "id": 104,
      "content": "[UNUSED99",
      "single_word": false,
      "lstrip": false,
      "rstrip": false,
      "normalized": false,
      "special": true
    }
  ],
  "normalizer": {
    "type": "BertNormalizer",
    "clean_text": true,
    "handle_chinese_chars": true,
    "strip_accents": null,
    "lowercase": true
  },
  "pre_tokenizer": {
    "type": "Whitespace"
  },
  "post_processor": {
    "type": "TemplateProcessing",
    "single": [
      {
        "SpecialToken": {
          "id": "[CLS]",
          "type_id": 0
        }
      },
      {
        "Sequence": {
          "id": "A",
          "type_id": 0
        }
      },
      {
        "SpecialToken": {
          "id": "[SEP]",
          "type_id": 0
        }
      }
    ],
    "pair": [
      {
        "SpecialToken": {
          "id": "[CLS]",
          "type_id": 0
        }
      },
      {
        "Sequence": {
          "id": "A",
          "type_id": 0
        }
      },
      {
        "SpecialToken": {
          "id": "[SEP]",
          "type_id": 0
        }
      },
      {
        "Sequence": {
          "id": "B",
          "type_id": 1
        }
      },
      {
        "SpecialToken": {
          "id": "[SEP]",
          "type_id": 1
        }
      }
    ],
    "special_tokens": {
      "[CLS]": {
        "id": "[CLS]",
        "ids": [
          2
        ],
        "tokens": [
          "[CLS]"
        ]
      },
      "[MASK]": {
        "id": "[MASK]",
        "ids": [
          4
        ],
        "tokens": [
          "[MASK]"
        ]
      },
      "[PAD]": {
        "id": "[PAD]",
        "ids": [
          0
        ],
        "tokens": [
          "[PAD]"
        ]
      },
      "[SEP]": {
        "id": "[SEP]",
        "ids": [
          3
        ],
        "tokens": [
          "[SEP]"
        ]
      },
      "[UNK]": {
        "id": "[UNK]",
        "ids": [
          1
        ],
        "tokens": [
          "[UNK]"
        ]
      }
    }
  },
  "decoder": {
    "type": "WordPiece",
    "prefix": "##",
    "cleanup": true
  },
  "model": {
    "type": "WordPiece",
    "unk_token": "[UNK]",
    "continuing_subword_prefix": "##",
    "max_input_chars_per_word": 100,
    "vocab": {
      "[PAD]": 0,
      "[UNK]": 1,
      "[CLS]": 2,
      "[SEP]": 3,
      "[MASK]": 4,
      "[UNUSED0": 5,
      "[UNUSED1": 6,
      "[UNUSED2": 7,
      "[UNUSED3": 8,
      "[UNUSED4": 9,
      "[UNUSED5": 10,
      "[UNUSED6": 11,
      "[UNUSED7": 12,
      "[UNUSED8": 13,
      "[UNUSED9": 14,
      "[UNUSED10": 15,
      "[UNUSED11": 16,
      "[UNUSED12": 17,
      "[UNUSED13": 18,
      "[UNUSED14": 19,
      "[UNUSED15": 20,
      "[UNUSED16": 21,
      "[UNUSED17": 22,
      "[UNUSED18": 23,
      "[UNUSED19": 24,
      "[UNUSED20": 25,
      "[UNUSED21": 26,
      "[UNUSED22": 27,
      "[UNUSED23": 28,
      "[UNUSED24": 29,
      "[UNUSED25": 30,
      "[UNUSED26": 31,
      "[UNUSED27": 32,
      "[UNUSED28": 33,
      "[UNUSED29": 34,
      "[UNUSED30": 35,
      "[UNUSED31": 36,
      "[UNUSED32": 37,
      "[UNUSED33": 38,
      "[UNUSED34": 39,
      "[UNUSED35": 40,
      "[UNUSED36": 41,
      "[UNUSED37": 42,
      "[UNUSED38": 43,
      "[UNUSED39": 44,
      "[UNUSED40": 45,
      "[UNUSED41": 46,
      "[UNUSED42": 47,
      "[UNUSED43": 48,
      "[UNUSED44": 49,
      "[UNUSED45": 50,
      "[UNUSED46": 51,
      "[UNUSED47": 52,
      "[UNUSED48": 53,
      "[UNUSED49": 54,
      "[UNUSED50": 55,
      "[UNUSED51": 56,
      "[UNUSED52": 57,
      "[UNUSED53": 58,
      "[UNUSED54": 59,
      "[UNUSED55": 60,
      "[UNUSED56": 61,
      "[UNUSED57": 62,
      "[UNUSED58": 63,
      "[UNUSED59": 64,
      "[UNUSED60": 65,
      "[UNUSED61": 66,
      "[UNUSED62": 67,
      "[UNUSED63": 68,
      "[UNUSED64": 69,
      "[UNUSED65": 70,
      "[UNUSED66": 71,
      "[UNUSED67": 72,
      "[UNUSED68": 73,
      "[UNUSED69": 74,
      "[UNUSED70": 75,
      "[UNUSED71": 76,
      "[UNUSED72": 77,
      "[UNUSED73": 78,
      "[UNUSED74": 79,
      "[UNUSED75": 80,
      "[UNUSED76": 81,
      "[UNUSED77": 82,
      "[UNUSED78": 83,
      "[UNUSED79": 84,
      "[UNUSED80": 85,
      "[UNUSED81": 86,
      "[UNUSED82": 87,
      "[UNUSED83": 88,
      "[UNUSED84": 89,
      "[UNUSED85": 90,
      "[UNUSED86": 91,
      "[UNUSED87": 92,
      "[UNUSED88": 93,
      "[UNUSED89": 94,
      "[UNUSED90": 95,
      "[UNUSED91": 96,
      "[UNUSED92": 97,
      "[UNUSED93": 98,
      "[UNUSED94": 99,
      "[UNUSED95": 100,
      "[UNUSED96": 101,
      "[UNUSED97": 102,
      "[UNUSED98": 103,
      "[UNUSED99": 104,
      "%": 105,
      ".": 106,
      "0": 107,
      "1": 108,
      "2": 109,
      "3": 110,
      "4": 111,
      "5": 112,
      "6": 113,
      "7": 114,
      "8": 115,
      "9": 116,
      "a": 117,
      "b": 118,
      "c": 119,
      "d": 120,
      "e": 121,
      "f": 122,
      "g": 123,
      "h": 124,
      "i": 125,
      "j": 126,
      "k": 127,
      "l": 128,
      "m": 129,
      "n": 130,
      "o": 131,
      "p": 132,
      "q": 133,
      "r": 134,
      "s": 135,
      "t": 136,
      "u": 137,
      "v": 138,
      "w": 139,
      "x": 140,
      "y": 141,
      "z": 142,
      "·": 143,
      "¼": 144,
      "×": 145,
      "α": 146,
      "ᄀ": 147,
      "ᄁ": 148,
      "ᄂ": 149,
      "ᄃ": 150,
      "ᄄ": 151,
      "ᄅ": 152,
      "ᄆ": 153,
      "ᄇ": 154,
      "ᄈ": 155,
      "ᄉ": 156,
      "ᄊ": 157,
      "ᄋ": 158,
      "ᄌ": 159,
      "ᄍ": 160,
      "ᄎ": 161,
      "ᄏ": 162,
      "ᄐ": 163,
      "ᄑ": 164,
      "ᄒ": 165,
      "ᅡ": 166,
      "ᅢ": 167,
      "ᅣ": 168,
      "ᅤ": 169,
      "ᅥ": 170,
      "ᅦ": 171,
      "ᅧ": 172,
      "ᅨ": 173,
      "ᅩ": 174,
      "ᅪ": 175,
      "ᅫ": 176,
      "ᅬ": 177,
      "ᅭ": 178,
      "ᅮ": 179,
      "ᅯ": 180,
      "ᅰ": 181,
      "ᅱ": 182,
      "ᅲ": 183,
      "ᅳ": 184,
      "ᅴ": 185,
      "ᅵ": 186,
      "ᆨ": 187,
      "ᆩ": 188,
      "ᆪ": 189,
      "ᆫ": 190,
      "ᆬ": 191,
      "ᆭ": 192,
      "ᆮ": 193,
      "ᆯ": 194,
      "ᆰ": 195,
      "ᆱ": 196,
      "ᆲ": 197,
      "ᆴ": 198,
      "ᆶ": 199,
      "ᆷ": 200,
      "ᆸ": 201,
      "ᆹ": 202,
      "ᆺ": 203,
      "ᆻ": 204,
      "ᆼ": 205,
      "ᆽ": 206,
      "ᆾ": 207,
      "ᆿ": 208,
      "ᇀ": 209,
      "ᇁ": 210,
      "ᇂ": 211,
      "―": 212,
      "‘": 213,
      "’": 214,
      "…": 215,
      "‧": 216,
      "₂": 217,
      "℃": 218,
      "ℓ": 219,
      "⅓": 220,
      "⅔": 221,
      "ⅱ": 222,
      "ⅲ": 223,
      "ⅳ": 224,
      "↑": 225,
      "→": 226,
      "↓": 227,
      "↔": 228,
      "∙": 229,
      "∼": 230,
      "①": 231,
      "②": 232,
      "③": 233,
      "④": 234,
      "⑤": 235,
      "⑥": 236,
      "⑦": 237,
      "⑨": 238,
      "⑩": 239,
      "⑪": 240,
      "⑫": 241,
      "○": 242,
      "♥": 243,
      "ㄴ": 244,
      "ㆍ": 245,
      "㈜": 246,
      "㎃": 247,
      "㎏": 248,
      "㎒": 249,
      "㎓": 250,
      "㎖": 251,
      "㎛": 252,
      "㎜": 253,
      "㎝": 254,
      "㎞": 255,
      "㎡": 256,
      "㎥": 257,
      "㎾": 258,
      "㏊": 259,
      "丁": 260,
      "七": 261,
      "三": 262,
      "不": 263,
      "中": 264,
      "乙": 265,
      "亞": 266,
      "人": 267,
      "仙": 268,
      "代": 269,
      "令": 270,
      "企": 271,
      "伊": 272,
      "休": 273,
      "佛": 274,
      "來": 275,
      "備": 276,
      "先": 277,
      "內": 278,
      "全": 279,
      "分": 280,
      "前": 281,
      "劉": 282,
      "勝": 283,
      "北": 284,
      "千": 285,
      "協": 286,
      "南": 287,
      "印": 288,
      "反": 289,
      "古": 290,
      "史": 291,
      "告": 292,
      "和": 293,
      "四": 294,
      "在": 295,
      "外": 296,
      "大": 297,
      "女": 298,
      "妻": 299,
      "委": 300,
      "子": 301,
      "孫": 302,
      "安": 303,
      "家": 304,
      "富": 305,
      "寒": 306,
      "對": 307,
      "小": 308,
      "尹": 309,
      "尼": 310,
      "展": 311,
      "山": 312,
      "島": 313,
      "崔": 314,
      "州": 315,
      "巨": 316,
      "市": 317,
      "年": 318,
      "式": 319,
      "弗": 320,
      "强": 321,
      "後": 322,
      "心": 323,
      "情": 324,
      "惡": 325,
      "戰": 326,
      "政": 327,
      "故": 328,
      "敎": 329,
      "文": 330,
      "料": 331,
      "新": 332,
      "族": 333,
      "日": 334,
      "書": 335,
      "曺": 336,
      "最": 337,
      "月": 338,
      "朴": 339,
      "李": 340,
      "株": 341,
      "核": 342,
      "案": 343,
      "樂": 344,
      "機": 345,
      "檢": 346,
      "比": 347,
      "氣": 348,
      "氷": 349,
      "江": 350,
      "法": 351,
      "洪": 352,
      "海": 353,
      "港": 354,
      "湖": 355,
      "潘": 356,
      "無": 357,
      "煎": 358,
      "燈": 359,
      "父": 360,
      "狼": 361,
      "獨": 362,
      "王": 363,
      "現": 364,
      "生": 365,
      "申": 366,
      "男": 367,
      "發": 368,
      "百": 369,
      "盧": 370,
      "眞": 371,
      "知": 372,
      "破": 373,
      "硏": 374,
      "社": 375,
      "神": 376,
      "禹": 377,
      "私": 378,
      "秋": 379,
      "稅": 380,
      "空": 381,
      "童": 382,
      "約": 383,
      "羅": 384,
      "美": 385,
      "者": 386,
      "脫": 387,
      "臺": 388,
      "與": 389,
      "舊": 390,
      "色": 391,
      "花": 392,
      "英": 393,
      "茶": 394,
      "萬": 395,
      "蘭": 396,
      "號": 397,
      "行": 398,
      "西": 399,
      "親": 400,
      "詩": 401,
      "誌": 402,
      "說": 403,
      "論": 404,
      "證": 405,
      "警": 406,
      "賞": 407,
      "超": 408,
      "趙": 409,
      "車": 410,
      "軍": 411,
      "通": 412,
      "道": 413,
      "選": 414,
      "邪": 415,
      "鄭": 416,
      "酒": 417,
      "醫": 418,
      "里": 419,
      "重": 420,
      "野": 421,
      "金": 422,
      "銀": 423,
      "銅": 424,
      "阿": 425,
      "院": 426,
      "靑": 427,
      "非": 428,
      "韓": 429,
      "風": 430,
      "香": 431,
      "駐": 432,
      "體": 433,
      "高": 434,
      "魚": 435,
      "黃": 436,
      "黨": 437,
      "％": 438,
      "＆": 439,
      "＋": 440,
      "＞": 441,
      "？": 442,
      "ｇ": 443,
      "ｍ": 444,
      "##ᅩ": 445,
      "##ᆼ": 446,
      "##ᄆ": 447,
      "##ᄌ": 448,
      "##ᅥ": 449,
      "##ᆫ": 450,
      "##ᄋ": 451,
      "##ᅦ": 452,
      "##ᅢ": 453,
      "##ᄒ": 454,
      "##ᄎ": 455,
      "##ᅡ": 456,
      "##ᆯ": 457,
      "##ᅲ": 458,
      "##ᄀ": 459,
      "##ᅧ": 460,
      "##ᆸ": 461,
      "##ᅪ": 462,
      "##ᄅ": 463,
      "##ᅵ": 464,
      "##ᅴ": 465,
      "##ᄉ": 466,
      "##ᆨ": 467,
      "##ᄇ": 468,
      "##ᅱ": 469,
      "##ᅮ": 470,
      "##ᆽ": 471,
      "##ᅳ": 472,
      "##b": 473,
      "##o": 474,
      "##ᄃ": 475,
      "##ᅭ": 476,
      "##ᆷ": 477,
      "##ᅬ": 478,
      "##s": 479,
      "##k": 480,
      "##t": 481,
      "##ᅯ": 482,
      "##ᄐ": 483,
      "##ᄂ": 484,
      "##ᄑ": 485,
      "##9": 486,
      "##0": 487,
      "##ᆺ": 488,
      "##ᄁ": 489,
      "##2": 490,
      "##ᆻ": 491,
      "##ᄄ": 492,
      "##v": 493,
      "##m": 494,
      "##d": 495,
      "##ᄏ": 496,
      "##5": 497,
      "##c": 498,
      "##ᅣ": 499,
      "##ᅨ": 500,
      "##ᄊ": 501,
      "##ᇂ": 502,
      "##ᅫ": 503,
      "##ᄍ": 504,
      "##4": 505,
      "##3": 506,
      "##1": 507,
      "##7": 508,
      "##8": 509,
      "##ᆹ": 510,
      "##e": 511,
      "##f": 512,
      "##a": 513,
      "##ᆭ": 514,
      "##6": 515,
      "##ᆱ": 516,
      "##ᅰ": 517,
      "##g": 518,
      "##u": 519,
      "##ᆮ": 520,
      "##ᇀ": 521,
      "##ᄈ": 522,
      "##.": 523,
      "##l": 524,
      "##p": 525,
      "##j": 526,
      "##r": 527,
      "##ᆾ": 528,
      "##ᇁ": 529,
      "##i": 530,
      "##ᆰ": 531,
      "##ᆩ": 532,
      "##ㆍ": 533,
      "##ᆶ": 534,
      "##h": 535,
      "##…": 536,
      "##w": 537,
      "##n": 538,
      "##x": 539,
      "##ｍ": 540,
      "##ᆲ": 541,
      "##z": 542,
      "##q": 543,
      "##ᆿ": 544,
      "##ᆪ": 545,
      "##·": 546,
      "##y": 547,
      "##ｇ": 548,
      "##ᅤ": 549,
      "##ᆬ": 550,
      "##→": 551,
      "##⅓": 552,
      "##ᆴ": 553,
      "##ㄴ": 554,
      "##↑": 555,
      "##∼": 556,
      "##α": 557,
      "##○": 558,
      "##ℓ": 559,
      "##⅔": 560,
      "##↓": 561,
      "##ⅳ": 562,
      "##ᅡᆫ": 563,
      "##ᅡᆼ": 564,
      "##ᅩᆼ": 565,
      "##ᅥᆫ": 566,
      "##ᅵᆫ": 567,
      "##ᅧᆼ": 568,
      "##이": 569,
      "##ᅥᆼ": 570,
      "##ᅧᆫ": 571,
      "##ᅮᆨ": 572,
      "##ᅳᆫ": 573,
      "##ᅡᆯ": 574,
      "##시": 575,
      "##ᅮᆫ": 576,
      "##에": 577,
      "##하": 578,
      "##ᅯᆫ": 579,
      "##스": 580,
      "##ᅮᆯ": 581,
      "##리": 582,
      "##ᅡᆷ": 583,
      "이": 584,
      "##로": 585,
      "##지": 586,
      "##기": 587,
      "##ᅩᆨ": 588,
      "##어": 589,
      "##서": 590,
      "##ᅡᆨ": 591,
      "##ᅳᆯ": 592,
      "##대": 593,
      "##해": 594,
      "##자": 595,
      "##의": 596,
      "##원": 597,
      "대": 598,
      "##사": 599,
      "##ᅳᆼ": 600,
      "##도": 601,
      "##주": 602,
      "##ᅥᆷ": 603,
      "##장": 604,
      "##ᅧᆨ": 605,
      "##화": 606,
      "##ᅩᆫ": 607,
      "기": 608,
      "##정": 609,
      "##다": 610,
      "##국": 611,
      "시": 612,
      "##고": 613,
      "##는": 614,
      "##과": 615,
      "##전": 616,
      "##상": 617,
      "##가": 618,
      "##종": 619,
      "##합": 620,
      "##인": 621,
      "##보": 622,
      "##회": 623,
      "주": 624,
      "##ᅳᆷ": 625,
      "##부": 626,
      "##구": 627,
      "##일": 628,
      "지": 629,
      "##수": 630,
      "##한": 631,
      "##성": 632,
      "##아": 633,
      "##트": 634,
      "##ᅢᆨ": 635,
      "##야": 636,
      "##제": 637,
      "##종합": 638,
      "사": 639,
      "##요": 640,
      "아": 641,
      "##은": 642,
      "전": 643,
      "한": 644,
      "##ᅧᆯ": 645,
      "##ᅥᆯ": 646,
      "##ᅩᆯ": 647,
      "##ᅥᆨ": 648,
      "##드": 649,
      "##ᅢᆼ": 650,
      "개": 651,
      "##위": 652,
      "##라": 653,
      "##년": 654,
      "##ᅥᆸ": 655,
      "##명": 656,
      "##유": 657,
      "공": 658,
      "##통": 659,
      "##진": 660,
      "##선": 661,
      "##세": 662,
      "##업": 663,
      "##만": 664,
      "유": 665,
      "국": 666,
      "화": 667,
      "수": 668,
      "정": 669,
      "신": 670,
      "##동": 671,
      "##산": 672,
      "##비": 673,
      "가": 674,
      "인": 675,
      "##ᅦ이": 676,
      "##ᅳ로": 677,
      "##ᅳᄅ": 678,
      "##나": 679,
      "##행": 680,
      "과": 681,
      "##공": 682,
      "##소": 683,
      "최": 684,
      "미": 685,
      "##용": 686,
      "연": 687,
      "##간": 688,
      "##치": 689,
      "##조": 690,
      "경": 691,
      "##개": 692,
      "중": 693,
      "부": 694,
      "##천": 695,
      "##민": 696,
      "##령": 697,
      "##단": 698,
      "추": 699,
      "마": 700,
      "제": 701,
      "##ᅥᆺ": 702,
      "##연": 703,
      "선": 704,
      "##피": 705,
      "##관": 706,
      "김": 707,
      "##안": 708,
      "##ᅯᆯ": 709,
      "##문": 710,
      "출": 711,
      "##재": 712,
      "##ᅳᆨ": 713,
      "##권": 714,
      "##계": 715,
      "여": 716,
      "##터": 717,
      "비": 718,
      "##표": 719,
      "내": 720,
      "##승": 721,
      "##발": 722,
      "##우": 723,
      "##신": 724,
      "##금": 725,
      "조": 726,
      "하": 727,
      "##ᅧᆸ": 728,
      "고": 729,
      "##미": 730,
      "##당": 731,
      "##호": 732,
      "##경": 733,
      "##적": 734,
      "보": 735,
      "##영": 736,
      "##들": 737,
      "우": 738,
      "오": 739,
      "##마": 740,
      "강": 741,
      "##통령": 742,
      "서": 743,
      "##니": 744,
      "영": 745,
      "##체": 746,
      "##프": 747,
      "##판": 748,
      "##ᅣᆼ": 749,
      "##파": 750,
      "##학": 751,
      "##식": 752,
      "한국": 753,
      "##란": 754,
      "##력": 755,
      "상": 756,
      "모": 757,
      "자": 758,
      "무": 759,
      "##억": 760,
      "##무": 761,
      "##출": 762,
      "##방": 763,
      "##교": 764,
      "해": 765,
      "##와": 766,
      "위": 767,
      "대통령": 768,
      "##래": 769,
      "##월": 770,
      "발": 771,
      "##러": 772,
      "##차": 773,
      "##그": 774,
      "안": 775,
      "나": 776,
      "스": 777,
      "##북": 778,
      "##속": 779,
      "##타": 780,
      "##티": 781,
      "##점": 782,
      "##여": 783,
      "어": 784,
      "방": 785,
      "감": 786,
      "##으로": 787,
      "일": 788,
      "소": 789,
      "##분": 790,
      "##중": 791,
      "문": 792,
      "다": 793,
      "##격": 794,
      "20": 795,
      "##내": 796,
      "구": 797,
      "##ᆻ다": 798,
      "##르": 799,
      "노": 800,
      "##바": 801,
      "10": 802,
      "##려": 803,
      "##포": 804,
      "##생": 805,
      "만": 806,
      "세": 807,
      "##실": 808,
      "도": 809,
      "##모": 810,
      "##까": 811,
      "##면": 812,
      "##설": 813,
      "예": 814,
      "등": 815,
      "첫": 816,
      "코": 817,
      "##입": 818,
      "올": 819,
      "바": 820,
      "##배": 821,
      "남": 822,
      "통": 823,
      "##운": 824,
      "##달": 825,
      "반": 826,
      "##을": 827,
      "##독": 828,
      "##역": 829,
      "##석": 830,
      "##청": 831,
      "##약": 832,
      "##크": 833,
      "##오": 834,
      "##하는": 835,
      "##임": 836,
      "의": 837,
      "삼": 838,
      "재": 839,
      "동": 840,
      "피": 841,
      "##거": 842,
      "##현": 843,
      "현": 844,
      "##키": 845,
      "호": 846,
      "##테": 847,
      "##카": 848,
      "##남": 849,
      "##울": 850,
      "##..": 851,
      "##게": 852,
      "##술": 853,
      "관": 854,
      "차": 855,
      "##협": 856,
      "##투": 857,
      "##반": 858,
      "##담": 859,
      "##법": 860,
      "실": 861,
      "성": 862,
      "북": 863,
      "확": 864,
      "##푸": 865,
      "##망": 866,
      "...": 867,
      "##디": 868,
      "불": 869,
      "장": 870,
      "총": 871,
      "평": 872,
      "##억원": 873,
      "##결": 874,
      "##축": 875,
      "##양": 876,
      "##매": 877,
      "##능": 878,
      "##류": 879,
      "매": 880,
      "##버": 881,
      "결": 882,
      "회": 883,
      "##증": 884,
      "금": 885,
      "##론": 886,
      "박": 887,
      "삼성": 888,
      "##ᅦ시": 889,
      "원": 890,
      "##심": 891,
      "외": 892,
      "##물": 893,
      "##노": 894,
      "교": 895,
      "lg": 896,
      "##ᅦᆫ": 897,
      "진": 898,
      "sk": 899,
      "##작": 900,
      "##감": 901,
      "새": 902,
      "##규": 903,
      "##건": 904,
      "후": 905,
      "##코": 906,
      "특": 907,
      "##환": 908,
      "포": 909,
      "##두": 910,
      "##료": 911,
      "##ᆯᄅ": 912,
      "##후": 913,
      "##급": 914,
      "##강": 915,
      "민": 916,
      "##저": 917,
      "##형": 918,
      "##폰": 919,
      "##할": 920,
      "와": 921,
      "거": 922,
      "배": 923,
      "##태": 924,
      "트ᄅ": 925,
      "##토": 926,
      "이란": 927,
      "##험": 928,
      "카": 929,
      "작": 930,
      "요": 931,
      "증": 932,
      "##픽": 933,
      "게시": 934,
      "단": 935,
      "##에서": 936,
      "게시판": 937,
      "##직": 938,
      "kt": 939,
      "서울": 940,
      "출시": 941,
      "프로": 942,
      "투": 943,
      "##항": 944,
      "감독": 945,
      "파": 946,
      "##패": 947,
      "##ᅥᆷ프": 948,
      "그": 949,
      "##림": 950,
      "##군": 951,
      "청": 952,
      "협": 953,
      "역": 954,
      "##네": 955,
      "없": 956,
      "##리아": 957,
      "##언": 958,
      "##박": 959,
      "더": 960,
      "##책": 961,
      "로": 962,
      "##까지": 963,
      "손": 964,
      "트럼프": 965,
      "초": 966,
      "##익": 967,
      "##립": 968,
      "##집": 969,
      "것": 970,
      "##송": 971,
      "참": 972,
      "검": 973,
      "##복": 974,
      "당": 975,
      "논": 976,
      "에": 977,
      "신간": 978,
      "##난": 979,
      "체": 980,
      "##품": 981,
      "##린": 982,
      "##00": 983,
      "폭": 984,
      "##준": 985,
      "##총": 986,
      "##락": 987,
      "##광": 988,
      "분": 989,
      "##말": 990,
      "##막": 991,
      "##질": 992,
      "##루": 993,
      "##데": 994,
      "##되": 995,
      "##ᅩᆼ구": 996,
      "홍": 997,
      "베": 998,
      "##본": 999,
      "임": 1000,
      "##부터": 1001,
      "##율": 1002,
      "계": 1003,
      "##외": 1004,
      "돌": 1005,
      "##ᅳ래": 1006,
      "승": 1007,
      "##즈": 1008,
      "##찰": 1009,
      "##택": 1010,
      "리": 1011,
      "야": 1012,
      "##육": 1013,
      "##융": 1014,
      "입": 1015,
      "##2보": 1016,
      "##ᅵᆷ": 1017,
      "합": 1018,
      "##쟁": 1019,
      "##등": 1020,
      "##병": 1021,
      "##음": 1022,
      "중국": 1023,
      "##워": 1024,
      "##해야": 1025,
      "충": 1026,
      "##분기": 1027,
      "광": 1028,
      "현대": 1029,
      "두": 1030,
      "축": 1031,
      "##각": 1032,
      "##추": 1033,
      "##은행": 1034,
      "##플": 1035,
      "열": 1036,
      "##컵": 1037,
      "##마트": 1038,
      "##엔": 1039,
      "집": 1040,
      "##최": 1041,
      "5g": 1042,
      "타": 1043,
      "##스트": 1044,
      "##련": 1045,
      "##ᅦᆨ": 1046,
      "##시아": 1047,
      "##범": 1048,
      "러": 1049,
      "생": 1050,
      "속": 1051,
      "정부": 1052,
      "##농구": 1053,
      "##비스": 1054,
      "산": 1055,
      "대표": 1056,
      "##팀": 1057,
      "##째": 1058,
      "##ᅧᆷ": 1059,
      "최고": 1060,
      "월": 1061,
      "독": 1062,
      "완": 1063,
      "kb": 1064,
      "태": 1065,
      "##근": 1066,
      "규": 1067,
      "설": 1068,
      "올해": 1069,
      "앞": 1070,
      "##견": 1071,
      "양": 1072,
      "행": 1073,
      "##ᅦ임": 1074,
      "판": 1075,
      "채": 1076,
      "##번": 1077,
      "언": 1078,
      "경기": 1079,
      "개발": 1080,
      "##창": 1081,
      "##철": 1082,
      "##종합2보": 1083,
      "미국": 1084,
      "스마트": 1085,
      "개최": 1086,
      "적": 1087,
      "##록": 1088,
      "##향": 1089,
      "코스": 1090,
      "##회담": 1091,
      "김정": 1092,
      "알": 1093,
      "지원": 1094,
      "취": 1095,
      "##처": 1096,
      "가능": 1097,
      "달": 1098,
      "##별": 1099,
      "##전자": 1100,
      "세계": 1101,
      "##날": 1102,
      "201": 1103,
      "11": 1104,
      "##히": 1105,
      "법": 1106,
      "##객": 1107,
      "학": 1108,
      "패": 1109,
      "영업": 1110,
      "핵": 1111,
      "##탄": 1112,
      "국민": 1113,
      "네이": 1114,
      "애": 1115,
      "맞": 1116,
      "##위원": 1117,
      "공개": 1118,
      "##씨": 1119,
      "##애": 1120,
      "##더": 1121,
      "민주": 1122,
      "드": 1123,
      "직": 1124,
      "##레": 1125,
      "##온": 1126,
      "만에": 1127,
      "작년": 1128,
      "터": 1129,
      "탈": 1130,
      "##악": 1131,
      "##ᅲ스": 1132,
      "환": 1133,
      "건": 1134,
      "##벌": 1135,
      "목": 1136,
      "사망": 1137,
      "##드컵": 1138,
      "국내": 1139,
      "창": 1140,
      "30": 1141,
      "저": 1142,
      "##회의": 1143,
      "군": 1144,
      "##로나": 1145,
      "##흥": 1146,
      "##징": 1147,
      "##극": 1148,
      "##만원": 1149,
      "본": 1150,
      "##검": 1151,
      "##람": 1152,
      "류": 1153,
      "운": 1154,
      "그래": 1155,
      "##ᆯ리": 1156,
      "##즌": 1157,
      "최대": 1158,
      "##예": 1159,
      "##져": 1160,
      "우리": 1161,
      "##를": 1162,
      "심": 1163,
      "##글": 1164,
      "##증권": 1165,
      "남북": 1166,
      "##츠": 1167,
      "##베": 1168,
      "##든": 1169,
      "명": 1170,
      "북한": 1171,
      "여자": 1172,
      "##편": 1173,
      "##럽": 1174,
      "##길": 1175,
      "변": 1176,
      "##런": 1177,
      "##량": 1178,
      "김정은": 1179,
      "##른": 1180,
      "12": 1181,
      "복": 1182,
      "##탈": 1183,
      "종": 1184,
      "토": 1185,
      "##목": 1186,
      "##대표": 1187,
      "전국": 1188,
      "물": 1189,
      "네이버": 1190,
      "15": 1191,
      "##경기": 1192,
      "##현진": 1193,
      "라": 1194,
      "##핵": 1195,
      "##센": 1196,
      "100": 1197,
      "##희": 1198,
      "##늘": 1199,
      "##상회담": 1200,
      "류현진": 1201,
      "##만에": 1202,
      "##름": 1203,
      "갤ᄅ": 1204,
      "##리그": 1205,
      "##ᆫ드": 1206,
      "##초": 1207,
      "##케": 1208,
      "눈": 1209,
      "##배구": 1210,
      "급": 1211,
      "##ᅥᆨ시": 1212,
      "개막": 1213,
      "부산": 1214,
      "그래픽": 1215,
      "##시장": 1216,
      "##엘": 1217,
      "갤럭시": 1218,
      "##족": 1219,
      "##웨": 1220,
      "##평": 1221,
      "푸": 1222,
      "##주의": 1223,
      "간": 1224,
      "##림픽": 1225,
      "터키": 1226,
      "##열": 1227,
      "##색": 1228,
      "##ᅳ리": 1229,
      "##혁": 1230,
      "황": 1231,
      "월드컵": 1232,
      "##응": 1233,
      "내일": 1234,
      "##돌": 1235,
      "##풍": 1236,
      "##훈": 1237,
      "##페": 1238,
      "추진": 1239,
      "디": 1240,
      "휴": 1241,
      "여행": 1242,
      "끄": 1243,
      "##절": 1244,
      "아이": 1245,
      "내년": 1246,
      "ai": 1247,
      "말": 1248,
      "##찬": 1249,
      "##곳": 1250,
      "테": 1251,
      "활": 1252,
      "1위": 1253,
      "##콩": 1254,
      "미래": 1255,
      "##메": 1256,
      "1천": 1257,
      "##폭": 1258,
      "##득": 1259,
      "##투자": 1260,
      "##보다": 1261,
      "방문": 1262,
      "##대회": 1263,
      "코로나": 1264,
      "금융": 1265,
      "##에도": 1266,
      "경제": 1267,
      "철": 1268,
      "##골": 1269,
      "13": 1270,
      "캐": 1271,
      "##브": 1272,
      "기업": 1273,
      "꺼": 1274,
      "또": 1275,
      "탄": 1276,
      "총리": 1277,
      "skt": 1278,
      "않": 1279,
      "일본": 1280,
      "##연승": 1281,
      "##lb": 1282,
      "투자": 1283,
      "허": 1284,
      "##턴": 1285,
      "못": 1286,
      "날": 1287,
      "연속": 1288,
      "##ᆯ러": 1289,
      "음": 1290,
      "##채": 1291,
      "되": 1292,
      "시즌": 1293,
      "서비스": 1294,
      "강화": 1295,
      "홈": 1296,
      "증가": 1297,
      "언론": 1298,
      "온": 1299,
      "##순": 1300,
      "##된": 1301,
      "연구": 1302,
      "제주": 1303,
      "논란": 1304,
      "치": 1305,
      "##게임": 1306,
      "압": 1307,
      "국제": 1308,
      "##불": 1309,
      "국회": 1310,
      "코스피": 1311,
      "넘": 1312,
      "확대": 1313,
      "꺾": 1314,
      "mlb": 1315,
      "필": 1316,
      "찾": 1317,
      "##19": 1318,
      "##블": 1319,
      "##지만": 1320,
      "선수": 1321,
      "순": 1322,
      "##션": 1323,
      "##교육": 1324,
      "난": 1325,
      "살": 1326,
      "업": 1327,
      "준": 1328,
      "##핑": 1329,
      "##틀": 1330,
      "##퍼": 1331,
      "아시": 1332,
      "##기업": 1333,
      "시리아": 1334,
      "홍콩": 1335,
      "##기술": 1336,
      "골": 1337,
      "##활": 1338,
      "기술": 1339,
      "오늘": 1340,
      "##념": 1341,
      "듯": 1342,
      "##돼": 1343,
      "##넷": 1344,
      "끝": 1345,
      "러시아": 1346,
      "결정": 1347,
      "##ᅦᆨ시": 1348,
      "##카오": 1349,
      "아시안": 1350,
      "##너": 1351,
      "##황": 1352,
      "스마트폰": 1353,
      "##퇴": 1354,
      "외국": 1355,
      "##습": 1356,
      "기대": 1357,
      "시작": 1358,
      "후보": 1359,
      "백": 1360,
      "##커": 1361,
      "공격": 1362,
      "극": 1363,
      "주말": 1364,
      "가능성": 1365,
      "막": 1366,
      "논의": 1367,
      "유럽": 1368,
      "##공사": 1369,
      "##례": 1370,
      "갤": 1371,
      "18": 1372,
      "줄": 1373,
      "책": 1374,
      "##혹": 1375,
      "##던": 1376,
      "꺾고": 1377,
      "##캐": 1378,
      "대한": 1379,
      "점": 1380,
      "항": 1381,
      "##률": 1382,
      "있": 1383,
      "상승": 1384,
      "메": 1385,
      "##랑": 1386,
      "##ᆨ스": 1387,
      "프로농구": 1388,
      "돌파": 1389,
      "축구": 1390,
      "19": 1391,
      "권": 1392,
      "##장에": 1393,
      "발표": 1394,
      "없어": 1395,
      "합의": 1396,
      "때": 1397,
      "이스": 1398,
      "내달": 1399,
      "##축제": 1400,
      "카카오": 1401,
      "클": 1402,
      "##변": 1403,
      "##냐": 1404,
      "50": 1405,
      "##정상회담": 1406,
      "처": 1407,
      "국가": 1408,
      "부상": 1409,
      "##균": 1410,
      "격": 1411,
      "추가": 1412,
      "네": 1413,
      "##움": 1414,
      "평양": 1415,
      "특징": 1416,
      "광주": 1417,
      "##한다": 1418,
      "##만명": 1419,
      "승리": 1420,
      "시위": 1421,
      "선거": 1422,
      "해외": 1423,
      "##스타": 1424,
      "##ᅳᆯ어": 1425,
      "표": 1426,
      "히": 1427,
      "함": 1428,
      "##겨": 1429,
      "강원": 1430,
      "##협회": 1431,
      "영업익": 1432,
      "기자": 1433,
      "특징주": 1434,
      "##착": 1435,
      "##겠다": 1436,
      "코로나19": 1437,
      "##20": 1438,
      "인터": 1439,
      "촉": 1440,
      "레": 1441,
      "##지원": 1442,
      "##닝": 1443,
      "##손": 1444,
      "##염": 1445,
      "##귀": 1446,
      "##레이": 1447,
      "##없": 1448,
      "##개월": 1449,
      "##흥민": 1450,
      "울": 1451,
      "##ᆺ데": 1452,
      "하락": 1453,
      "손흥민": 1454,
      "25": 1455,
      "##백": 1456,
      "목표": 1457,
      "##주년": 1458,
      "관광": 1459,
      "16": 1460,
      "이상": 1461,
      "##금융": 1462,
      "절": 1463,
      "커": 1464,
      "플": 1465,
      "아시안게임": 1466,
      "##께": 1467,
      "영상": 1468,
      "롯데": 1469,
      "은": 1470,
      "##올": 1471,
      "사업": 1472,
      "##ᅳ루": 1473,
      "##살": 1474,
      "##존": 1475,
      "우려": 1476,
      "##세요": 1477,
      "친": 1478,
      "##먼": 1479,
      "버": 1480,
      "##축구": 1481,
      "송": 1482,
      "할": 1483,
      "##라인": 1484,
      "##랜드": 1485,
      "접": 1486,
      "프ᄅ": 1487,
      "##헌": 1488,
      "윤": 1489,
      "노동": 1490,
      "악": 1491,
      "피해": 1492,
      "##ᆯ레": 1493,
      "##ba": 1494,
      "##하고": 1495,
      "여성": 1496,
      "규모": 1497,
      "##랴": 1498,
      "전망": 1499,
      "14": 1500,
      "약": 1501,
      "판매": 1502,
      "##시간": 1503,
      "##침": 1504,
      "협력": 1505,
      "사우": 1506,
      "##라엘": 1507,
      "감소": 1508,
      "여야": 1509,
      "eu": 1510,
      "##함": 1511,
      "##위원장": 1512,
      "폐": 1513,
      "평화": 1514,
      "##략": 1515,
      "##액": 1516,
      "##사업": 1517,
      "제재": 1518,
      "키": 1519,
      "##ᅩᆾ": 1520,
      "##봉": 1521,
      "선정": 1522,
      "##사일": 1523,
      "우승": 1524,
      "긴": 1525,
      "##달러": 1526,
      "##에게": 1527,
      "시장": 1528,
      "많": 1529,
      "쿠": 1530,
      "경찰": 1531,
      "##파트": 1532,
      "두산": 1533,
      "뒤": 1534,
      "##는다": 1535,
      "vs": 1536,
      "낮": 1537,
      "이스라엘": 1538,
      "22": 1539,
      "21": 1540,
      "##쇼": 1541,
      "정상": 1542,
      "과학": 1543,
      "##반기": 1544,
      "번": 1545,
      "대구": 1546,
      "##새": 1547,
      "통신": 1548,
      "콘": 1549,
      "##자리": 1550,
      "대선": 1551,
      "하나": 1552,
      "홈런": 1553,
      "##럼": 1554,
      "##클": 1555,
      "##ᅥᆫ드": 1556,
      "외국인": 1557,
      "누": 1558,
      "##휴": 1559,
      "##혜": 1560,
      "대화": 1561,
      "총선": 1562,
      "##총리": 1563,
      "17": 1564,
      "사이": 1565,
      "##노트": 1566,
      "농": 1567,
      "석": 1568,
      "기념": 1569,
      "정치": 1570,
      "##러스": 1571,
      "구글": 1572,
      "필요": 1573,
      "대북": 1574,
      "지지": 1575,
      "##바일": 1576,
      "방송": 1577,
      "올림픽": 1578,
      "##카드": 1579,
      "인사": 1580,
      "인천": 1581,
      "사우디": 1582,
      "##받": 1583,
      "##센터": 1584,
      "ki": 1585,
      "페": 1586,
      "##며": 1587,
      "공동": 1588,
      "실적": 1589,
      "2018": 1590,
      "근": 1591,
      "##조원": 1592,
      "이용": 1593,
      "다시": 1594,
      "성공": 1595,
      "##대통령": 1596,
      "수도": 1597,
      "삼성전자": 1598,
      "교육": 1599,
      "24": 1600,
      "편": 1601,
      "혁": 1602,
      "##장관": 1603,
      "##획": 1604,
      "장관": 1605,
      "진출": 1606,
      "참석": 1607,
      "독일": 1608,
      "##번째": 1609,
      "##30": 1610,
      "한국당": 1611,
      "의혹": 1612,
      "역대": 1613,
      "테러": 1614,
      "개인": 1615,
      "문제": 1616,
      "외교": 1617,
      "준비": 1618,
      "##누": 1619,
      "겨": 1620,
      "블": 1621,
      "##특": 1622,
      "##ᅦ이스": 1623,
      "검토": 1624,
      "40": 1625,
      "대응": 1626,
      "글": 1627,
      "##라이": 1628,
      "좋": 1629,
      "받": 1630,
      "##웨이": 1631,
      "##으": 1632,
      "질": 1633,
      "퇴": 1634,
      "경쟁": 1635,
      "##널": 1636,
      "##접": 1637,
      "##연패": 1638,
      "##니다": 1639,
      "위기": 1640,
      "lgu": 1641,
      "23": 1642,
      "##닥": 1643,
      "##압": 1644,
      "특별": 1645,
      "전문": 1646,
      "관련": 1647,
      "희": 1648,
      "위한": 1649,
      "계약": 1650,
      "갈": 1651,
      "##뉴스": 1652,
      "지역": 1653,
      "##욕": 1654,
      "최저": 1655,
      "##항공": 1656,
      "촉구": 1657,
      "##측": 1658,
      "유엔": 1659,
      "수사": 1660,
      "kbs": 1661,
      "##대로": 1662,
      "도입": 1663,
      "##리카": 1664,
      "##원장": 1665,
      "안전": 1666,
      "역사": 1667,
      "복귀": 1668,
      "1분기": 1669,
      "천": 1670,
      "##정보": 1671,
      "충북": 1672,
      "대학": 1673,
      "전북": 1674,
      "잘": 1675,
      "##참": 1676,
      "##민주": 1677,
      "함께": 1678,
      "뉴": 1679,
      "인도": 1680,
      "인터넷": 1681,
      "브ᄅ": 1682,
      "##죄": 1683,
      "##효": 1684,
      "징": 1685,
      "수상": 1686,
      "##ᅦ이터": 1687,
      "nba": 1688,
      "##벤": 1689,
      "##정부": 1690,
      "사장": 1691,
      "봄": 1692,
      "회장": 1693,
      "2천": 1694,
      "3년": 1695,
      "귀": 1696,
      "아파트": 1697,
      "##문화": 1698,
      "잡": 1699,
      "##방송": 1700,
      "##슈": 1701,
      "공모": 1702,
      "##두고": 1703,
      "향": 1704,
      "이어": 1705,
      "대전": 1706,
      "##산업": 1707,
      "영향": 1708,
      "용": 1709,
      "##주의보": 1710,
      "##조선": 1711,
      "모바일": 1712,
      "담": 1713,
      "대비": 1714,
      "주택": 1715,
      "오후": 1716,
      "요구": 1717,
      "##슨": 1718,
      "##단체": 1719,
      "##자들": 1720,
      "중단": 1721,
      "##연구": 1722,
      "문대통령": 1723,
      "금리": 1724,
      "위해": 1725,
      "남자": 1726,
      "맨": 1727,
      "검찰": 1728,
      "##쳐": 1729,
      "##조사": 1730,
      "몰": 1731,
      "##ᅡᆼ스": 1732,
      "잇": 1733,
      "출전": 1734,
      "잠": 1735,
      "##상에": 1736,
      "##콤": 1737,
      "아이폰": 1738,
      "찾아": 1739,
      "팀": 1740,
      "반대": 1741,
      "앞두고": 1742,
      "효": 1743,
      "주식": 1744,
      "##트남": 1745,
      "떠": 1746,
      "침": 1747,
      "##bc": 1748,
      "조사": 1749,
      "높": 1750,
      "통일": 1751,
      "확정": 1752,
      "갤노트": 1753,
      "##친": 1754,
      "##로벌": 1755,
      "아프": 1756,
      "##실점": 1757,
      "의원": 1758,
      "아시아": 1759,
      "선발": 1760,
      "발사": 1761,
      "길": 1762,
      "국립": 1763,
      "정책": 1764,
      "##텔레": 1765,
      "협상": 1766,
      "온라인": 1767,
      "26": 1768,
      "##ᅡ라": 1769,
      "##ᆯ러리": 1770,
      "워": 1771,
      "웨": 1772,
      "##앙": 1773,
      "##확": 1774,
      "공연": 1775,
      "문화": 1776,
      "평창": 1777,
      "갤럭시s": 1778,
      "2분기": 1779,
      "##허": 1780,
      "##털": 1781,
      "베트남": 1782,
      "##텔레콤": 1783,
      "뉴스": 1784,
      "##ᆷ프": 1785,
      "##기자": 1786,
      "##ᅳ룹": 1787,
      "착": 1788,
      "##하면": 1789,
      "운영": 1790,
      "힘": 1791,
      "##삼": 1792,
      "##스티": 1793,
      "한화": 1794,
      "##통신": 1795,
      "##세먼": 1796,
      "가입": 1797,
      "과기": 1798,
      "##세먼지": 1799,
      "즐": 1800,
      "##10": 1801,
      "##소식": 1802,
      "##생명": 1803,
      "##ᅧᆷ의": 1804,
      "##갈": 1805,
      "##짜": 1806,
      "불법": 1807,
      "##저스": 1808,
      "폭발": 1809,
      "프랑스": 1810,
      "28": 1811,
      "##취": 1812,
      "##하라": 1813,
      "한미": 1814,
      "##왕": 1815,
      "방통": 1816,
      "##건설": 1817,
      "배구": 1818,
      "##이익": 1819,
      "지도": 1820,
      "국정": 1821,
      "신한": 1822,
      "인공": 1823,
      "##야구": 1824,
      "미사일": 1825,
      "거래": 1826,
      "참여": 1827,
      "데": 1828,
      "면": 1829,
      "##ᅳ라": 1830,
      "##녀": 1831,
      "사상": 1832,
      "##비아": 1833,
      "보도": 1834,
      "난민": 1835,
      "is": 1836,
      "시민": 1837,
      "가장": 1838,
      "##반도": 1839,
      "성장": 1840,
      "행사": 1841,
      "##했": 1842,
      "사용": 1843,
      "하루": 1844,
      "놓": 1845,
      "lg전자": 1846,
      "풀": 1847,
      "##년만에": 1848,
      "정보": 1849,
      "발견": 1850,
      "계속": 1851,
      "##숙": 1852,
      "이탈": 1853,
      "사회": 1854,
      "##둔": 1855,
      "##사회": 1856,
      "##선수": 1857,
      "팔": 1858,
      "##맹": 1859,
      "##스테": 1860,
      "##봇": 1861,
      "가을": 1862,
      "##지역": 1863,
      "곳": 1864,
      "##텐": 1865,
      "sk텔레콤": 1866,
      "%↑": 1867,
      "##페이": 1868,
      "##리는": 1869,
      "##기관": 1870,
      "숨": 1871,
      "안보": 1872,
      "예상": 1873,
      "북미": 1874,
      "혁신": 1875,
      "3분기": 1876,
      "이재": 1877,
      "##값": 1878,
      "정의": 1879,
      "연기": 1880,
      "확인": 1881,
      "청년": 1882,
      "업무": 1883,
      "##ᅦᆨ시코": 1884,
      "글로벌": 1885,
      "##곡": 1886,
      "##폐": 1887,
      "##완": 1888,
      "다저스": 1889,
      "통합": 1890,
      "애플": 1891,
      "##탁": 1892,
      "최다": 1893,
      "##디어": 1894,
      "##플러스": 1895,
      "여자농구": 1896,
      "울산": 1897,
      "##머": 1898,
      "##흘": 1899,
      "##ᅮᆷ": 1900,
      "대상": 1901,
      "비판": 1902,
      "##팅": 1903,
      "존": 1904,
      "전환": 1905,
      "미세먼지": 1906,
      "무역": 1907,
      "##켓": 1908,
      "풍": 1909,
      "27": 1910,
      "60": 1911,
      "멕시코": 1912,
      "##대출": 1913,
      "##상품": 1914,
      "육": 1915,
      "##밀": 1916,
      "도전": 1917,
      "학생": 1918,
      "##페인": 1919,
      "헤": 1920,
      "##과학": 1921,
      "주장": 1922,
      "산업": 1923,
      "##ᅦᆨ시트": 1924,
      "국방": 1925,
      "nh": 1926,
      "##bs": 1927,
      "이라": 1928,
      "개선": 1929,
      "공급": 1930,
      "브렉시트": 1931,
      "2년": 1932,
      "벌": 1933,
      "##랙": 1934,
      "##엄": 1935,
      "선두": 1936,
      "조선": 1937,
      "##운드": 1938,
      "##킹": 1939,
      "이통": 1940,
      "##었다": 1941,
      "지속": 1942,
      "##개발": 1943,
      "##속보": 1944,
      "##폼": 1945,
      "회복": 1946,
      "증시": 1947,
      "벤": 1948,
      "큰": 1949,
      "수출": 1950,
      "밤": 1951,
      "공공": 1952,
      "일부": 1953,
      "다음": 1954,
      "코스닥": 1955,
      "앱": 1956,
      "탄핵": 1957,
      "책임": 1958,
      "넥": 1959,
      "##했다": 1960,
      "인기": 1961,
      "##ᅳ론": 1962,
      "선언": 1963,
      "고용": 1964,
      "소설": 1965,
      "##충": 1966,
      "날씨": 1967,
      "##교육청": 1968,
      "이라크": 1969,
      "별": 1970,
      "응": 1971,
      "##잡": 1972,
      "식": 1973,
      "만나": 1974,
      "학교": 1975,
      "2차": 1976,
      "##그룹": 1977,
      "##쇄": 1978,
      "이동": 1979,
      "##전서": 1980,
      "##ᅩᆯ로": 1981,
      "##동산": 1982,
      "##안타": 1983,
      "출간": 1984,
      "상장": 1985,
      "카드": 1986,
      "없다": 1987,
      "너": 1988,
      "밀": 1989,
      "마지": 1990,
      "영입": 1991,
      "대표팀": 1992,
      "##멘": 1993,
      "##계약": 1994,
      "어ᄄ": 1995,
      "##st": 1996,
      "##ns": 1997,
      "이후": 1998,
      "대만": 1999,
      "주목": 2000,
      "아베": 2001,
      "혐의": 2002,
      "지방": 2003,
      "고객": 2004,
      "##거래": 2005,
      "베네": 2006,
      "##올림픽": 2007,
      "tv": 2008,
      "##시설": 2009,
      "200": 2010,
      "더민주": 2011,
      "힐러리": 2012,
      "늘어": 2013,
      "볼": 2014,
      "훈": 2015,
      "##틴": 2016,
      "##꽃": 2017,
      "##스터": 2018,
      "개헌": 2019,
      "발언": 2020,
      "##담회": 2021,
      "단독": 2022,
      "축제": 2023,
      "집중": 2024,
      "본격": 2025,
      "게임": 2026,
      "##시티": 2027,
      "지난": 2028,
      "이탈리아": 2029,
      "느": 2030,
      "싸": 2031,
      "##긴": 2032,
      "대신": 2033,
      "한반도": 2034,
      "신임": 2035,
      "최초": 2036,
      "##경제": 2037,
      "회동": 2038,
      "참가": 2039,
      "4월": 2040,
      "씨": 2041,
      "##옥": 2042,
      "##촉": 2043,
      "##십": 2044,
      "##정책": 2045,
      "##진핑": 2046,
      "인권": 2047,
      "경고": 2048,
      "해결": 2049,
      "역전": 2050,
      "2019": 2051,
      "빠": 2052,
      "##콘": 2053,
      "##이닝": 2054,
      "##합의": 2055,
      "##일부터": 2056,
      "사람": 2057,
      "##ᅦ이트": 2058,
      "##재단": 2059,
      "스타": 2060,
      "체험": 2061,
      "##대표팀": 2062,
      "마지막": 2063,
      "슈": 2064,
      "##넘": 2065,
      "##지는": 2066,
      "경남": 2067,
      "모집": 2068,
      "작가": 2069,
      "##될": 2070,
      "이해": 2071,
      "주의": 2072,
      "최소": 2073,
      "일자리": 2074,
      "없는": 2075,
      "##린다": 2076,
      "군사": 2077,
      "여자배구": 2078,
      "##사에": 2079,
      "반발": 2080,
      "외무": 2081,
      "##노조": 2082,
      "체포": 2083,
      "1년": 2084,
      "데이터": 2085,
      "헌": 2086,
      "흥": 2087,
      "##큐": 2088,
      "##하게": 2089,
      "사드": 2090,
      "##듯": 2091,
      "비상": 2092,
      "해제": 2093,
      "위협": 2094,
      "##실험": 2095,
      "서울시": 2096,
      "폭염": 2097,
      "병": 2098,
      "##괴": 2099,
      "##빈": 2100,
      "##tv": 2101,
      "##fa": 2102,
      "이틀": 2103,
      "시진핑": 2104,
      "신규": 2105,
      "인수": 2106,
      "부동산": 2107,
      "##홈": 2108,
      "##바이": 2109,
      "원내": 2110,
      "70": 2111,
      "주요": 2112,
      "제공": 2113,
      "##문학": 2114,
      "##들이": 2115,
      "현장": 2116,
      "kbo": 2117,
      "영업이익": 2118,
      "##층": 2119,
      "##링": 2120,
      "##볼": 2121,
      "추신": 2122,
      "##운동": 2123,
      "##륙": 2124,
      "프로배구": 2125,
      "##텐츠": 2126,
      "추신수": 2127,
      "2명": 2128,
      "##굴": 2129,
      "##튜": 2130,
      "##짝": 2131,
      "있다": 2132,
      "이번": 2133,
      "시대": 2134,
      "출발": 2135,
      "평가": 2136,
      "평균": 2137,
      "교체": 2138,
      "요금": 2139,
      "플래": 2140,
      "gs": 2141,
      "##스크": 2142,
      "##의회": 2143,
      "신청": 2144,
      "출범": 2145,
      "##프트": 2146,
      "대한항공": 2147,
      "베네수": 2148,
      "2위": 2149,
      "꿈": 2150,
      "얼": 2151,
      "##혀": 2152,
      "##그래": 2153,
      "##쿠": 2154,
      "미래부": 2155,
      "##칼": 2156,
      "##제재": 2157,
      "공식": 2158,
      "##영상": 2159,
      "모두": 2160,
      "##린이": 2161,
      "규제": 2162,
      "sns": 2163,
      "폴": 2164,
      "##50": 2165,
      "##ᇀ은": 2166,
      "전자": 2167,
      "바ᄁ": 2168,
      "통과": 2169,
      "토론": 2170,
      "아프리카": 2171,
      "29": 2172,
      "낙": 2173,
      "##때": 2174,
      "사실": 2175,
      "##세대": 2176,
      "화웨이": 2177,
      "정상회담": 2178,
      "돌아": 2179,
      "입장": 2180,
      "압박": 2181,
      "잔": 2182,
      "마감": 2183,
      "보고": 2184,
      "확진": 2185,
      "##으면": 2186,
      "뛰": 2187,
      "브라": 2188,
      "##좌": 2189,
      "##텔": 2190,
      "결승": 2191,
      "왕": 2192,
      "##날씨": 2193,
      "놓고": 2194,
      "5천": 2195,
      "돼": 2196,
      "##지도": 2197,
      "빅": 2198,
      "강세": 2199,
      "강력": 2200,
      "인공지": 2201,
      "드론": 2202,
      "##싱": 2203,
      "##스코": 2204,
      "##소년": 2205,
      "매출": 2206,
      "새로": 2207,
      "광고": 2208,
      "국민의": 2209,
      "넘어": 2210,
      "##스템": 2211,
      "fa": 2212,
      "엄": 2213,
      "##하나": 2214,
      "대책": 2215,
      "##야기": 2216,
      "전쟁": 2217,
      "김영": 2218,
      "자동": 2219,
      "##딩": 2220,
      "앞둔": 2221,
      "탈출": 2222,
      "환율": 2223,
      "평양정상회담": 2224,
      "31": 2225,
      "##ᆫ다": 2226,
      "##욱": 2227,
      "##컴": 2228,
      "대체": 2229,
      "기록": 2230,
      "##유플러스": 2231,
      "상반기": 2232,
      "확산": 2233,
      "직원": 2234,
      "넥센": 2235,
      "쇼": 2236,
      "##정호": 2237,
      "시범": 2238,
      "전시": 2239,
      "##행사": 2240,
      "우주": 2241,
      "##여명": 2242,
      "거부": 2243,
      "##그램": 2244,
      "혼": 2245,
      "##기로": 2246,
      "싶": 2247,
      "조성": 2248,
      "##판매": 2249,
      "어린이": 2250,
      "구조": 2251,
      "바이": 2252,
      "매체": 2253,
      "##노총": 2254,
      "lg유플러스": 2255,
      "목표가": 2256,
      "은행": 2257,
      "방통위": 2258,
      "걸": 2259,
      "맹": 2260,
      "케": 2261,
      "##톡": 2262,
      "제안": 2263,
      "출신": 2264,
      "재개": 2265,
      "북핵": 2266,
      "맞아": 2267,
      "##벤트": 2268,
      "베네수엘": 2269,
      "인공지능": 2270,
      "메시": 2271,
      "범": 2272,
      "##사장": 2273,
      "사진": 2274,
      "경북": 2275,
      "##필": 2276,
      "영화": 2277,
      "실패": 2278,
      "##훈련": 2279,
      "펀드": 2280,
      "##따라": 2281,
      "##섬": 2282,
      "연장": 2283,
      "선임": 2284,
      "영국": 2285,
      "한국전": 2286,
      "##란드": 2287,
      "세종": 2288,
      "관리": 2289,
      "교수": 2290,
      "분양": 2291,
      "설치": 2292,
      "팬": 2293,
      "과학기술": 2294,
      "베네수엘라": 2295,
      "##홍": 2296,
      "##뉴": 2297,
      "##논": 2298,
      "##펀드": 2299,
      "##컬": 2300,
      "##릴": 2301,
      "이달": 2302,
      "##지수": 2303,
      "##회사": 2304,
      "##년간": 2305,
      "최지만": 2306,
      "##미술": 2307,
      "예약": 2308,
      "예술": 2309,
      "요청": 2310,
      "5월": 2311,
      "ic": 2312,
      "암": 2313,
      "##픈": 2314,
      "##얼": 2315,
      "##주택": 2316,
      "##세계": 2317,
      "##나다": 2318,
      "모든": 2319,
      "충돌": 2320,
      "##벽": 2321,
      "개시": 2322,
      "유지": 2323,
      "가족": 2324,
      "김종": 2325,
      "오바": 2326,
      "밝": 2327,
      "##메라": 2328,
      "전문가": 2329,
      "3명": 2330,
      "9월": 2331,
      "##홀": 2332,
      "이벤트": 2333,
      "##서비스": 2334,
      "대출": 2335,
      "##수수": 2336,
      "사전": 2337,
      "##선거": 2338,
      "##선언": 2339,
      "202": 2340,
      "##투표": 2341,
      "mw": 2342,
      "이유": 2343,
      "이야기": 2344,
      "##자에": 2345,
      "##위기": 2346,
      "##공항": 2347,
      "##거리": 2348,
      "##델": 2349,
      "##위원회": 2350,
      "음악": 2351,
      "mwc": 2352,
      "망": 2353,
      "이정": 2354,
      "##트리": 2355,
      "전남": 2356,
      "전략": 2357,
      "연합": 2358,
      "위원장": 2359,
      "구축": 2360,
      "만들": 2361,
      "호주": 2362,
      "##협상": 2363,
      "회의": 2364,
      "특검": 2365,
      "건설": 2366,
      "점검": 2367,
      "오바마": 2368,
      "래": 2369,
      "##척": 2370,
      "##소리": 2371,
      "경영": 2372,
      "##관계": 2373,
      "##협약": 2374,
      "원내대표": 2375,
      "들": 2376,
      "춘": 2377,
      "##냥": 2378,
      "##회장": 2379,
      "주민": 2380,
      "사태": 2381,
      "한파": 2382,
      "##셋": 2383,
      "##업체": 2384,
      "##ᅳ린": 2385,
      "##여행": 2386,
      "답": 2387,
      "로봇": 2388,
      "활용": 2389,
      "갤s": 2390,
      "긴급": 2391,
      "곳곳": 2392,
      "늘": 2393,
      "##몰": 2394,
      "##핀": 2395,
      "##대전": 2396,
      "##회견": 2397,
      "마련": 2398,
      "##피탈": 2399,
      "조국": 2400,
      "##랜": 2401,
      "베스트": 2402,
      "취소": 2403,
      "수도권": 2404,
      "효과": 2405,
      "브라질": 2406,
      "뮤": 2407,
      "##ᆺ폼": 2408,
      "##진흥": 2409,
      "미술": 2410,
      "##관리": 2411,
      "몸": 2412,
      "프로축구": 2413,
      "##플레이": 2414,
      "캐나다": 2415,
      "관광객": 2416,
      "훈련": 2417,
      "mv": 2418,
      "억": 2419,
      "##ᆻ나": 2420,
      "##개국": 2421,
      "여름": 2422,
      "##웃": 2423,
      "조기": 2424,
      "##무원": 2425,
      "##규모": 2426,
      "##후보": 2427,
      "야구": 2428,
      "뉴욕": 2429,
      "6월": 2430,
      "뇌": 2431,
      "들어": 2432,
      "이제": 2433,
      "중동": 2434,
      "원달러": 2435,
      "##할까": 2436,
      "프로야구": 2437,
      "탑": 2438,
      "않아": 2439,
      "맨유": 2440,
      "mbc": 2441,
      "페이스": 2442,
      "##ᇂ게": 2443,
      "##섭": 2444,
      "시도": 2445,
      "##을까": 2446,
      "결과": 2447,
      "##춤": 2448,
      "##철수": 2449,
      "법원": 2450,
      "##캐피탈": 2451,
      "mvp": 2452,
      "찬": 2453,
      "##서도": 2454,
      "기부": 2455,
      "화재": 2456,
      "보안": 2457,
      "##르드": 2458,
      "10월": 2459,
      "첫날": 2460,
      "민간": 2461,
      "착수": 2462,
      "국민의당": 2463,
      "db": 2464,
      "io": 2465,
      "견": 2466,
      "시간": 2467,
      "##웅": 2468,
      "##노동": 2469,
      "종합": 2470,
      "ok": 2471,
      "각": 2472,
      "지분": 2473,
      "전달": 2474,
      "인간": 2475,
      "안돼": 2476,
      "급증": 2477,
      "kia": 2478,
      "%↓": 2479,
      "루": 2480,
      "쓰": 2481,
      "티": 2482,
      "흑": 2483,
      "##프로": 2484,
      "##정상": 2485,
      "수원": 2486,
      "##공단": 2487,
      "영하": 2488,
      "올라": 2489,
      "관심": 2490,
      "##협력": 2491,
      "##축은행": 2492,
      "그리": 2493,
      "채용": 2494,
      "라이": 2495,
      "##핵화": 2496,
      "1차": 2497,
      "##기에": 2498,
      "##사고": 2499,
      "등교": 2500,
      "통화": 2501,
      "성과": 2502,
      "적용": 2503,
      "우리은행": 2504,
      "좋은": 2505,
      "갈등": 2506,
      "32": 2507,
      "cj": 2508,
      "왜": 2509,
      "##농": 2510,
      "이적": 2511,
      "##보기": 2512,
      "##보험": 2513,
      "중앙": 2514,
      "비핵화": 2515,
      "##금투": 2516,
      "강정호": 2517,
      "자유": 2518,
      "자금": 2519,
      "감사": 2520,
      "진행": 2521,
      "독립": 2522,
      "캠": 2523,
      "처리": 2524,
      "돈": 2525,
      "##줄": 2526,
      "##ᆯ로": 2527,
      "##보고": 2528,
      "##성장": 2529,
      "사퇴": 2530,
      "위반": 2531,
      "필리": 2532,
      "체결": 2533,
      "임명": 2534,
      "콘텐츠": 2535,
      "겨울": 2536,
      "##진다": 2537,
      "제작": 2538,
      "예고": 2539,
      "카메라": 2540,
      "속도": 2541,
      "패배": 2542,
      "기자회견": 2543,
      "35": 2544,
      "4천": 2545,
      "먹": 2546,
      "흔": 2547,
      "##뢰": 2548,
      "##이스": 2549,
      "##라운드": 2550,
      "수익": 2551,
      "정권": 2552,
      "추석": 2553,
      "고려": 2554,
      "##와대": 2555,
      "구성": 2556,
      "바른": 2557,
      "금지": 2558,
      "##태용": 2559,
      "청와대": 2560,
      "현대캐피탈": 2561,
      "태풍": 2562,
      "##처럼": 2563,
      "희망": 2564,
      "갤럭시s8": 2565,
      "##스티벌": 2566,
      "1명": 2567,
      "80": 2568,
      "8월": 2569,
      "##알": 2570,
      "##헤": 2571,
      "##대책": 2572,
      "대결": 2573,
      "기회": 2574,
      "유치": 2575,
      "신고": 2576,
      "연결": 2577,
      "비난": 2578,
      "##미래": 2579,
      "문학": 2580,
      "장애": 2581,
      "환영": 2582,
      "항공": 2583,
      "할인": 2584,
      "kist": 2585,
      "%…": 2586,
      "3월": 2587,
      "4년": 2588,
      "멀": 2589,
      "프리": 2590,
      "##춘": 2591,
      "##촌": 2592,
      "##베이": 2593,
      "##5천": 2594,
      "##하다": 2595,
      "##답": 2596,
      "##는데": 2597,
      "정규": 2598,
      "신태용": 2599,
      "최종": 2600,
      "중요": 2601,
      "제한": 2602,
      "##니아": 2603,
      "##학생": 2604,
      "만든": 2605,
      "예산": 2606,
      "호남": 2607,
      "거리": 2608,
      "열려": 2609,
      "가입자": 2610,
      "페이스북": 2611,
      "3천": 2612,
      "먼": 2613,
      "##켜": 2614,
      "지정": 2615,
      "한진": 2616,
      "개혁": 2617,
      "##윤": 2618,
      "##셀러": 2619,
      "가상": 2620,
      "##ᅳ레": 2621,
      "미중": 2622,
      "맑": 2623,
      "오픈": 2624,
      "자율": 2625,
      "일정": 2626,
      "남북정상회담": 2627,
      "##흐": 2628,
      "##혼": 2629,
      "##뷰": 2630,
      "##3보": 2631,
      "##갑": 2632,
      "국무": 2633,
      "가격": 2634,
      "인하": 2635,
      "인상": 2636,
      "상용": 2637,
      "##르도": 2638,
      "바다": 2639,
      "장기": 2640,
      "투표": 2641,
      "협의": 2642,
      "초청": 2643,
      "변화": 2644,
      "##득점": 2645,
      "플랫폼": 2646,
      "500": 2647,
      "k리그": 2648,
      "머": 2649,
      "엔": 2650,
      "형": 2651,
      "##덕": 2652,
      "##지컬": 2653,
      "##기는": 2654,
      "##가는": 2655,
      "수주": 2656,
      "수단": 2657,
      "신년": 2658,
      "##우드": 2659,
      "##금지": 2660,
      "##키로": 2661,
      "포함": 2662,
      "##직원": 2663,
      "핵합의": 2664,
      "간담회": 2665,
      "쿠르드": 2666,
      "7월": 2667,
      "죽": 2668,
      "##te": 2669,
      "##끄": 2670,
      "##ᆻ던": 2671,
      "##금리": 2672,
      "##들의": 2673,
      "웃": 2674,
      "스페인": 2675,
      "노조": 2676,
      "예멘": 2677,
      "올스타": 2678,
      "반군": 2679,
      "관계": 2680,
      "샌": 2681,
      "취임": 2682,
      "핵실험": 2683,
      "허용": 2684,
      "##없는": 2685,
      "##누리": 2686,
      "##암": 2687,
      "##도시": 2688,
      "##성화": 2689,
      "부진": 2690,
      "##관광": 2691,
      "안철수": 2692,
      "소비": 2693,
      "##모비스": 2694,
      "회담": 2695,
      "새해": 2696,
      "충남": 2697,
      "##더위": 2698,
      "푸틴": 2699,
      "있어": 2700,
      "##삼공사": 2701,
      "춘천": 2702,
      "1만": 2703,
      "좌": 2704,
      "##죠": 2705,
      "##풀": 2706,
      "##하겠다": 2707,
      "##리즈": 2708,
      "##지털": 2709,
      "수능": 2710,
      "연극": 2711,
      "제2": 2712,
      "김연": 2713,
      "##문회": 2714,
      "여전": 2715,
      "도로": 2716,
      "##달라": 2717,
      "##테크": 2718,
      "##디오": 2719,
      "현대모비스": 2720,
      "집단": 2721,
      "긴장": 2722,
      "떠나": 2723,
      "nc": 2724,
      "득": 2725,
      "##ᅥᇂ게": 2726,
      "##것": 2727,
      "##뷔": 2728,
      "##하지": 2729,
      "이승": 2730,
      "기능": 2731,
      "시행": 2732,
      "사랑": 2733,
      "최강": 2734,
      "중소": 2735,
      "##터리": 2736,
      "하는": 2737,
      "우수": 2738,
      "##학교": 2739,
      "무료": 2740,
      "도발": 2741,
      "확보": 2742,
      "##ᆯ린": 2743,
      "##저축은행": 2744,
      "##항서": 2745,
      "협약": 2746,
      "계획": 2747,
      "슈퍼": 2748,
      "이해찬": 2749,
      "한국전력": 2750,
      "vr": 2751,
      "v30": 2752,
      "따": 2753,
      "쓴": 2754,
      "##이사": 2755,
      "##이는": 2756,
      "##스토": 2757,
      "사고": 2758,
      "##업계": 2759,
      "##공연": 2760,
      "강조": 2761,
      "도시": 2762,
      "합류": 2763,
      "디지털": 2764,
      "베스트셀러": 2765,
      "숙": 2766,
      "이집": 2767,
      "##의원": 2768,
      "시인": 2769,
      "##피아": 2770,
      "2020": 2771,
      "##임금": 2772,
      "챔": 2773,
      "핵심": 2774,
      "직접": 2775,
      "##클리": 2776,
      "이집트": 2777,
      "꽃": 2778,
      "뜨": 2779,
      "##힌": 2780,
      "##릉": 2781,
      "##봄": 2782,
      "한일": 2783,
      "유력": 2784,
      "추천": 2785,
      "추락": 2786,
      "제압": 2787,
      "위험": 2788,
      "남부": 2789,
      "차기": 2790,
      "금감": 2791,
      "##물관": 2792,
      "설립": 2793,
      "철회": 2794,
      "될": 2795,
      "극우": 2796,
      "귀국": 2797,
      "nh투자": 2798,
      "4차": 2799,
      "빨": 2800,
      "##ae": 2801,
      "##일까지": 2802,
      "아냐": 2803,
      "국경": 2804,
      "##밍": 2805,
      "발생": 2806,
      "##포츠": 2807,
      "예정": 2808,
      "불가": 2809,
      "새누리": 2810,
      "없이": 2811,
      "##날두": 2812,
      "우리카드": 2813,
      "어떻게": 2814,
      "36": 2815,
      "mo": 2816,
      "농구": 2817,
      "빈": 2818,
      "쉬": 2819,
      "##끼": 2820,
      "대사": 2821,
      "##도로": 2822,
      "개편": 2823,
      "신용": 2824,
      "미군": 2825,
      "연휴": 2826,
      "추정": 2827,
      "##문에": 2828,
      "발행": 2829,
      "매수": 2830,
      "##룡": 2831,
      "리비아": 2832,
      "민주노총": 2833,
      "변경": 2834,
      "##웨어": 2835,
      "품": 2836,
      "미래에": 2837,
      "##순실": 2838,
      "데뷔": 2839,
      "업무협약": 2840,
      "새로운": 2841,
      "5명": 2842,
      "##쉬": 2843,
      "##ᆱ은": 2844,
      "##사태": 2845,
      "시험": 2846,
      "사과": 2847,
      "한은": 2848,
      "개정": 2849,
      "부총리": 2850,
      "제1": 2851,
      "##적인": 2852,
      "호날두": 2853,
      "##벨": 2854,
      "##혁명": 2855,
      "질주": 2856,
      "탑재": 2857,
      "##르도안": 2858,
      "괴": 2859,
      "##기록": 2860,
      "##장서": 2861,
      "최순실": 2862,
      "연말": 2863,
      "보수": 2864,
      "상대": 2865,
      "##키스": 2866,
      "총격": 2867,
      "파업": 2868,
      "분석": 2869,
      "##본부": 2870,
      "##평가": 2871,
      "골든": 2872,
      "응원": 2873,
      "iot": 2874,
      "mou": 2875,
      "컨": 2876,
      "##시위": 2877,
      "전면": 2878,
      "##개혁": 2879,
      "출마": 2880,
      "출판": 2881,
      "내주": 2882,
      "나와": 2883,
      "##운용": 2884,
      "동반": 2885,
      "에르도안": 2886,
      "체제": 2887,
      "완화": 2888,
      "달러": 2889,
      "블랙": 2890,
      "34": 2891,
      "300": 2892,
      "it": 2893,
      "##즘": 2894,
      "##이드": 2895,
      "##시즌": 2896,
      "##일보": 2897,
      "##조정": 2898,
      "납": 2899,
      "달라": 2900,
      "##ᅲ스턴": 2901,
      "겨냥": 2902,
      "벤투": 2903,
      "씽": 2904,
      "ok저축은행": 2905,
      "1조": 2906,
      "g6": 2907,
      "게": 2908,
      "솔": 2909,
      "옥": 2910,
      "##휘": 2911,
      "##500": 2912,
      "대규모": 2913,
      "##가지": 2914,
      "##트워": 2915,
      "전용": 2916,
      "##라우드": 2917,
      "신설": 2918,
      "경선": 2919,
      "##민국": 2920,
      "선물": 2921,
      "김학": 2922,
      "##님": 2923,
      "한국인": 2924,
      "차량": 2925,
      "실종": 2926,
      "##버스": 2927,
      "생산": 2928,
      "생각": 2929,
      "##앤": 2930,
      "환경": 2931,
      "치료": 2932,
      "절반": 2933,
      "##홈런": 2934,
      "필리핀": 2935,
      "1월": 2936,
      "3연승": 2937,
      "4명": 2938,
      "빼": 2939,
      "휘": 2940,
      "휴스턴": 2941,
      "##걸": 2942,
      "##닌": 2943,
      "##뜰": 2944,
      "##대에": 2945,
      "##주기": 2946,
      "사무": 2947,
      "사건": 2948,
      "유튜": 2949,
      "수준": 2950,
      "##ᅳ러": 2951,
      "미디어": 2952,
      "제외": 2953,
      "고발": 2954,
      "##텍스": 2955,
      "검색": 2956,
      "적자": 2957,
      "11월": 2958,
      "대북제재": 2959,
      "근로": 2960,
      "바른미래": 2961,
      "미래에셋": 2962,
      "33": 2963,
      "즉": 2964,
      "혜": 2965,
      "##ᆻ지만": 2966,
      "##슬": 2967,
      "이행": 2968,
      "##돋": 2969,
      "##궁": 2970,
      "개성": 2971,
      "##라도": 2972,
      "수용": 2973,
      "부인": 2974,
      "소식": 2975,
      "배터리": 2976,
      "초등": 2977,
      "##총장": 2978,
      "흥국": 2979,
      "4분기": 2980,
      "르": 2981,
      "##렬": 2982,
      "##시대": 2983,
      "##하이": 2984,
      "##대결": 2985,
      "##자산": 2986,
      "기반": 2987,
      "##인다": 2988,
      "##앞": 2989,
      "##트넘": 2990,
      "##공업": 2991,
      "##치고": 2992,
      "##신문": 2993,
      "고위": 2994,
      "상황": 2995,
      "소송": 2996,
      "##낸": 2997,
      "##현장": 2998,
      "민생": 2999,
      "현대차": 3000,
      "설명": 3001,
      "경기도": 3002,
      "법안": 3003,
      "토트넘": 3004,
      "##혁신": 3005,
      "징계": 3006,
      "지도부": 3007,
      "지난해": 3008,
      "3위": 3009,
      "45": 3010,
      "봉": 3011,
      "슬": 3012,
      "##6억원": 3013,
      "##있": 3014,
      "##이어": 3015,
      "##하세요": 3016,
      "##하며": 3017,
      "##스ᄐ": 3018,
      "##릿": 3019,
      "읽": 3020,
      "##서트": 3021,
      "개통": 3022,
      "공정": 3023,
      "유조선": 3024,
      "인정": 3025,
      "오전": 3026,
      "발간": 3027,
      "의회": 3028,
      "취업": 3029,
      "종료": 3030,
      "웹": 3031,
      "본격화": 3032,
      "늦": 3033,
      "상용화": 3034,
      "lte": 3035,
      "크리": 3036,
      "##전환": 3037,
      "##보호": 3038,
      "공방": 3039,
      "##셀": 3040,
      "##조치": 3041,
      "어려": 3042,
      "구단": 3043,
      "구매": 3044,
      "노력": 3045,
      "투입": 3046,
      "돌입": 3047,
      "클라우드": 3048,
      "노동자": 3049,
      "gs칼": 3050,
      "5년": 3051,
      "니": 3052,
      "케이": 3053,
      "##정적": 3054,
      "공화": 3055,
      "부담": 3056,
      "##문제": 3057,
      "##문점": 3058,
      "발전": 3059,
      "나서": 3060,
      "20대": 3061,
      "##현대": 3062,
      "##텍": 3063,
      "실시": 3064,
      "투수": 3065,
      "역할": 3066,
      "##언론": 3067,
      "당대회": 3068,
      "집회": 3069,
      "완파": 3070,
      "##너지": 3071,
      "대한민국": 3072,
      "누구": 3073,
      "ict": 3074,
      "뮤지컬": 3075,
      "씽큐": 3076,
      "gs칼텍스": 3077,
      "뚝": 3078,
      "트": 3079,
      "##ᆯ영": 3080,
      "##ᅪᆯ영": 3081,
      "##이트": 3082,
      "주가": 3083,
      "##치는": 3084,
      "##연합": 3085,
      "##타냐": 3086,
      "등록": 3087,
      "차단": 3088,
      "프로그램": 3089,
      "청소년": 3090,
      "챔프": 3091,
      "언급": 3092,
      "사이버": 3093,
      "받아": 3094,
      "##타냐후": 3095,
      "1인": 3096,
      "90": 3097,
      "ce": 3098,
      "메이": 3099,
      "트리": 3100,
      "대우": 3101,
      "대형": 3102,
      "기관": 3103,
      "기온": 3104,
      "##국민": 3105,
      "##보는": 3106,
      "아직": 3107,
      "공무원": 3108,
      "신인": 3109,
      "신문": 3110,
      "가동": 3111,
      "선택": 3112,
      "김동": 3113,
      "##재인": 3114,
      "##미나": 3115,
      "보호": 3116,
      "해임": 3117,
      "안타": 3118,
      "일제": 3119,
      "도착": 3120,
      "예비": 3121,
      "##크라": 3122,
      "박항서": 3123,
      "알뜰": 3124,
      "네타냐후": 3125,
      "##없이": 3126,
      "sns돋": 3127,
      "sns돋보기": 3128,
      "2연승": 3129,
      "찌": 3130,
      "퍼": 3131,
      "##pl": 3132,
      "##주행": 3133,
      "##전지": 3134,
      "##상증": 3135,
      "사흘": 3136,
      "아침": 3137,
      "##ᅢᆼ크": 3138,
      "##납": 3139,
      "여론": 3140,
      "비대": 3141,
      "조치": 3142,
      "하반기": 3143,
      "##탑": 3144,
      "코치": 3145,
      "현실": 3146,
      "호우": 3147,
      "증권": 3148,
      "단체": 3149,
      "판문점": 3150,
      "건강": 3151,
      "활동": 3152,
      "압수수": 3153,
      "많은": 3154,
      "최저임금": 3155,
      "흥국생명": 3156,
      "압수수색": 3157,
      "38": 3158,
      "rd": 3159,
      "덕": 3160,
      "##ᆼ괴": 3161,
      "##춰": 3162,
      "##펜": 3163,
      "##끈": 3164,
      "##싸": 3165,
      "##fc": 3166,
      "##이란": 3167,
      "##대응": 3168,
      "##원에": 3169,
      "기준": 3170,
      "##국제": 3171,
      "##인사": 3172,
      "맛": 3173,
      "##발전": 3174,
      "##들과": 3175,
      "문재인": 3176,
      "다른": 3177,
      "세월": 3178,
      "등장": 3179,
      "등판": 3180,
      "바르": 3181,
      "차세대": 3182,
      "북적": 3183,
      "##박물관": 3184,
      "홍보": 3185,
      "완료": 3186,
      "태국": 3187,
      "태양": 3188,
      "취득": 3189,
      "##평화": 3190,
      "찾은": 3191,
      "폐지": 3192,
      "잇따라": 3193,
      "이번엔": 3194,
      "멀티": 3195,
      "2주": 3196,
      "2배": 3197,
      "4강": 3198,
      "po": 3199,
      "측": 3200,
      "##시험": 3201,
      "주도": 3202,
      "삶": 3203,
      "전기": 3204,
      "##만대": 3205,
      "유출": 3206,
      "##개선": 3207,
      "마이": 3208,
      "빛": 3209,
      "나경": 3210,
      "통산": 3211,
      "##맨": 3212,
      "결의": 3213,
      "당선": 3214,
      "승부": 3215,
      "내일날씨": 3216,
      "활성화": 3217,
      "음성": 3218,
      "##활동": 3219,
      "약세": 3220,
      "폐쇄": 3221,
      "석유": 3222,
      "잇단": 3223,
      "김연경": 3224,
      "epl": 3225,
      "써": 3226,
      "##덴": 3227,
      "##짐": 3228,
      "##어요": 3229,
      "##자는": 3230,
      "##화재": 3231,
      "##정지": 3232,
      "##전략": 3233,
      "##인트": 3234,
      "한달": 3235,
      "##세포": 3236,
      "가짜": 3237,
      "보험": 3238,
      "##체인": 3239,
      "위클리": 3240,
      "노트": 3241,
      "##포럼": 3242,
      "##못": 3243,
      "적극": 3244,
      "달성": 3245,
      "민주당": 3246,
      "15일": 3247,
      "급락": 3248,
      "끝내": 3249,
      "워싱": 3250,
      "평창올림픽": 3251,
      "과기부": 3252,
      "갤s8": 3253,
      "알뜰폰": 3254,
      "##상증자": 3255,
      "워싱턴": 3256,
      "탐": 3257,
      "##찌": 3258,
      "##40": 3259,
      "##70": 3260,
      "##릭": 3261,
      "이전": 3262,
      "이미": 3263,
      "##트랙": 3264,
      "전통": 3265,
      "##드리": 3266,
      "##드는": 3267,
      "유니": 3268,
      "국회의": 3269,
      "중부": 3270,
      "마음": 3271,
      "무안타": 3272,
      "나누": 3273,
      "단일": 3274,
      "청문회": 3275,
      "당국": 3276,
      "규탄": 3277,
      "탈북": 3278,
      "급등": 3279,
      "항의": 3280,
      "있는": 3281,
      "시범경기": 3282,
      "프리미": 3283,
      "섬": 3284,
      "택": 3285,
      "##헨": 3286,
      "##쿄": 3287,
      "##스에": 3288,
      "##해안": 3289,
      "##돈": 3290,
      "##종합3보": 3291,
      "공습": 3292,
      "수석": 3293,
      "##천억원": 3294,
      "여부": 3295,
      "무기": 3296,
      "소집": 3297,
      "##중공업": 3298,
      "만난": 3299,
      "예선": 3300,
      "현금": 3301,
      "불참": 3302,
      "매각": 3303,
      "집권": 3304,
      "완전": 3305,
      "철수": 3306,
      "된": 3307,
      "아이폰x": 3308,
      "예약판매": 3309,
      "개성공단": 3310,
      "세월호": 3311,
      "fi": 3312,
      "깨": 3313,
      "녹": 3314,
      "##잉": 3315,
      "이민": 3316,
      "대회": 3317,
      "시청": 3318,
      "사라": 3319,
      "아닌": 3320,
      "같은": 3321,
      "경매": 3322,
      "내려": 3323,
      "##미사일": 3324,
      "##적으로": 3325,
      "##맞": 3326,
      "##무리": 3327,
      "나선": 3328,
      "걷": 3329,
      "승인": 3330,
      "입국": 3331,
      "##추위": 3332,
      "kb손": 3333,
      "행진": 3334,
      "휴대전": 3335,
      "시위대": 3336,
      "남자배구": 3337,
      "통일부": 3338,
      "별세": 3339,
      "역전승": 3340,
      "휴대전화": 3341,
      "떨": 3342,
      "크": 3343,
      "##맥": 3344,
      "##럴": 3345,
      "##대상": 3346,
      "##가구": 3347,
      "##았다": 3348,
      "사령": 3349,
      "전년": 3350,
      "인삼공사": 3351,
      "경계": 3352,
      "내부": 3353,
      "하원": 3354,
      "##교안": 3355,
      "스위": 3356,
      "반등": 3357,
      "동시": 3358,
      "장중": 3359,
      "진화": 3360,
      "폼": 3361,
      "임시": 3362,
      "열어": 3363,
      "후보자": 3364,
      "처음": 3365,
      "버스": 3366,
      "징역": 3367,
      "면담": 3368,
      "요금제": 3369,
      "토론회": 3370,
      "김종인": 3371,
      "먼저": 3372,
      "2월": 3373,
      "41": 3374,
      "uae": 3375,
      "##롱": 3376,
      "##퓨": 3377,
      "##7억원": 3378,
      "이주": 3379,
      "기소": 3380,
      "##일로": 3381,
      "전력": 3382,
      "##랍": 3383,
      "공시": 3384,
      "중심": 3385,
      "제조": 3386,
      "제출": 3387,
      "김성": 3388,
      "##안전": 3389,
      "##계획": 3390,
      "보스": 3391,
      "##타수": 3392,
      "감염": 3393,
      "도쿄": 3394,
      "바람": 3395,
      "반도": 3396,
      "의견": 3397,
      "장마": 3398,
      "박지수": 3399,
      "##심사": 3400,
      "배치": 3401,
      "##되는": 3402,
      "은퇴": 3403,
      "기념식": 3404,
      "##미술관": 3405,
      "득점": 3406,
      "폼페이": 3407,
      "3차": 3408,
      "5개": 3409,
      "kc": 3410,
      "##셔": 3411,
      "##2억원": 3412,
      "##스플레이": 3413,
      "##대사": 3414,
      "대설": 3415,
      "지시": 3416,
      "##아야": 3417,
      "아니": 3418,
      "유전자": 3419,
      "조명": 3420,
      "고교": 3421,
      "무실점": 3422,
      "소개": 3423,
      "10명": 3424,
      "센": 3425,
      "장비": 3426,
      "결장": 3427,
      "포기": 3428,
      "서울대": 3429,
      "검사": 3430,
      "분야": 3431,
      "행정": 3432,
      "명예": 3433,
      "##특보": 3434,
      "7일": 3435,
      "따라": 3436,
      "##1보": 3437,
      "이총리": 3438,
      "##지구": 3439,
      "##서관": 3440,
      "대법": 3441,
      "##다종합": 3442,
      "싱": 3443,
      "##전쟁": 3444,
      "##인상": 3445,
      "지급": 3446,
      "국감": 3447,
      "수소": 3448,
      "연내": 3449,
      "##칙": 3450,
      "부회장": 3451,
      "##천명": 3452,
      "##신상품": 3453,
      "보유": 3454,
      "##파고": 3455,
      "10년": 3456,
      "##광고": 3457,
      "임대": 3458,
      "현대건설": 3459,
      "저지": 3460,
      "##ᅳ리고": 3461,
      "황교안": 3462,
      "업체": 3463,
      "증시신상품": 3464,
      "스타트": 3465,
      "3개": 3466,
      "3점": 3467,
      "깜": 3468,
      "베이": 3469,
      "쏘": 3470,
      "쌍": 3471,
      "##크ᄅ": 3472,
      "##400": 3473,
      "##1억원": 3474,
      "##시스템": 3475,
      "이사": 3476,
      "##대학": 3477,
      "##정통": 3478,
      "##인권": 3479,
      "지금": 3480,
      "신경": 3481,
      "붕괴": 3482,
      "##피해": 3483,
      "김태": 3484,
      "출국": 3485,
      "내가": 3486,
      "보복": 3487,
      "강릉": 3488,
      "무산": 3489,
      "##월드컵": 3490,
      "반정부": 3491,
      "##버그": 3492,
      "교통": 3493,
      "##토론": 3494,
      "충격": 3495,
      "축소": 3496,
      "젊은": 3497,
      "살해": 3498,
      "과기정통": 3499,
      "자동차": 3500,
      "그리스": 3501,
      "혜택": 3502,
      "놀": 3503,
      "콜로": 3504,
      "##3억원": 3505,
      "##리기": 3506,
      "##다운": 3507,
      "수업": 3508,
      "정기": 3509,
      "인근": 3510,
      "추경": 3511,
      "마무리": 3512,
      "여파": 3513,
      "움": 3514,
      "강한": 3515,
      "강경": 3516,
      "강풍": 3517,
      "발의": 3518,
      "구속": 3519,
      "세미나": 3520,
      "도약": 3521,
      "옛": 3522,
      "동부": 3523,
      "관람": 3524,
      "원인": 3525,
      "진입": 3526,
      "##규제": 3527,
      "생활": 3528,
      "창업": 3529,
      "##예술": 3530,
      "골프": 3531,
      "메르": 3532,
      "블록": 3533,
      "희생": 3534,
      "대학생": 3535,
      "신한은행": 3536,
      "이통사": 3537,
      "##바이오": 3538,
      "##스테이트": 3539,
      "반도체": 3540,
      "폼페이오": 3541,
      "5일": 3542,
      "sbs": 3543,
      "뚜": 3544,
      "##ᅩᆸ": 3545,
      "##2년": 3546,
      "##4억원": 3547,
      "##의장": 3548,
      "##인터": 3549,
      "아쉬": 3550,
      "정당": 3551,
      "연봉": 3552,
      "추모": 3553,
      "##연맹": 3554,
      "##피커": 3555,
      "곧": 3556,
      "강남": 3557,
      "상대로": 3558,
      "##무기": 3559,
      "나온": 3560,
      "##점검": 3561,
      "##배당": 3562,
      "호텔": 3563,
      "성폭": 3564,
      "불안": 3565,
      "그림": 3566,
      "청주": 3567,
      "야당": 3568,
      "창립": 3569,
      "탄생": 3570,
      "권력": 3571,
      "많아": 3572,
      "페스티벌": 3573,
      "이용자": 3574,
      "정규리그": 3575,
      "금감원": 3576,
      "챔프전": 3577,
      "1억": 3578,
      "ib": 3579,
      "##에는": 3580,
      "이닝": 3581,
      "##기의": 3582,
      "##자금": 3583,
      "##성용": 3584,
      "##제한": 3585,
      "##요금": 3586,
      "최악": 3587,
      "내정": 3588,
      "위안": 3589,
      "안정": 3590,
      "스ᄏ": 3591,
      "소통": 3592,
      "소재": 3593,
      "남성": 3594,
      "호르": 3595,
      "북부": 3596,
      "##감독": 3597,
      "##워드": 3598,
      "##런스": 3599,
      "줄어": 3600,
      "번째": 3601,
      "지지율": 3602,
      "육성": 3603,
      "##진흥원": 3604,
      "흔들": 3605,
      "골든스테이트": 3606,
      "##트워크": 3607,
      "유튜브": 3608,
      "냉": 3609,
      "듀": 3610,
      "흐": 3611,
      "##5억원": 3612,
      "##시민": 3613,
      "##짓": 3614,
      "##기온": 3615,
      "##자인": 3616,
      "##주가": 3617,
      "기성용": 3618,
      "##전에": 3619,
      "##한국": 3620,
      "##칭": 3621,
      "출격": 3622,
      "##마을": 3623,
      "자제": 3624,
      "무승": 3625,
      "##방문": 3626,
      "나ᄈ": 3627,
      "##중국": 3628,
      "노사": 3629,
      "##실장": 3630,
      "##크쇼": 3631,
      "획": 3632,
      "삼성화재": 3633,
      "원유": 3634,
      "타율": 3635,
      "행복": 3636,
      "맞대결": 3637,
      "##퍼런스": 3638,
      "축구대표팀": 3639,
      "많이": 3640,
      "혁명": 3641,
      "개인정보": 3642,
      "##선수권": 3643,
      "국방부": 3644,
      "지방선거": 3645,
      "쇼핑": 3646,
      "1호": 3647,
      "8일": 3648,
      "ag": 3649,
      "g7": 3650,
      "맥": 3651,
      "제임": 3652,
      "흐리고": 3653,
      "##줘": 3654,
      "##데이": 3655,
      "##낙": 3656,
      "##1년": 3657,
      "##80": 3658,
      "이름": 3659,
      "##사진": 3660,
      "시상": 3661,
      "##상공": 3662,
      "지구": 3663,
      "전세": 3664,
      "##유율": 3665,
      "유명": 3666,
      "수비": 3667,
      "신뢰": 3668,
      "##천원": 3669,
      "##피언": 3670,
      "조정": 3671,
      "오리": 3672,
      "서명": 3673,
      "##파이": 3674,
      "##파크": 3675,
      "##무즈": 3676,
      "노벨": 3677,
      "의장": 3678,
      "당정": 3679,
      "##루션": 3680,
      "합병": 3681,
      "##범죄": 3682,
      "올해의": 3683,
      "채권": 3684,
      "라인": 3685,
      "레알": 3686,
      "하나금투": 3687,
      "육박": 3688,
      "과기정통부": 3689,
      "호르무즈": 3690,
      "제임스": 3691,
      "6명": 3692,
      "mb": 3693,
      "샤": 3694,
      "콜": 3695,
      "##묵": 3696,
      "##샤": 3697,
      "##ᅱᆫ": 3698,
      "##데이터": 3699,
      "##프ᄅ": 3700,
      "##60": 3701,
      "##도에": 3702,
      "##장비": 3703,
      "##정규": 3704,
      "시스템": 3705,
      "지진": 3706,
      "아동": 3707,
      "아니다": 3708,
      "##행위": 3709,
      "##공동": 3710,
      "##소득": 3711,
      "하늘": 3712,
      "고민": 3713,
      "##영표": 3714,
      "##체제": 3715,
      "안해": 3716,
      "어디": 3717,
      "셀": 3718,
      "예방": 3719,
      "재판": 3720,
      "법정": 3721,
      "듣": 3722,
      "12월": 3723,
      "150": 3724,
      "##켈": 3725,
      "접수": 3726,
      "갤노트8": 3727,
      "##기자협회": 3728,
      "거래소": 3729,
      "헌법": 3730,
      "이틀째": 3731,
      "장애인": 3732,
      "자율주행": 3733,
      "중소기업": 3734,
      "##드리드": 3735,
      "fifa": 3736,
      "레이": 3737,
      "삭": 3738,
      "얘": 3739,
      "##몬": 3740,
      "##렁": 3741,
      "##3사": 3742,
      "##리스트": 3743,
      "전주": 3744,
      "개장": 3745,
      "유상증자": 3746,
      "화천": 3747,
      "수입": 3748,
      "##빛": 3749,
      "부족": 3750,
      "내한": 3751,
      "##마르": 3752,
      "상품": 3753,
      "##무성": 3754,
      "##방안": 3755,
      "대통령과": 3756,
      "나라": 3757,
      "##르면": 3758,
      "코리아": 3759,
      "동정": 3760,
      "차관": 3761,
      "교사": 3762,
      "포털": 3763,
      "청약": 3764,
      "탓": 3765,
      "타격": 3766,
      "완승": 3767,
      "태극": 3768,
      "##더스": 3769,
      "심각": 3770,
      "##스타인": 3771,
      "석방": 3772,
      "##머니": 3773,
      "신태용호": 3774,
      "이승우": 3775,
      "벤투호": 3776,
      "스위스": 3777,
      "보스턴": 3778,
      "색": 3779,
      "핀": 3780,
      "##놀": 3781,
      "##하자": 3782,
      "##하려": 3783,
      "##리니": 3784,
      "대부": 3785,
      "##주주": 3786,
      "지켜": 3787,
      "아마": 3788,
      "##ᅥᆨ정": 3789,
      "공사": 3790,
      "가속": 3791,
      "##천만원": 3792,
      "선출": 3793,
      "김기": 3794,
      "##승민": 3795,
      "##호골": 3796,
      "##경쟁": 3797,
      "자신": 3798,
      "해소": 3799,
      "##바논": 3800,
      "##테러": 3801,
      "##협의회": 3802,
      "원정": 3803,
      "후원": 3804,
      "##코리아": 3805,
      "특수": 3806,
      "속보": 3807,
      "지원금": 3808,
      "본회의": 3809,
      "명단": 3810,
      "눈앞": 3811,
      "송환": 3812,
      "##특위": 3813,
      "좋아": 3814,
      "갤노트7": 3815,
      "이재영": 3816,
      "주의보": 3817,
      "메시지": 3818,
      "범죄": 3819,
      "밝혀": 3820,
      "연합뉴스": 3821,
      "랜": 3822,
      "##노동자": 3823,
      "만든다": 3824,
      "도로공사": 3825,
      "나경원": 3826,
      "깜짝": 3827,
      "##크롱": 3828,
      "##정규직": 3829,
      "3당": 3830,
      "4일": 3831,
      "52": 3832,
      "멈": 3833,
      "벗": 3834,
      "셔": 3835,
      "펼": 3836,
      "##렉": 3837,
      "##팩": 3838,
      "##쪽": 3839,
      "##이지": 3840,
      "##국회": 3841,
      "##제품": 3842,
      "전교": 3843,
      "신세계": 3844,
      "##ᅳ려": 3845,
      "##공개": 3846,
      "최우": 3847,
      "##영화": 3848,
      "자산": 3849,
      "##중앙": 3850,
      "의무": 3851,
      "##협정": 3852,
      "총력": 3853,
      "##놓": 3854,
      "교황": 3855,
      "임박": 3856,
      "충청": 3857,
      "알파고": 3858,
      "패스트": 3859,
      "네이마르": 3860,
      "##졌다": 3861,
      "끝나": 3862,
      "기대감": 3863,
      "레바논": 3864,
      "##받아": 3865,
      "공급계약": 3866,
      "벌금": 3867,
      "발언하는": 3868,
      "대신증권": 3869,
      "돌아온": 3870,
      "잔류": 3871,
      "대체로": 3872,
      "김학범": 3873,
      "크리스": 3874,
      "메르켈": 3875,
      "얘기": 3876,
      "9일": 3877,
      "브리": 3878,
      "텍": 3879,
      "##혈": 3880,
      "##ᆯ시": 3881,
      "##뤄": 3882,
      "##브로": 3883,
      "##튼": 3884,
      "##ᆺ새": 3885,
      "##꾼": 3886,
      "##ᆮ아": 3887,
      "##스리그": 3888,
      "##리에": 3889,
      "##기구": 3890,
      "##자로": 3891,
      "##수단": 3892,
      "사임": 3893,
      "##요일": 3894,
      "아르": 3895,
      "전체": 3896,
      "개방": 3897,
      "##유출": 3898,
      "갑": 3899,
      "마크롱": 3900,
      "제품": 3901,
      "출근": 3902,
      "염": 3903,
      "##경보": 3904,
      "##경찰": 3905,
      "보는": 3906,
      "우선": 3907,
      "위원": 3908,
      "##중계": 3909,
      "##실적": 3910,
      "통해": 3911,
      "차별": 3912,
      "박지원": 3913,
      "##병원": 3914,
      "판단": 3915,
      "취약": 3916,
      "2017": 3917,
      "법무": 3918,
      "직장": 3919,
      "##만원대": 3920,
      "클래": 3921,
      "##개월만에": 3922,
      "25일": 3923,
      "키움": 3924,
      "흑자": 3925,
      "패스트트랙": 3926,
      "44": 3927,
      "7명": 3928,
      "ps": 3929,
      "걱정": 3930,
      "딸": 3931,
      "##덜": 3932,
      "##화폐": 3933,
      "주당": 3934,
      "지명": 3935,
      "##수업": 3936,
      "전역": 3937,
      "전투": 3938,
      "공유": 3939,
      "##빙": 3940,
      "인증": 3941,
      "마케": 3942,
      "비행": 3943,
      "내전": 3944,
      "조직": 3945,
      "보여": 3946,
      "해수": 3947,
      "스웨": 3948,
      "방북": 3949,
      "##중단": 3950,
      "구름": 3951,
      "파견": 3952,
      "손잡": 3953,
      "##병우": 3954,
      "언제": 3955,
      "##더블": 3956,
      "##악관": 3957,
      "창원": 3958,
      "군부": 3959,
      "휴가": 3960,
      "선수들": 3961,
      "네트워크": 3962,
      "번역": 3963,
      "콘서트": 3964,
      "28일": 3965,
      "너무": 3966,
      "ceo": 3967,
      "떨어": 3968,
      "37": 3969,
      "d1": 3970,
      "##뮤": 3971,
      "##ᆷ파": 3972,
      "##콜": 3973,
      "##지에": 3974,
      "##지사": 3975,
      "##지방": 3976,
      "##사스": 3977,
      "##사건": 3978,
      "기간": 3979,
      "##인가": 3980,
      "지상": 3981,
      "유승민": 3982,
      "마스크": 3983,
      "##연휴": 3984,
      "선보": 3985,
      "##안보": 3986,
      "비밀": 3987,
      "##미애": 3988,
      "##당국": 3989,
      "상임": 3990,
      "도움": 3991,
      "의사": 3992,
      "동영상": 3993,
      "차이": 3994,
      "불발": 3995,
      "원격": 3996,
      "작품": 3997,
      "에어": 3998,
      "##00억원": 3999,
      "##ᅳ랜드": 4000,
      "##해야종합": 4001,
      "대표이사": 4002,
      "탬파": 4003,
      "채널": 4004,
      "##레스타인": 4005,
      "30일": 4006,
      "운동": 4007,
      "못해": 4008,
      "인터뷰": 4009,
      "##쇼핑": 4010,
      "맨시티": 4011,
      "아프간": 4012,
      "26일": 4013,
      "얼굴": 4014,
      "##섬웨어": 4015,
      "2020년": 4016,
      "스타트업": 4017,
      "블록체인": 4018,
      "##상공인": 4019,
      "랜섬웨어": 4020,
      "탬파베이": 4021,
      "la": 4022,
      "둘": 4023,
      "땅": 4024,
      "액": 4025,
      "##룬": 4026,
      "##ᆺ불": 4027,
      "##킨": 4028,
      "##8억원": 4029,
      "대승": 4030,
      "전원": 4031,
      "한중": 4032,
      "한투": 4033,
      "개설": 4034,
      "국고": 4035,
      "정지": 4036,
      "가계": 4037,
      "##공시": 4038,
      "##칠": 4039,
      "##천어": 4040,
      "마드리드": 4041,
      "제기": 4042,
      "김무성": 4043,
      "출연": 4044,
      "출석": 4045,
      "##영업": 4046,
      "모델": 4047,
      "무장": 4048,
      "일대": 4049,
      "소방": 4050,
      "다운": 4051,
      "##바람": 4052,
      "만의": 4053,
      "만남": 4054,
      "재난": 4055,
      "##법인": 4056,
      "##둥": 4057,
      "벨": 4058,
      "리그": 4059,
      "중국인": 4060,
      "##워치": 4061,
      "창작": 4062,
      "##습니다": 4063,
      "극복": 4064,
      "##손실": 4065,
      "16강": 4066,
      "정상화": 4067,
      "##받는": 4068,
      "팔레스타인": 4069,
      "안보리": 4070,
      "풍성": 4071,
      "사실상": 4072,
      "억류": 4073,
      "캠페인": 4074,
      "올스타전": 4075,
      "프리미엄": 4076,
      "##맞이": 4077,
      "kcc": 4078,
      "##크숍": 4079,
      "전교조": 4080,
      "39": 4081,
      "3경기": 4082,
      "4연승": 4083,
      "8강": 4084,
      "둔": 4085,
      "##솔": 4086,
      "##폴": 4087,
      "##gb": 4088,
      "##ᆰ은": 4089,
      "##ᅥᆼ가": 4090,
      "##지대": 4091,
      "##지고": 4092,
      "##서울": 4093,
      "##대화": 4094,
      "##대우": 4095,
      "##자가": 4096,
      "##국가": 4097,
      "##가격": 4098,
      "지하": 4099,
      "##통일": 4100,
      "유로": 4101,
      "국토": 4102,
      "신종": 4103,
      "##소설": 4104,
      "연정": 4105,
      "추미애": 4106,
      "##미디어": 4107,
      "오른": 4108,
      "모색": 4109,
      "##방지": 4110,
      "위성": 4111,
      "##렸다": 4112,
      "##크스": 4113,
      "총재": 4114,
      "##작전": 4115,
      "이란에": 4116,
      "##외교": 4117,
      "활약": 4118,
      "백악관": 4119,
      "목표주가": 4120,
      "윤석": 4121,
      "악수": 4122,
      "2018년": 4123,
      "존슨": 4124,
      "혐의로": 4125,
      "사령탑": 4126,
      "움직": 4127,
      "텍사스": 4128,
      "국고채": 4129,
      "1주": 4130,
      "1승": 4131,
      "5연승": 4132,
      "6일": 4133,
      "낭": 4134,
      "##첩": 4135,
      "##지주": 4136,
      "##은혜": 4137,
      "##세트": 4138,
      "융": 4139,
      "유은혜": 4140,
      "신중": 4141,
      "가자": 4142,
      "중재": 4143,
      "제3": 4144,
      "김해": 4145,
      "비중": 4146,
      "보상": 4147,
      "강제": 4148,
      "##학규": 4149,
      "무인": 4150,
      "나흘": 4151,
      "방안": 4152,
      "소프트": 4153,
      "20일": 4154,
      "##바다": 4155,
      "10대": 4156,
      "##환경": 4157,
      "포스코": 4158,
      "##저가": 4159,
      "손학규": 4160,
      "야권": 4161,
      "집행": 4162,
      "##스트리아": 4163,
      "생존": 4164,
      "심사": 4165,
      "여자축구": 4166,
      "개막전": 4167,
      "황총리": 4168,
      "제주도": 4169,
      "점유율": 4170,
      "클리": 4171,
      "##클럽": 4172,
      "참석한": 4173,
      "숨져": 4174,
      "북미정상회담": 4175,
      "##과학관": 4176,
      "카드뉴스": 4177,
      "이유는": 4178,
      "호남권": 4179,
      "트리플": 4180,
      "쏟아": 4181,
      "무승부": 4182,
      "2개": 4183,
      "ip": 4184,
      "pc": 4185,
      "헝가": 4186,
      "##곤": 4187,
      "##툰": 4188,
      "##24": 4189,
      "##ᆻ는데": 4190,
      "##케이": 4191,
      "##시리즈": 4192,
      "##기준": 4193,
      "##해도": 4194,
      "##주자": 4195,
      "##주는": 4196,
      "##수비": 4197,
      "##얀": 4198,
      "개소": 4199,
      "개관": 4200,
      "##위로": 4201,
      "공천": 4202,
      "부패": 4203,
      "우크라": 4204,
      "오스트리아": 4205,
      "##니지": 4206,
      "스키": 4207,
      "스포츠": 4208,
      "##여름": 4209,
      "방역": 4210,
      "소나": 4211,
      "소상공인": 4212,
      "반기": 4213,
      "의결": 4214,
      "관측": 4215,
      "##건축": 4216,
      "배당": 4217,
      "더위": 4218,
      "##준표": 4219,
      "홍영표": 4220,
      "임금": 4221,
      "##음악": 4222,
      "취재": 4223,
      "작년보다": 4224,
      "심판": 4225,
      "12일": 4226,
      "눈물": 4227,
      "말라": 4228,
      "철도": 4229,
      "음식": 4230,
      "##돼야": 4231,
      "23일": 4232,
      "남자농구": 4233,
      "존재": 4234,
      "바뀌": 4235,
      "소비자": 4236,
      "챔피언": 4237,
      "일제히": 4238,
      "나누는": 4239,
      "ibk": 4240,
      "스웨덴": 4241,
      "49": 4242,
      "8명": 4243,
      "wt": 4244,
      "wn": 4245,
      "쟁": 4246,
      "##주식": 4247,
      "시동": 4248,
      "##전망": 4249,
      "주재": 4250,
      "지키": 4251,
      "##아웃": 4252,
      "아름": 4253,
      "개입": 4254,
      "##세이": 4255,
      "##공원": 4256,
      "추이": 4257,
      "##연금": 4258,
      "##연설": 4259,
      "선전": 4260,
      "우병우": 4261,
      "무르": 4262,
      "해킹": 4263,
      "##르는": 4264,
      "돕": 4265,
      "의료": 4266,
      "##법안": 4267,
      "성능": 4268,
      "총기": 4269,
      "진단": 4270,
      "특허": 4271,
      "것종합": 4272,
      "폭행": 4273,
      "폭력": 4274,
      "폭탄": 4275,
      "홍준표": 4276,
      "돌봄": 4277,
      "채택": 4278,
      "##처리": 4279,
      "2016": 4280,
      "본선": 4281,
      "##람회": 4282,
      "심의": 4283,
      "##투자증권": 4284,
      "네덜": 4285,
      "뒷": 4286,
      "22일": 4287,
      "24일": 4288,
      "참석하는": 4289,
      "잡고": 4290,
      "용의": 4291,
      "여전히": 4292,
      "wnba": 4293,
      "네덜란드": 4294,
      "2일": 4295,
      "47": 4296,
      "7년": 4297,
      "ms": 4298,
      "뽑": 4299,
      "짜": 4300,
      "##첨": 4301,
      "##랭": 4302,
      "##ᆨ트": 4303,
      "##리지": 4304,
      "##대한": 4305,
      "##사로": 4306,
      "기본": 4307,
      "##합니다": 4308,
      "##인들": 4309,
      "##보니": 4310,
      "##수석": 4311,
      "전대": 4312,
      "공략": 4313,
      "##만의": 4314,
      "유영": 4315,
      "화성": 4316,
      "수요": 4317,
      "인재": 4318,
      "인니": 4319,
      "믿": 4320,
      "중도": 4321,
      "부정": 4322,
      "##천억": 4323,
      "선박": 4324,
      "김현": 4325,
      "김광": 4326,
      "##신청": 4327,
      "고조": 4328,
      "고속": 4329,
      "무더위": 4330,
      "해상": 4331,
      "해양": 4332,
      "발목": 4333,
      "방한": 4334,
      "통제": 4335,
      "##석희": 4336,
      "동남": 4337,
      "관세": 4338,
      "##물질": 4339,
      "포럼": 4340,
      "카톡": 4341,
      "##00명": 4342,
      "##되면": 4343,
      "생중계": 4344,
      "탈환": 4345,
      "##ᆯ링": 4346,
      "말레이": 4347,
      "않는": 4348,
      "##없다": 4349,
      "##받은": 4350,
      "편집": 4351,
      "찾았다": 4352,
      "##확인": 4353,
      "27일": 4354,
      "폴란드": 4355,
      "바이오": 4356,
      "근로자": 4357,
      "김동연": 4358,
      "##인터넷": 4359,
      "위안부": 4360,
      "3대": 4361,
      "3사": 4362,
      "et": 4363,
      "##써": 4364,
      "##11": 4365,
      "##이고": 4366,
      "이르면": 4367,
      "##김": 4368,
      "##어야": 4369,
      "##사들": 4370,
      "##화학": 4371,
      "기다": 4372,
      "기억": 4373,
      "##닷": 4374,
      "시사": 4375,
      "##가족": 4376,
      "지연": 4377,
      "##제도": 4378,
      "유통": 4379,
      "수험": 4380,
      "신영": 4381,
      "##빌": 4382,
      "##ᅦ이드": 4383,
      "##공장": 4384,
      "최근": 4385,
      "##조직": 4386,
      "김재": 4387,
      "여객": 4388,
      "빌": 4389,
      "고양": 4390,
      "##경영": 4391,
      "##프라": 4392,
      "상한": 4393,
      "나는": 4394,
      "방심": 4395,
      "구호": 4396,
      "만화": 4397,
      "남아": 4398,
      "피서": 4399,
      "실업": 4400,
      "결제": 4401,
      "박차": 4402,
      "##작가": 4403,
      "포항": 4404,
      "##ᆯ람": 4405,
      "##에서도": 4406,
      "손석희": 4407,
      "분리": 4408,
      "분쟁": 4409,
      "열린": 4410,
      "영업손실": 4411,
      "목소리": 4412,
      "사망종합": 4413,
      "##된다": 4414,
      "아시안컵": 4415,
      "악화": 4416,
      "인사말": 4417,
      "퇴진": 4418,
      "##연구원": 4419,
      "워크숍": 4420,
      "사회적": 4421,
      "토론토": 4422,
      "확진자": 4423,
      "##늄": 4424,
      "##흡": 4425,
      "트위": 4426,
      "가짜뉴스": 4427,
      "##놀이": 4428,
      "키움증권": 4429,
      "마케팅": 4430,
      "46": 4431,
      "4개": 4432,
      "u20": 4433,
      "긍": 4434,
      "##네시": 4435,
      "##이라": 4436,
      "##스로": 4437,
      "이인": 4438,
      "대기업": 4439,
      "기승": 4440,
      "##정당": 4441,
      "주춤": 4442,
      "아랍": 4443,
      "전화": 4444,
      "##라마": 4445,
      "##유가": 4446,
      "가스": 4447,
      "가빈": 4448,
      "빗": 4449,
      "영남": 4450,
      "상생": 4451,
      "무대": 4452,
      "안개": 4453,
      "##생활": 4454,
      "세상": 4455,
      "반환": 4456,
      "##결과": 4457,
      "박병": 4458,
      "외인": 4459,
      "진실": 4460,
      "욕": 4461,
      "파리": 4462,
      "첼시": 4463,
      "규명": 4464,
      "맞춤": 4465,
      "##앱": 4466,
      "내일부터": 4467,
      "않을": 4468,
      "##블랜드": 4469,
      "살아": 4470,
      "플레이": 4471,
      "악재": 4472,
      "콘퍼런스": 4473,
      "##욕장": 4474,
      "주식형": 4475,
      "사용자": 4476,
      "정의당": 4477,
      "어떤": 4478,
      "전자랜드": 4479,
      "이정현": 4480,
      "##키스탄": 4481,
      "즉각": 4482,
      "소식에": 4483,
      "베이징": 4484,
      "아르헨": 4485,
      "클래식": 4486,
      "헝가리": 4487,
      "2만": 4488,
      "3일": 4489,
      "fc": 4490,
      "꼭": 4491,
      "쌀": 4492,
      "칼": 4493,
      "혈": 4494,
      "##멸": 4495,
      "##엽": 4496,
      "##뱅크": 4497,
      "##sa": 4498,
      "##느": 4499,
      "##크로": 4500,
      "##쓰": 4501,
      "##ist": 4502,
      "##기지": 4503,
      "##도록": 4504,
      "##화점": 4505,
      "시리즈": 4506,
      "##과정": 4507,
      "##전기": 4508,
      "##보안": 4509,
      "주문": 4510,
      "##트로": 4511,
      "##젝트": 4512,
      "아들": 4513,
      "##위성": 4514,
      "공항": 4515,
      "##세력": 4516,
      "정면": 4517,
      "및": 4518,
      "연일": 4519,
      "##관위": 4520,
      "비서": 4521,
      "조심": 4522,
      "##란히": 4523,
      "묻": 4524,
      "발굴": 4525,
      "나란히": 4526,
      "세기의": 4527,
      "동참": 4528,
      "##거운": 4529,
      "##카이": 4530,
      "차질": 4531,
      "실험": 4532,
      "성적": 4533,
      "##버지": 4534,
      "삼성증권": 4535,
      "원주": 4536,
      "교보": 4537,
      "와이": 4538,
      "협치": 4539,
      "##등급": 4540,
      "축사": 4541,
      "열기": 4542,
      "산불": 4543,
      "독자": 4544,
      "완성": 4545,
      "##씩": 4546,
      "황금": 4547,
      "디스플레이": 4548,
      "처분": 4549,
      "격돌": 4550,
      "##없어": 4551,
      "쿠바": 4552,
      "##연구소": 4553,
      "##했던": 4554,
      "29일": 4555,
      "샌더스": 4556,
      "어려워": 4557,
      "유니폼": 4558,
      "아마존": 4559,
      "1조원": 4560,
      "ar": 4561,
      "ebs": 4562,
      "v리그": 4563,
      "그린": 4564,
      "엇": 4565,
      "##ᅨᆫ": 4566,
      "##ls": 4567,
      "##에스": 4568,
      "##지엄": 4569,
      "##엇": 4570,
      "대기": 4571,
      "기초": 4572,
      "##정원": 4573,
      "##다가": 4574,
      "##상황": 4575,
      "##보증": 4576,
      "##수도": 4577,
      "아스": 4578,
      "개학": 4579,
      "##라스": 4580,
      "가치": 4581,
      "인종": 4582,
      "과제": 4583,
      "최선": 4584,
      "##용차": 4585,
      "##간다": 4586,
      "##조금": 4587,
      "##단지": 4588,
      "추위": 4589,
      "보내": 4590,
      "자격": 4591,
      "##랩": 4592,
      "안내": 4593,
      "##북부": 4594,
      "문체": 4595,
      "다양": 4596,
      "도심": 4597,
      "의지": 4598,
      "재산": 4599,
      "동의": 4600,
      "호소": 4601,
      "확장": 4602,
      "매직": 4603,
      "결국": 4604,
      "삼성생명": 4605,
      "진정": 4606,
      "포근": 4607,
      "임기": 4608,
      "타이": 4609,
      "생명": 4610,
      "11일": 4611,
      "맞은": 4612,
      "물러": 4613,
      "휴전": 4614,
      "13일": 4615,
      "유럽의회": 4616,
      "16일": 4617,
      "농협": 4618,
      "지도자": 4619,
      "신한금투": 4620,
      "공공기관": 4621,
      "##긴다": 4622,
      "빅데이터": 4623,
      "망명": 4624,
      "견제": 4625,
      "##보고서": 4626,
      "미래에셋대우": 4627,
      "대우조선": 4628,
      "오리온": 4629,
      "2연패": 4630,
      "3개월": 4631,
      "48": 4632,
      "까": 4633,
      "촬영": 4634,
      "폰": 4635,
      "##렵": 4636,
      "##렌": 4637,
      "##sc": 4638,
      "##톤": 4639,
      "##테이": 4640,
      "##ᆺ비": 4641,
      "##꾸": 4642,
      "##하기": 4643,
      "##리바": 4644,
      "이낙": 4645,
      "##어나": 4646,
      "##사단": 4647,
      "##고가": 4648,
      "##괄": 4649,
      "주간": 4650,
      "##아차": 4651,
      "##동원": 4652,
      "미니": 4653,
      "##간담회": 4654,
      "마약": 4655,
      "마치고": 4656,
      "김진": 4657,
      "##마스": 4658,
      "##학회": 4659,
      "상호": 4660,
      "무선": 4661,
      "##차별": 4662,
      "나들이": 4663,
      "##타임": 4664,
      "##분간": 4665,
      "##르크": 4666,
      "10일": 4667,
      "세터": 4668,
      "예측": 4669,
      "재선": 4670,
      "동물": 4671,
      "현지": 4672,
      "총장": 4673,
      "매우": 4674,
      "박원": 4675,
      "박영": 4676,
      "ktb": 4677,
      "검증": 4678,
      "열대": 4679,
      "열흘": 4680,
      "kb증권": 4681,
      "양성": 4682,
      "탈당": 4683,
      "탈퇴": 4684,
      "건물": 4685,
      "사망자": 4686,
      "창조": 4687,
      "눈길": 4688,
      "##폭탄": 4689,
      "허위": 4690,
      "논란에": 4691,
      "##변화": 4692,
      "강원권": 4693,
      "절차": 4694,
      "약속": 4695,
      "통신비": 4696,
      "하나금융": 4697,
      "공모전": 4698,
      "즐기는": 4699,
      "2019년": 4700,
      "##문학상": 4701,
      "kbo리그": 4702,
      "가상화폐": 4703,
      "솔루션": 4704,
      "택시": 4705,
      "한투증권": 4706,
      "클리블랜드": 4707,
      "이낙연": 4708,
      "4위": 4709,
      "55": 4710,
      "6년": 4711,
      "g20": 4712,
      "lh": 4713,
      "rfa": 4714,
      "sw": 4715,
      "굴": 4716,
      "꼬": 4717,
      "던": 4718,
      "봐": 4719,
      "##ᆽ꽃": 4720,
      "##ᆷ버": 4721,
      "##ᅰ손": 4722,
      "##빠": 4723,
      "잃": 4724,
      "##해보험": 4725,
      "##사채": 4726,
      "##장애": 4727,
      "##전선": 4728,
      "##부장": 4729,
      "##드로": 4730,
      "공포": 4731,
      "화면": 4732,
      "정국": 4733,
      "##비전": 4734,
      "중대": 4735,
      "김경": 4736,
      "비정규직": 4737,
      "조작": 4738,
      "##미터": 4739,
      "오존": 4740,
      "##닉": 4741,
      "자영업": 4742,
      "무력": 4743,
      "##포지엄": 4744,
      "의심": 4745,
      "피아": 4746,
      "관중": 4747,
      "실시간": 4748,
      "성남": 4749,
      "##매치": 4750,
      "박근": 4751,
      "포켓": 4752,
      "폭우": 4753,
      "폭격": 4754,
      "합동": 4755,
      "광화": 4756,
      "앞세": 4757,
      "##징금": 4758,
      "남북정상": 4759,
      "100만": 4760,
      "디자인": 4761,
      "휴대": 4762,
      "휴식": 4763,
      "##메달": 4764,
      "넘겨": 4765,
      "끝에": 4766,
      "막판": 4767,
      "격려": 4768,
      "##지원금": 4769,
      "커져": 4770,
      "높아": 4771,
      "갤럭시s10": 4772,
      "방통위원장": 4773,
      "무역전쟁": 4774,
      "벌써": 4775,
      "이통3사": 4776,
      "이동통신": 4777,
      "싸움": 4778,
      "병원": 4779,
      "바르사": 4780,
      "대설주의보": 4781,
      "##중국해": 4782,
      "삭제": 4783,
      "수험생": 4784,
      "2억": 4785,
      "51": 4786,
      "99": 4787,
      "vn": 4788,
      "펜": 4789,
      "##ᆸ게": 4790,
      "##봐": 4791,
      "##로드": 4792,
      "##기고": 4793,
      "댓": 4794,
      "대폭": 4795,
      "##화에": 4796,
      "기상": 4797,
      "##보도": 4798,
      "주인": 4799,
      "##아이": 4800,
      "##제리": 4801,
      "아가": 4802,
      "아우": 4803,
      "공장": 4804,
      "##업원": 4805,
      "##만9": 4806,
      "정세": 4807,
      "신작": 4808,
      "가는": 4809,
      "##공격": 4810,
      "최태": 4811,
      "미리": 4812,
      "연임": 4813,
      "연루": 4814,
      "김병": 4815,
      "빙": 4816,
      "조회": 4817,
      "오찬": 4818,
      "서부": 4819,
      "##체스": 4820,
      "##체계": 4821,
      "자사": 4822,
      "해야": 4823,
      "해운": 4824,
      "방침": 4825,
      "소폭": 4826,
      "소득": 4827,
      "##중해": 4828,
      "##바리니": 4829,
      "##포르": 4830,
      "남중국해": 4831,
      "##독립": 4832,
      "재활": 4833,
      "동맹": 4834,
      "현재": 4835,
      "배후": 4836,
      "카슈": 4837,
      "단속": 4838,
      "초대": 4839,
      "참사": 4840,
      "당신": 4841,
      "##되나": 4842,
      "임원": 4843,
      "임종": 4844,
      "돌풍": 4845,
      "##엔터": 4846,
      "타고": 4847,
      "산체스": 4848,
      "앞으로": 4849,
      "양키스": 4850,
      "30년": 4851,
      "운항": 4852,
      "변수": 4853,
      "##희찬": 4854,
      "간다": 4855,
      "##페라": 4856,
      "제주권": 4857,
      "순방": 4858,
      "##캠프": 4859,
      "국가대표": 4860,
      "넷": 4861,
      "표현": 4862,
      "인사하는": 4863,
      "퇴장": 4864,
      "담은": 4865,
      "국립현대": 4866,
      "##갈등": 4867,
      "정의용": 4868,
      "싶다": 4869,
      "끝내기": 4870,
      "대부분": 4871,
      "이인영": 4872,
      "문체부": 4873,
      "박원순": 4874,
      "1보": 4875,
      "42": 4876,
      "43": 4877,
      "5년간": 4878,
      "65": 4879,
      "6개월": 4880,
      "7이닝": 4881,
      "9명": 4882,
      "##몽": 4883,
      "##셜": 4884,
      "##컨": 4885,
      "##리랑": 4886,
      "이사장": 4887,
      "##기념": 4888,
      "##자체": 4889,
      "대국": 4890,
      "##도서": 4891,
      "깊": 4892,
      "##인식": 4893,
      "지휘": 4894,
      "##성과": 4895,
      "사법": 4896,
      "한강": 4897,
      "공세": 4898,
      "정신": 4899,
      "신속": 4900,
      "신기록": 4901,
      "같": 4902,
      "##나이": 4903,
      "과징금": 4904,
      "연대": 4905,
      "연주": 4906,
      "연계": 4907,
      "연설": 4908,
      "추방": 4909,
      "마을": 4910,
      "여당": 4911,
      "##우스": 4912,
      "하이": 4913,
      "##들에": 4914,
      "##들어": 4915,
      "오세요": 4916,
      "##니어": 4917,
      "한국의": 4918,
      "자리": 4919,
      "##교류": 4920,
      "##타르": 4921,
      "##티브": 4922,
      "방사": 4923,
      "감시": 4924,
      "소리": 4925,
      "소속": 4926,
      "##배치": 4927,
      "남녀": 4928,
      "##운영": 4929,
      "재정": 4930,
      "피츠": 4931,
      "##현실": 4932,
      "현황": 4933,
      "##키나": 4934,
      "##디션": 4935,
      "불만": 4936,
      "평년": 4937,
      "횡": 4938,
      "진상": 4939,
      "촛불": 4940,
      "##총회": 4941,
      "축하": 4942,
      "##추진": 4943,
      "속출": 4944,
      "월드": 4945,
      "알려": 4946,
      "알제리": 4947,
      "국민은행": 4948,
      "30대": 4949,
      "본다": 4950,
      "변호": 4951,
      "100년": 4952,
      "##페스티벌": 4953,
      "##메일": 4954,
      "이슬람": 4955,
      "클린": 4956,
      "접촉": 4957,
      "누가": 4958,
      "교육부": 4959,
      "정의장": 4960,
      "볼턴": 4961,
      "헌재": 4962,
      "한파주의보": 4963,
      "##있는": 4964,
      "##싸움": 4965,
      "단일팀": 4966,
      "나쁨": 4967,
      "획득": 4968,
      "일대일로": 4969,
      "소나기": 4970,
      "박병호": 4971,
      "열대야": 4972,
      "54": 4973,
      "75": 4974,
      "kg": 4975,
      "데이": 4976,
      "런": 4977,
      "에이스": 4978,
      "찜": 4979,
      "컵": 4980,
      "##힘": 4981,
      "##밤": 4982,
      "##sd": 4983,
      "##ᆻ죠": 4984,
      "##큼": 4985,
      "##35": 4986,
      "##리즘": 4987,
      "잉": 4988,
      "이대": 4989,
      "##자의": 4990,
      "##주간": 4991,
      "기가": 4992,
      "지자체": 4993,
      "##않": 4994,
      "##아트": 4995,
      "한때": 4996,
      "##ᅩᆯ찌": 4997,
      "##통화": 4998,
      "유대": 4999,
      "정진": 5000,
      "신입": 5001,
      "##소프트": 5002,
      "##조작": 5003,
      "경험": 5004,
      "중계": 5005,
      "부품": 5006,
      "##연대": 5007,
      "여사": 5008,
      "##승환": 5009,
      "보장": 5010,
      "##마다": 5011,
      "##교체": 5012,
      "굳": 5013,
      "구자": 5014,
      "재계약": 5015,
      "재건축": 5016,
      "새벽": 5017,
      "##할인": 5018,
      "거짓": 5019,
      "배우": 5020,
      "##직자": 5021,
      "엘": 5022,
      "체감": 5023,
      "리버": 5024,
      "##번호": 5025,
      "운명": 5026,
      "북한날씨": 5027,
      "120": 5028,
      "라바리니": 5029,
      "국제유가": 5030,
      "선수단": 5031,
      "18일": 5032,
      "줄줄": 5033,
      "벚꽃": 5034,
      "3년물": 5035,
      "오후부터": 5036,
      "갤럭시s9": 5037,
      "무역협상": 5038,
      "소설가": 5039,
      "넣": 5040,
      "개헌안": 5041,
      "빠진": 5042,
      "민간인": 5043,
      "찍": 5044,
      "이미지": 5045,
      "나온다": 5046,
      "최우수": 5047,
      "맞춤형": 5048,
      "아스널": 5049,
      "박근혜": 5050,
      "vnl": 5051,
      "댓글": 5052,
      "4대": 5053,
      "vo": 5054,
      "크루": 5055,
      "##ᅪᆼ": 5056,
      "##이냐": 5057,
      "##자책": 5058,
      "##사이": 5059,
      "##사용": 5060,
      "##정치": 5061,
      "##국장": 5062,
      "시설": 5063,
      "##고속": 5064,
      "전격": 5065,
      "한자리": 5066,
      "##듭": 5067,
      "정체": 5068,
      "##동의": 5069,
      "가까": 5070,
      "인민": 5071,
      "과정": 5072,
      "##소재": 5073,
      "##소타": 5074,
      "미네": 5075,
      "중간": 5076,
      "제로": 5077,
      "제거": 5078,
      "제휴": 5079,
      "##재산": 5080,
      "내용": 5081,
      "자본": 5082,
      "자회사": 5083,
      "##억달러": 5084,
      "##방위": 5085,
      "해법": 5086,
      "일단": 5087,
      "##르기": 5088,
      "호실적": 5089,
      "불꽃": 5090,
      "##결의": 5091,
      "결론": 5092,
      "박정": 5093,
      "skb": 5094,
      "프로젝트": 5095,
      "파키스탄": 5096,
      "로켓": 5097,
      "##복지": 5098,
      "##질랜드": 5099,
      "##루타": 5100,
      "중국서": 5101,
      "균": 5102,
      "앞서": 5103,
      "양자": 5104,
      "경기북부": 5105,
      "최대주주": 5106,
      "급감": 5107,
      "황희찬": 5108,
      "순익": 5109,
      "##캠": 5110,
      "표준": 5111,
      "악성": 5112,
      "14일": 5113,
      "##샘": 5114,
      "외교관": 5115,
      "##효과": 5116,
      "아파트값": 5117,
      "침묵": 5118,
      "갤노트9": 5119,
      "다음달": 5120,
      "지난달": 5121,
      "##될까": 5122,
      "엄마": 5123,
      "이달의": 5124,
      "##얼미터": 5125,
      "2021년": 5126,
      "1차전": 5127,
      "##헬로": 5128,
      "고위급": 5129,
      "1인당": 5130,
      "현금배당": 5131,
      "뚫": 5132,
      "당정청": 5133,
      "브리핑": 5134,
      "지상파": 5135,
      "##천어축제": 5136,
      "둔화": 5137,
      "유영민": 5138,
      "##닷컴": 5139,
      "포켓몬": 5140,
      "피츠버그": 5141,
      "줄줄이": 5142,
      "미네소타": 5143,
      "3연패": 5144,
      "4연패": 5145,
      "53": 5146,
      "6개": 5147,
      "cc": 5148,
      "그ᄅ": 5149,
      "드러": 5150,
      "묘": 5151,
      "브랜드": 5152,
      "컴": 5153,
      "페이": 5154,
      "##죽": 5155,
      "##잠": 5156,
      "##ᆸ다": 5157,
      "##벼": 5158,
      "##ᆷ비아": 5159,
      "##팔": 5160,
      "##db": 5161,
      "##스와": 5162,
      "이하": 5163,
      "##도종합": 5164,
      "##장치": 5165,
      "기원": 5166,
      "시기": 5167,
      "시내": 5168,
      "##가능": 5169,
      "##가포르": 5170,
      "##인에": 5171,
      "##인의": 5172,
      "##수사": 5173,
      "##한림": 5174,
      "##젠": 5175,
      "한전": 5176,
      "##유럽": 5177,
      "##유착": 5178,
      "공조": 5179,
      "유감": 5180,
      "수술": 5181,
      "##동성": 5182,
      "가정": 5183,
      "##나라": 5184,
      "과시": 5185,
      "##공간": 5186,
      "부당": 5187,
      "부활": 5188,
      "##단계": 5189,
      "제도": 5190,
      "제정": 5191,
      "선고": 5192,
      "출입": 5193,
      "조건": 5194,
      "오승환": 5195,
      "##닉스": 5196,
      "##파업": 5197,
      "상원": 5198,
      "상륙": 5199,
      "스피커": 5200,
      "##티오": 5201,
      "방지": 5202,
      "##모바일": 5203,
      "바로": 5204,
      "바라": 5205,
      "통보": 5206,
      "의미": 5207,
      "##투어": 5208,
      "##맵": 5209,
      "##매체": 5210,
      "매력": 5211,
      "##코로나": 5212,
      "거포": 5213,
      "당부": 5214,
      "태영": 5215,
      "##근로": 5216,
      "올해도": 5217,
      "적발": 5218,
      "##히는": 5219,
      "##레반": 5220,
      "변신": 5221,
      "갤럭시노트": 5222,
      "##메즈": 5223,
      "처벌": 5224,
      "친박": 5225,
      "번호": 5226,
      "하나은행": 5227,
      "사이영상": 5228,
      "받은": 5229,
      "뉴질랜드": 5230,
      "##효성": 5231,
      "몰려": 5232,
      "학생들": 5233,
      "nhn": 5234,
      "##충돌": 5235,
      "티켓": 5236,
      "유치원": 5237,
      "맑고": 5238,
      "nh투자증권": 5239,
      "kb손보": 5240,
      "센터": 5241,
      "흡": 5242,
      "시상식": 5243,
      "신종코로나": 5244,
      "쟁점": 5245,
      "방심위": 5246,
      "##네시아": 5247,
      "엇갈": 5248,
      "아가메즈": 5249,
      "2보": 5250,
      "3만": 5251,
      "400": 5252,
      "5차": 5253,
      "64": 5254,
      "nl": 5255,
      "앙": 5256,
      "졸": 5257,
      "##9억원": 5258,
      "##리조": 5259,
      "잊": 5260,
      "##기원": 5261,
      "##어로": 5262,
      "##대행": 5263,
      "##원지": 5264,
      "기획": 5265,
      "##부르크": 5266,
      "지중해": 5267,
      "아웃": 5268,
      "아버지": 5269,
      "전파": 5270,
      "한글": 5271,
      "##위해": 5272,
      "##유치": 5273,
      "공수": 5274,
      "##세기": 5275,
      "유리": 5276,
      "유학생": 5277,
      "정식": 5278,
      "과거": 5279,
      "붙": 5280,
      "##피스": 5281,
      "##영방송": 5282,
      "##마리": 5283,
      "모리": 5284,
      "자체": 5285,
      "##무소": 5286,
      "##교통": 5287,
      "위치": 5288,
      "나토": 5289,
      "##타점": 5290,
      "어렵": 5291,
      "만찬": 5292,
      "반박": 5293,
      "##오프": 5294,
      "동기": 5295,
      "##남기": 5296,
      "##딜": 5297,
      "불허": 5298,
      "불펜": 5299,
      "금호": 5300,
      "거듭": 5301,
      "작전": 5302,
      "##팬": 5303,
      "에너지": 5304,
      "체육": 5305,
      "베를": 5306,
      "입법": 5307,
      "열린다": 5308,
      "대표단": 5309,
      "행동": 5310,
      "30주년": 5311,
      "남북관계": 5312,
      "끊": 5313,
      "방문한": 5314,
      "힐": 5315,
      "통신사": 5316,
      "17일": 5317,
      "인도네시아": 5318,
      "잠실": 5319,
      "떠난": 5320,
      "시민들": 5321,
      "시민단체": 5322,
      "만나는": 5323,
      "빠른": 5324,
      "사람들": 5325,
      "구조조정": 5326,
      "늘려": 5327,
      "떠나는": 5328,
      "사무총장": 5329,
      "슬로": 5330,
      "##셀로나": 5331,
      "멀티골": 5332,
      "싱가포르": 5333,
      "신경전": 5334,
      "콜롬비아": 5335,
      "출근길": 5336,
      "아름다운": 5337,
      "국립현대미술관": 5338,
      "##티오피아": 5339,
      "1일": 5340,
      "2경기": 5341,
      "56": 5342,
      "뿌": 5343,
      "##촬영": 5344,
      "##탐": 5345,
      "##ᆺ한": 5346,
      "##끌": 5347,
      "##mc": 5348,
      "##dp": 5349,
      "##썩": 5350,
      "##이자": 5351,
      "##리고": 5352,
      "##사자": 5353,
      "##보유": 5354,
      "지능": 5355,
      "##트ᄅ": 5356,
      "한다": 5357,
      "##라늄": 5358,
      "유진": 5359,
      "수수": 5360,
      "정경": 5361,
      "##나는": 5362,
      "##소송": 5363,
      "최장": 5364,
      "경주": 5365,
      "추격": 5366,
      "맡": 5367,
      "##안정": 5368,
      "출고가": 5369,
      "빚": 5370,
      "##발사": 5371,
      "##신고": 5372,
      "고소": 5373,
      "강추위": 5374,
      "##파수": 5375,
      "자연": 5376,
      "##방울": 5377,
      "스트": 5378,
      "일주": 5379,
      "닷새": 5380,
      "만족": 5381,
      "반영": 5382,
      "실전": 5383,
      "성추": 5384,
      "##결제": 5385,
      "매진": 5386,
      "진전": 5387,
      "##두로": 5388,
      "##두산": 5389,
      "민심": 5390,
      "배제": 5391,
      "증거": 5392,
      "단기": 5393,
      "단말": 5394,
      "단풍": 5395,
      "협조": 5396,
      "에티오피아": 5397,
      "##질까": 5398,
      "##룸": 5399,
      "정부군": 5400,
      "양국": 5401,
      "행보": 5402,
      "판결": 5403,
      "운행": 5404,
      "복구": 5405,
      "금융위": 5406,
      "기업은행": 5407,
      "국제사회": 5408,
      "19일": 5409,
      "때문": 5410,
      "선거구": 5411,
      "강원도": 5412,
      "접속": 5413,
      "폐막": 5414,
      "누적": 5415,
      "개인전": 5416,
      "잘못": 5417,
      "헬": 5418,
      "##거래소": 5419,
      "fa컵": 5420,
      "4차산업": 5421,
      "국회의장": 5422,
      "희생자": 5423,
      "다운로드": 5424,
      "무릎": 5425,
      "자사주": 5426,
      "리버풀": 5427,
      "2실점": 5428,
      "58": 5429,
      "5경기": 5430,
      "6천": 5431,
      "73": 5432,
      "8개": 5433,
      "as": 5434,
      "ka": 5435,
      "pd": 5436,
      "yt": 5437,
      "묵": 5438,
      "##겸": 5439,
      "##탕": 5440,
      "##눈": 5441,
      "##na": 5442,
      "##이동": 5443,
      "##이면": 5444,
      "##엠": 5445,
      "##리프": 5446,
      "이익": 5447,
      "이마트": 5448,
      "이뤄": 5449,
      "##로봇": 5450,
      "##기금": 5451,
      "##서는": 5452,
      "대피": 5453,
      "시연": 5454,
      "주주": 5455,
      "주력": 5456,
      "##일까": 5457,
      "##수영": 5458,
      "##야종합": 5459,
      "한수": 5460,
      "##명에": 5461,
      "공매": 5462,
      "##공세": 5463,
      "##소서": 5464,
      "연동": 5465,
      "경신": 5466,
      "부통령": 5467,
      "추워": 5468,
      "선제": 5469,
      "선관위": 5470,
      "비리": 5471,
      "비교": 5472,
      "##우승": 5473,
      "조현": 5474,
      "보조금": 5475,
      "우상": 5476,
      "##교사": 5477,
      "해고": 5478,
      "##차관": 5479,
      "나노": 5480,
      "나이지": 5481,
      "##타자": 5482,
      "방법": 5483,
      "##르트": 5484,
      "##밭": 5485,
      "10승": 5486,
      "##렴": 5487,
      "반격": 5488,
      "##임대": 5489,
      "동해": 5490,
      "동아": 5491,
      "동결": 5492,
      "##디아": 5493,
      "매입": 5494,
      "매매": 5495,
      "회견": 5496,
      "외부": 5497,
      "교환": 5498,
      "##급제": 5499,
      "##강화": 5500,
      "거론": 5501,
      "그쳐": 5502,
      "청구": 5503,
      "에버": 5504,
      "##00선": 5505,
      "분위기": 5506,
      "계기": 5507,
      "##즈베": 5508,
      "리더": 5509,
      "생태": 5510,
      "최고치": 5511,
      "독재": 5512,
      "완패": 5513,
      "언어": 5514,
      "알아": 5515,
      "법인": 5516,
      "탈락": 5517,
      "건축": 5518,
      "심화": 5519,
      "간부": 5520,
      "활짝": 5521,
      "음주": 5522,
      "언론노조": 5523,
      "온다": 5524,
      "##블릿": 5525,
      "격파": 5526,
      "노동당": 5527,
      "21일": 5528,
      "방송통신": 5529,
      "잡아": 5530,
      "아이폰8": 5531,
      "의원들": 5532,
      "국정원": 5533,
      "%↑…": 5534,
      "##완화": 5535,
      "##홀딩": 5536,
      "찬성": 5537,
      "신년사": 5538,
      "빨리": 5539,
      "불가피": 5540,
      "##퓨터": 5541,
      "수소탄": 5542,
      "혁명수비": 5543,
      "움직임": 5544,
      "광화문": 5545,
      "구자철": 5546,
      "##한림원": 5547,
      "나이지리아": 5548,
      "5위": 5549,
      "68": 5550,
      "8천": 5551,
      "ko": 5552,
      "곤": 5553,
      "덜": 5554,
      "에이": 5555,
      "죄": 5556,
      "쾌": 5557,
      "톈": 5558,
      "##23": 5559,
      "##ᆻ어요": 5560,
      "##뜨": 5561,
      "##eb": 5562,
      "##시청": 5563,
      "이사회": 5564,
      "##기기": 5565,
      "##기가": 5566,
      "##해요": 5567,
      "##해진": 5568,
      "##해운": 5569,
      "##해달라": 5570,
      "대타": 5571,
      "##도발": 5572,
      "기지": 5573,
      "기후": 5574,
      "기아차": 5575,
      "##전사": 5576,
      "##전당": 5577,
      "지식": 5578,
      "사기": 5579,
      "사면": 5580,
      "##명령": 5581,
      "공약": 5582,
      "공백": 5583,
      "유일": 5584,
      "밑": 5585,
      "중저가": 5586,
      "부실": 5587,
      "마친": 5588,
      "선동": 5589,
      "선호": 5590,
      "선포": 5591,
      "김민": 5592,
      "김호": 5593,
      "##권도": 5594,
      "##계좌": 5595,
      "조짐": 5596,
      "하향": 5597,
      "고대": 5598,
      "##마크": 5599,
      "##니스": 5600,
      "##체험": 5601,
      "##프리카": 5602,
      "##학금": 5603,
      "자료": 5604,
      "무패": 5605,
      "해군": 5606,
      "안심": 5607,
      "스캐": 5608,
      "##였다": 5609,
      "일상": 5610,
      "일반": 5611,
      "##밥": 5612,
      "##청장": 5613,
      "현역": 5614,
      "실질": 5615,
      "회원": 5616,
      "금투": 5617,
      "교류": 5618,
      "진짜": 5619,
      "##할듯": 5620,
      "단장": 5621,
      "파트": 5622,
      "로밍": 5623,
      "##준다": 5624,
      "홍남기": 5625,
      "입단": 5626,
      "합작": 5627,
      "##병대": 5628,
      "김정일": 5629,
      "110": 5630,
      "핵무기": 5631,
      "민주콩": 5632,
      "창출": 5633,
      "##검사": 5634,
      "심상": 5635,
      "100주년": 5636,
      "##돌아": 5637,
      "내년부터": 5638,
      "1위는": 5639,
      "##순위": 5640,
      "살인": 5641,
      "권고": 5642,
      "격추": 5643,
      "선거법": 5644,
      "##백질": 5645,
      "친구": 5646,
      "편의": 5647,
      "질문에": 5648,
      "경쟁력": 5649,
      "##벤처": 5650,
      "3년간": 5651,
      "귀환": 5652,
      "이어져": 5653,
      "신한금융": 5654,
      "숨진": 5655,
      "쌓": 5656,
      "보고서": 5657,
      "##지도자": 5658,
      "혼란": 5659,
      "싶어": 5660,
      "켈리": 5661,
      "만들어": 5662,
      "##걸음": 5663,
      "사흘째": 5664,
      "호우주의보": 5665,
      "석유시설": 5666,
      "김성태": 5667,
      "장맛비": 5668,
      "성폭행": 5669,
      "내한공연": 5670,
      "해수욕장": 5671,
      "벨기에": 5672,
      "반기문": 5673,
      "동남아": 5674,
      "찜통": 5675,
      "잉글": 5676,
      "일주일": 5677,
      "혁명수비대": 5678,
      "민주콩고": 5679,
      "1등": 5680,
      "67": 5681,
      "afc": 5682,
      "gdp": 5683,
      "im": 5684,
      "s400": 5685,
      "띄": 5686,
      "멋": 5687,
      "챙": 5688,
      "튀": 5689,
      "##혐의": 5690,
      "##쓸": 5691,
      "##ps": 5692,
      "##스ᄏ": 5693,
      "##스포츠": 5694,
      "##리안": 5695,
      "이슈": 5696,
      "기기": 5697,
      "시정": 5698,
      "##전문": 5699,
      "##상현": 5700,
      "##가을": 5701,
      "##인증": 5702,
      "##부문": 5703,
      "##구조": 5704,
      "##수당": 5705,
      "##성의": 5706,
      "한류": 5707,
      "##윈": 5708,
      "##세로": 5709,
      "화학": 5710,
      "신형": 5711,
      "최정": 5712,
      "##치료": 5713,
      "##조합": 5714,
      "##개편": 5715,
      "중고": 5716,
      "부천": 5717,
      "부적": 5718,
      "부사장": 5719,
      "제시": 5720,
      "김주": 5721,
      "##문고": 5722,
      "조용": 5723,
      "강행": 5724,
      "서브": 5725,
      "##무용": 5726,
      "발령": 5727,
      "안산": 5728,
      "##분쟁": 5729,
      "다이": 5730,
      "##설명": 5731,
      "재무": 5732,
      "피살": 5733,
      "##협의": 5734,
      "박수": 5735,
      "##심의": 5736,
      "외신": 5737,
      "##ᅦᆫ즈": 5738,
      "포르": 5739,
      "##강도": 5740,
      "##톱": 5741,
      "##토리": 5742,
      "카타르": 5743,
      "단백질": 5744,
      "덮": 5745,
      "폭설": 5746,
      "##데타": 5747,
      "계열": 5748,
      "kbl": 5749,
      "드라마": 5750,
      "##레스": 5751,
      "탈레반": 5752,
      "군산": 5753,
      "심포지엄": 5754,
      "##열차": 5755,
      "1천500": 5756,
      "철군": 5757,
      "130": 5758,
      "##퍼스": 5759,
      "극단": 5760,
      "권한": 5761,
      "클럽": 5762,
      "선거제": 5763,
      "커쇼": 5764,
      "쿠데타": 5765,
      "##라이나": 5766,
      "##확대": 5767,
      "##허가": 5768,
      "##했나": 5769,
      "##했지만": 5770,
      "##볼까": 5771,
      "##운동가": 5772,
      "강력한": 5773,
      "엄중": 5774,
      "케인": 5775,
      "답변": 5776,
      "항공기": 5777,
      "한진해운": 5778,
      "장기화": 5779,
      "##끝": 5780,
      "블랙리스트": 5781,
      "르포": 5782,
      "비대면": 5783,
      "국회의원": 5784,
      "kb손해보험": 5785,
      "가자지구": 5786,
      "u20월드컵": 5787,
      "영남권": 5788,
      "오존주의보": 5789,
      "클린턴": 5790,
      "정진석": 5791,
      "4경기": 5792,
      "59": 5793,
      "5대": 5794,
      "dj": 5795,
      "els": 5796,
      "keb": 5797,
      "그룹": 5798,
      "꼴찌": 5799,
      "컬": 5800,
      "팩": 5801,
      "##잔": 5802,
      "##브리": 5803,
      "##싼": 5804,
      "##ic": 5805,
      "##스키": 5806,
      "##리나": 5807,
      "##리츠": 5808,
      "##ᅡᆷ보": 5809,
      "##지서": 5810,
      "##의지": 5811,
      "대면": 5812,
      "대량": 5813,
      "기적": 5814,
      "기가지": 5815,
      "##고용": 5816,
      "##과이": 5817,
      "##보세요": 5818,
      "주파수": 5819,
      "##부모": 5820,
      "##수로": 5821,
      "##드시": 5822,
      "신제품": 5823,
      "가세": 5824,
      "부정적": 5825,
      "김일": 5826,
      "##재해": 5827,
      "##우기": 5828,
      "고심": 5829,
      "우라늄": 5830,
      "오만": 5831,
      "서해": 5832,
      "##니스트": 5833,
      "영장": 5834,
      "한국형": 5835,
      "무수단": 5836,
      "##교차": 5837,
      "해체": 5838,
      "얻": 5839,
      "방중": 5840,
      "소니": 5841,
      "소환": 5842,
      "소형": 5843,
      "소녀": 5844,
      "구금": 5845,
      "노래": 5846,
      "노르": 5847,
      "##운다": 5848,
      "반드시": 5849,
      "동료": 5850,
      "동해안": 5851,
      "장병": 5852,
      "박주": 5853,
      "원자": 5854,
      "원전": 5855,
      "후속": 5856,
      "후퇴": 5857,
      "포스트": 5858,
      "포인트": 5859,
      "작업": 5860,
      "##언스": 5861,
      "##언유착": 5862,
      "더블": 5863,
      "홍용": 5864,
      "광복": 5865,
      "열차": 5866,
      "생일": 5867,
      "최고위원": 5868,
      "태블릿": 5869,
      "미국의": 5870,
      "스마트워치": 5871,
      "알리": 5872,
      "환자": 5873,
      "창당": 5874,
      "우리가": 5875,
      "전국에": 5876,
      "라틀": 5877,
      "간편": 5878,
      "##폭풍": 5879,
      "금융위원장": 5880,
      "캠프": 5881,
      "않은": 5882,
      "허가": 5883,
      "필라": 5884,
      "백두산": 5885,
      "공격에": 5886,
      "막아": 5887,
      "낮부터": 5888,
      "정상회의": 5889,
      "누리": 5890,
      "정치적": 5891,
      "침해": 5892,
      "이재갑": 5893,
      "볼넷": 5894,
      "##콘텐츠": 5895,
      "뛰어": 5896,
      "예술의": 5897,
      "##끄지": 5898,
      "빨라": 5899,
      "설명회": 5900,
      "여론조사": 5901,
      "결의안": 5902,
      "노벨상": 5903,
      "자율주행차": 5904,
      "##영화제": 5905,
      "지하철": 5906,
      "국토부": 5907,
      "용의자": 5908,
      "긍정적": 5909,
      "창조경제": 5910,
      "최태웅": 5911,
      "카슈끄지": 5912,
      "임종석": 5913,
      "크루즈": 5914,
      "공수처": 5915,
      "베를린": 5916,
      "##홀딩스": 5917,
      "기가지니": 5918,
      "라틀리프": 5919,
      "1실점": 5920,
      "2조": 5921,
      "79": 5922,
      "nsc": 5923,
      "v50": 5924,
      "벼": 5925,
      "홀로": 5926,
      "##ᆸ션": 5927,
      "##ᆺ물": 5928,
      "##ᆺ길": 5929,
      "##이다": 5930,
      "##시마": 5931,
      "##에이": 5932,
      "##리스": 5933,
      "이기": 5934,
      "이메일": 5935,
      "##기간": 5936,
      "##자유": 5937,
      "대가": 5938,
      "대치": 5939,
      "대관": 5940,
      "대중": 5941,
      "##사무소": 5942,
      "기사": 5943,
      "기존": 5944,
      "##과의": 5945,
      "주변": 5946,
      "짐": 5947,
      "사물": 5948,
      "##요구": 5949,
      "##라탄": 5950,
      "공간": 5951,
      "공짜": 5952,
      "유세": 5953,
      "유망": 5954,
      "국왕": 5955,
      "화물": 5956,
      "수여": 5957,
      "수립": 5958,
      "수혜": 5959,
      "정동": 5960,
      "인구": 5961,
      "인류": 5962,
      "##행진": 5963,
      "과도": 5964,
      "연승": 5965,
      "연쇄": 5966,
      "부과": 5967,
      "부모": 5968,
      "부결": 5969,
      "##단장": 5970,
      "제동": 5971,
      "김상": 5972,
      "여수": 5973,
      "비용": 5974,
      "비디오": 5975,
      "조율": 5976,
      "고3": 5977,
      "고성": 5978,
      "영어": 5979,
      "모습": 5980,
      "자국": 5981,
      "자문": 5982,
      "무상": 5983,
      "했다": 5984,
      "나오": 5985,
      "##여정": 5986,
      "##중고": 5987,
      "20년": 5988,
      "세대": 5989,
      "##밴드": 5990,
      "##키아": 5991,
      "호조": 5992,
      "##카르": 5993,
      "북중": 5994,
      "회계": 5995,
      "##박람회": 5996,
      "##책임": 5997,
      "트럼프와": 5998,
      "##00원": 5999,
      "분열": 6000,
      "야간": 6001,
      "두바이": 6002,
      "최고지도자": 6003,
      "kb금융": 6004,
      "양승": 6005,
      "김정숙": 6006,
      "##날레": 6007,
      "우리는": 6008,
      "종교": 6009,
      "##목소리": 6010,
      "언론사": 6011,
      "연구진": 6012,
      "압도": 6013,
      "시리아서": 6014,
      "##겨울": 6015,
      "절정": 6016,
      "할머니": 6017,
      "페루": 6018,
      "퇴출": 6019,
      "향하는": 6020,
      "금리인상": 6021,
      "##확실": 6022,
      "벤처": 6023,
      "빠져": 6024,
      "흥행": 6025,
      "평가전": 6026,
      "결승골": 6027,
      "##델피아": 6028,
      "##트릭": 6029,
      "이젠": 6030,
      "수익률": 6031,
      "##ᅳ레기": 6032,
      "납치": 6033,
      "##자산운용": 6034,
      "공정위": 6035,
      "웹툰": 6036,
      "공화당": 6037,
      "비대위": 6038,
      "현실화": 6039,
      "기준금리": 6040,
      "성폭력": 6041,
      "듣는": 6042,
      "화천산": 6043,
      "셔저": 6044,
      "김학범호": 6045,
      "흑자전환": 6046,
      "선보여": 6047,
      "융합": 6048,
      "트위터": 6049,
      "비서실장": 6050,
      "축사하는": 6051,
      "한자리에": 6052,
      "ytn": 6053,
      "잉글랜드": 6054,
      "튀니지": 6055,
      "keb하나": 6056,
      "홍용표": 6057,
      "필라델피아": 6058,
      "3d": 6059,
      "3곳": 6060,
      "7개": 6061,
      "7천": 6062,
      "85": 6063,
      "꾸": 6064,
      "꿀": 6065,
      "덴": 6066,
      "린": 6067,
      "첨": 6068,
      "##삭": 6069,
      "##꼴": 6070,
      "##dc": 6071,
      "##15": 6072,
      "##18": 6073,
      "##ᆰ기": 6074,
      "##이도": 6075,
      "##읽기": 6076,
      "##롭": 6077,
      "##지지": 6078,
      "##서부": 6079,
      "##의견": 6080,
      "##사령": 6081,
      "##주에": 6082,
      "시급": 6083,
      "##보자": 6084,
      "##부채": 6085,
      "##일리": 6086,
      "아산": 6087,
      "한라": 6088,
      "##명한": 6089,
      "##만5천": 6090,
      "유전": 6091,
      "유가": 6092,
      "##동맹": 6093,
      "##비난": 6094,
      "가득": 6095,
      "##행보": 6096,
      "부문": 6097,
      "붉은": 6098,
      "마두로": 6099,
      "제4": 6100,
      "김용": 6101,
      "비스": 6102,
      "내륙": 6103,
      "##발레": 6104,
      "##호텔": 6105,
      "오타": 6106,
      "강진": 6107,
      "한국어": 6108,
      "상담": 6109,
      "##무역": 6110,
      "윈": 6111,
      "위로": 6112,
      "위촉": 6113,
      "##차례": 6114,
      "안드로": 6115,
      "스튜": 6116,
      "##티나": 6117,
      "##여야": 6118,
      "일지": 6119,
      "일교차": 6120,
      "##분의": 6121,
      "궁": 6122,
      "노인": 6123,
      "##바지": 6124,
      "##모리": 6125,
      "첫선": 6126,
      "재벌": 6127,
      "##키지": 6128,
      "성명": 6129,
      "불확실": 6130,
      "매장": 6131,
      "결산": 6132,
      "회사": 6133,
      "금주": 6134,
      "금메달": 6135,
      "박사": 6136,
      "원칙": 6137,
      "특화": 6138,
      "포수": 6139,
      "배상": 6140,
      "배달": 6141,
      "단식": 6142,
      "서울서": 6143,
      "##팸": 6144,
      "더워": 6145,
      "로마": 6146,
      "참배": 6147,
      "검거": 6148,
      "검언유착": 6149,
      "엘리": 6150,
      "##준비": 6151,
      "홍천": 6152,
      "현대중공업": 6153,
      "두번째": 6154,
      "##엔지": 6155,
      "타결": 6156,
      "경기서": 6157,
      "군인": 6158,
      "##검토": 6159,
      "운용": 6160,
      "북한인권": 6161,
      "종업원": 6162,
      "토지": 6163,
      "아이디어": 6164,
      "1천4": 6165,
      "탄도": 6166,
      "온도": 6167,
      "연구팀": 6168,
      "기술로": 6169,
      "오늘부터": 6170,
      "상승세": 6171,
      "50대": 6172,
      "##백화점": 6173,
      "절대": 6174,
      "커리": 6175,
      "플라": 6176,
      "정치인": 6177,
      "받는다": 6178,
      "효율": 6179,
      "아시아선수권": 6180,
      "김영철": 6181,
      "영하권": 6182,
      "캠코": 6183,
      "##스토어": 6184,
      "숙박": 6185,
      "챔스리그": 6186,
      "뜨거운": 6187,
      "나선다": 6188,
      "조명균": 6189,
      "3점포": 6190,
      "충청권": 6191,
      "손잡고": 6192,
      "여객기": 6193,
      "교보문고": 6194,
      "런던": 6195,
      "##자책점": 6196,
      "모리뉴": 6197,
      "4차산업혁명": 6198,
      "kaist": 6199,
      "김호철": 6200,
      "금투협": 6201,
      "파트너": 6202,
      "안드로이드": 6203,
      "2골": 6204,
      "3주": 6205,
      "3종": 6206,
      "3배": 6207,
      "57": 6208,
      "5번째": 6209,
      "6연패": 6210,
      "86": 6211,
      "st": 6212,
      "꽁": 6213,
      "똑": 6214,
      "술": 6215,
      "쓰레기": 6216,
      "줘": 6217,
      "척": 6218,
      "훼손": 6219,
      "##졸": 6220,
      "##둑": 6221,
      "##깨": 6222,
      "##꽁": 6223,
      "##쿼": 6224,
      "##ec": 6225,
      "##이상": 6226,
      "##ᅳᆫ다": 6227,
      "##하위": 6228,
      "이세": 6229,
      "이산": 6230,
      "##기사": 6231,
      "##해양": 6232,
      "대안": 6233,
      "대처": 6234,
      "대상에": 6235,
      "기ᄈ": 6236,
      "기여": 6237,
      "시집": 6238,
      "##고객": 6239,
      "##전용": 6240,
      "주총": 6241,
      "##구역": 6242,
      "사형": 6243,
      "사례": 6244,
      "아래": 6245,
      "전직": 6246,
      "한상": 6247,
      "##ᅢᆼ커": 6248,
      "##ᅢᆼ킹": 6249,
      "##위서": 6250,
      "##세점": 6251,
      "##만개": 6252,
      "##만달러": 6253,
      "유원지": 6254,
      "수장": 6255,
      "수백": 6256,
      "정운": 6257,
      "갖": 6258,
      "인명": 6259,
      "인선": 6260,
      "인파": 6261,
      "인식": 6262,
      "##소비": 6263,
      "##소속": 6264,
      "부부": 6265,
      "김여정": 6266,
      "##계층": 6267,
      "##신호": 6268,
      "오세": 6269,
      "강연": 6270,
      "##파전": 6271,
      "##식당": 6272,
      "상위": 6273,
      "모레": 6274,
      "무용": 6275,
      "##출판": 6276,
      "해커": 6277,
      "##월드": 6278,
      "스완": 6279,
      "##여자": 6280,
      "다짐": 6281,
      "만루": 6282,
      "등에": 6283,
      "등락": 6284,
      "코트": 6285,
      "##밸리": 6286,
      "남은": 6287,
      "동원": 6288,
      "총파업": 6289,
      "##물산": 6290,
      "후임": 6291,
      "포로": 6292,
      "포상": 6293,
      "##ᆯ레이": 6294,
      "투구": 6295,
      "팝": 6296,
      "없애": 6297,
      "손실": 6298,
      "트럼프에": 6299,
      "당권": 6300,
      "합격": 6301,
      "최고의": 6302,
      "##근무": 6303,
      "##창규": 6304,
      "##히트": 6305,
      "법적": 6306,
      "학술": 6307,
      "국민연금": 6308,
      "##더니": 6309,
      "직업": 6310,
      "직무": 6311,
      "목적": 6312,
      "명령": 6313,
      "명품": 6314,
      "흉": 6315,
      "탄력": 6316,
      "허재": 6317,
      "치열": 6318,
      "##게임즈": 6319,
      "국회법": 6320,
      "오늘의": 6321,
      "끝까지": 6322,
      "때문에": 6323,
      "표명": 6324,
      "플러스": 6325,
      "근거": 6326,
      "외교장관": 6327,
      "##슛": 6328,
      "높은": 6329,
      "통일농구": 6330,
      "갤노트10": 6331,
      "##스틱": 6332,
      "즐라탄": 6333,
      "풀려": 6334,
      "국방장관": 6335,
      "넓": 6336,
      "##볼라": 6337,
      "폴더블": 6338,
      "맹비난": 6339,
      "세종시": 6340,
      "mwc서": 6341,
      "전략적": 6342,
      "머리": 6343,
      "죽음": 6344,
      "뜻": 6345,
      "금감원장": 6346,
      "개정안": 6347,
      "시청률": 6348,
      "도쿄올림픽": 6349,
      "핀테크": 6350,
      "기대감에": 6351,
      "갑질": 6352,
      "채널a": 6353,
      "##빌딩": 6354,
      "와이파이": 6355,
      "kgc": 6356,
      "중저가폰": 6357,
      "계열사": 6358,
      "화천산천어축제": 6359,
      "keb하나은행": 6360,
      "탄도미사일": 6361,
      "71": 6362,
      "9회": 6363,
      "kdb": 6364,
      "능": 6365,
      "몽": 6366,
      "벽": 6367,
      "##ᆫ차": 6368,
      "##듀": 6369,
      "##덩": 6370,
      "##데이트": 6371,
      "##tbc": 6372,
      "##12": 6373,
      "##8천": 6374,
      "##ra": 6375,
      "##하성": 6376,
      "##스러": 6377,
      "이청": 6378,
      "이효성": 6379,
      "##로운": 6380,
      "##지나": 6381,
      "##자와": 6382,
      "##의조": 6383,
      "시총": 6384,
      "##상장": 6385,
      "##인삼공사": 6386,
      "##보복": 6387,
      "##일랜드": 6388,
      "##일자리": 6389,
      "지적": 6390,
      "##수용": 6391,
      "전지": 6392,
      "한정": 6393,
      "한목소리": 6394,
      "##위협": 6395,
      "##유지": 6396,
      "##통합": 6397,
      "유해": 6398,
      "유입": 6399,
      "유소년": 6400,
      "수해": 6401,
      "가이드": 6402,
      "인력": 6403,
      "인스타": 6404,
      "과천": 6405,
      "과이도": 6406,
      "##공무원": 6407,
      "경품": 6408,
      "중기": 6409,
      "##연장": 6410,
      "김명": 6411,
      "내각": 6412,
      "조각": 6413,
      "##경은": 6414,
      "우간다": 6415,
      "우즈베": 6416,
      "##체크": 6417,
      "상상": 6418,
      "상징": 6419,
      "##교실": 6420,
      "##그라운드": 6421,
      "스팸": 6422,
      "방어": 6423,
      "##낼": 6424,
      "노선": 6425,
      "예보": 6426,
      "반응": 6427,
      "##오미": 6428,
      "##테랑": 6429,
      "##투수": 6430,
      "##반군": 6431,
      "성사": 6432,
      "불투": 6433,
      "##능력": 6434,
      "매도에": 6435,
      "결혼": 6436,
      "회장에": 6437,
      "진통": 6438,
      "배틀": 6439,
      "##태세": 6440,
      "작은": 6441,
      "단축": 6442,
      "파문": 6443,
      "손해": 6444,
      "참모": 6445,
      "엑스": 6446,
      "##루과이": 6447,
      "입항": 6448,
      "두고": 6449,
      "열풍": 6450,
      "집값": 6451,
      "양효": 6452,
      "##창훈": 6453,
      "미국서": 6454,
      "가능한": 6455,
      "맞는": 6456,
      "민주주의": 6457,
      "##져야": 6458,
      "##른다": 6459,
      "토종": 6460,
      "##평등": 6461,
      "황창규": 6462,
      "테마": 6463,
      "되는": 6464,
      "되나": 6465,
      "된다": 6466,
      "압승": 6467,
      "mlb닷컴": 6468,
      "필수": 6469,
      "순위": 6470,
      "순유출": 6471,
      "업계": 6472,
      "업데이트": 6473,
      "막말": 6474,
      "있을까": 6475,
      "발표하는": 6476,
      "부상으로": 6477,
      "해외여행": 6478,
      "기자간담회": 6479,
      "14명": 6480,
      "폐기": 6481,
      "17명": 6482,
      "근무": 6483,
      "##압박": 6484,
      "역사적": 6485,
      "팀은": 6486,
      "높이": 6487,
      "국립중앙": 6488,
      "2차전": 6489,
      "역전패": 6490,
      "최소화": 6491,
      "폭염주의보": 6492,
      "##문학상에": 6493,
      "김영란": 6494,
      "31일": 6495,
      "전시회": 6496,
      "몸값": 6497,
      "흑인": 6498,
      "cj헬로": 6499,
      "엔진": 6500,
      "##본부장": 6501,
      "나왔다": 6502,
      "판문점선언": 6503,
      "##럴림픽": 6504,
      "고교생": 6505,
      "샤오미": 6506,
      "소프트웨어": 6507,
      "휴대폰": 6508,
      "주인공": 6509,
      "김병준": 6510,
      "조회공시": 6511,
      "변호사": 6512,
      "엇갈린": 6513,
      "수수료": 6514,
      "성추행": 6515,
      "kgc인삼공사": 6516,
      "배틀그라운드": 6517,
      "양효진": 6518,
      "1억원": 6519,
      "3번째": 6520,
      "4곳": 6521,
      "61": 6522,
      "66": 6523,
      "8년": 6524,
      "jtbc": 6525,
      "s9": 6526,
      "괘": 6527,
      "궤": 6528,
      "크로": 6529,
      "쾅": 6530,
      "↑…": 6531,
      "##멍": 6532,
      "##옹": 6533,
      "##bm": 6534,
      "##텀": 6535,
      "##90": 6536,
      "##꿈": 6537,
      "##컷": 6538,
      "##17": 6539,
      "##1천": 6540,
      "##시픽": 6541,
      "##시켜": 6542,
      "##스피커": 6543,
      "이종": 6544,
      "##기세요": 6545,
      "##어치": 6546,
      "##해서": 6547,
      "##자이": 6548,
      "##자료": 6549,
      "대거": 6550,
      "대남": 6551,
      "##사위": 6552,
      "##도르": 6553,
      "##주시": 6554,
      "##상선": 6555,
      "##가스": 6556,
      "##인력": 6557,
      "##회복": 6558,
      "주역": 6559,
      "##제로": 6560,
      "아트": 6561,
      "한계": 6562,
      "개각": 6563,
      "##년대": 6564,
      "##년전": 6565,
      "##진출": 6566,
      "국적": 6567,
      "화장": 6568,
      "화제": 6569,
      "수리": 6570,
      "수감": 6571,
      "수십": 6572,
      "정무": 6573,
      "신호": 6574,
      "인생": 6575,
      "경보": 6576,
      "##개입": 6577,
      "중진": 6578,
      "붐": 6579,
      "비율": 6580,
      "좀": 6581,
      "##밑": 6582,
      "##경민": 6583,
      "보통": 6584,
      "보류": 6585,
      "##들도": 6586,
      "우루과이": 6587,
      "상향": 6588,
      "모스크": 6589,
      "자녀": 6590,
      "무단": 6591,
      "무더": 6592,
      "방식": 6593,
      "##분야": 6594,
      "##분석": 6595,
      "##바브": 6596,
      "세포": 6597,
      "의도": 6598,
      "의식": 6599,
      "재발": 6600,
      "동성": 6601,
      "피격": 6602,
      "##테일": 6603,
      "실태": 6604,
      "성황": 6605,
      "불편": 6606,
      "박기원": 6607,
      "삼성sd": 6608,
      "##코드": 6609,
      "거장": 6610,
      "파괴": 6611,
      "협박": 6612,
      "베테랑": 6613,
      "##웠다": 6614,
      "충분": 6615,
      "독주": 6616,
      "판정": 6617,
      "11명": 6618,
      "11개": 6619,
      "운전": 6620,
      "##예산": 6621,
      "##예약": 6622,
      "우리금융": 6623,
      "복지": 6624,
      "복원": 6625,
      "##돌봄": 6626,
      "기업에": 6627,
      "일본서": 6628,
      "순간": 6629,
      "##교육감": 6630,
      "##커스": 6631,
      "논의종합": 6632,
      "축구협회": 6633,
      "권리": 6634,
      "카카오톡": 6635,
      "격화": 6636,
      "250": 6637,
      "접전": 6638,
      "접근": 6639,
      "피해자": 6640,
      "##사업자": 6641,
      "킹": 6642,
      "뒤집": 6643,
      "향해": 6644,
      "아시아나": 6645,
      "즐겨": 6646,
      "##짜리": 6647,
      "상장사": 6648,
      "느ᄁ": 6649,
      "최초로": 6650,
      "##콘서트": 6651,
      "외무장관": 6652,
      "##볼넷": 6653,
      "평균자책점": 6654,
      "바꾼": 6655,
      "입장하는": 6656,
      "신고가": 6657,
      "맑음": 6658,
      "국무부": 6659,
      "마이너": 6660,
      "스크린": 6661,
      "##샷": 6662,
      "펼쳐": 6663,
      "윤석열": 6664,
      "무인기": 6665,
      "스키장": 6666,
      "김광현": 6667,
      "다양한": 6668,
      "포근한": 6669,
      "졸업": 6670,
      "생태계": 6671,
      "심상정": 6672,
      "찜통더위": 6673,
      "팩트": 6674,
      "꽁꽁": 6675,
      "이세돌": 6676,
      "스완지": 6677,
      "kdb생명": 6678,
      "우즈베크": 6679,
      "김영란법": 6680,
      "1도": 6681,
      "1군": 6682,
      "1시간": 6683,
      "63": 6684,
      "쓸": 6685,
      "쥐": 6686,
      "콩": 6687,
      "펄": 6688,
      "##묘": 6689,
      "##ᆫ들": 6690,
      "##ta": 6691,
      "##픔": 6692,
      "##따": 6693,
      "##쌀": 6694,
      "##1일": 6695,
      "##8년": 6696,
      "##이노": 6697,
      "##에너지": 6698,
      "##리거": 6699,
      "이끈": 6700,
      "##어도": 6701,
      "##자문": 6702,
      "##의도": 6703,
      "대역": 6704,
      "기재": 6705,
      "시점": 6706,
      "##가치": 6707,
      "##인재": 6708,
      "주한": 6709,
      "주거": 6710,
      "주둔": 6711,
      "지나": 6712,
      "##제약": 6713,
      "사장에": 6714,
      "전광": 6715,
      "한동": 6716,
      "##ᅥᆸ다": 6717,
      "공부": 6718,
      "##세안": 6719,
      "유료": 6720,
      "숲": 6721,
      "##동부": 6722,
      "##산물": 6723,
      "##나무": 6724,
      "##개사": 6725,
      "제천": 6726,
      "제대로": 6727,
      "여러": 6728,
      "비준": 6729,
      "##표준": 6730,
      "낸": 6731,
      "내외": 6732,
      "조종": 6733,
      "고전": 6734,
      "##미칼": 6735,
      "오신": 6736,
      "서민": 6737,
      "한국거래소": 6738,
      "상무": 6739,
      "자기": 6740,
      "무죄": 6741,
      "무제한": 6742,
      "무엇": 6743,
      "해안": 6744,
      "##타인": 6745,
      "어워드": 6746,
      "방위": 6747,
      "방향": 6748,
      "감축": 6749,
      "2030": 6750,
      "구현": 6751,
      "##생산": 6752,
      "만드는": 6753,
      "예금": 6754,
      "통증": 6755,
      "재미": 6756,
      "재확인": 6757,
      "호투": 6758,
      "총수": 6759,
      "결선": 6760,
      "박지": 6761,
      "삼성페이": 6762,
      "삼성바이오": 6763,
      "삼성물산": 6764,
      "원조": 6765,
      "후폭풍": 6766,
      "민정": 6767,
      "거절": 6768,
      "배포": 6769,
      "증인": 6770,
      "##패드": 6771,
      "##집회": 6772,
      "체류": 6773,
      "##00억": 6774,
      "분노": 6775,
      "충전": 6776,
      "현대상선": 6777,
      "설계": 6778,
      "양산": 6779,
      "미국인": 6780,
      "알고": 6781,
      "##처분": 6782,
      "##힐": 6783,
      "##악단": 6784,
      "##극장": 6785,
      "복합": 6786,
      "황의조": 6787,
      "말하는": 6788,
      "1천2": 6789,
      "##폭력": 6790,
      "철학": 6791,
      "철저": 6792,
      "투자전략": 6793,
      "언론인": 6794,
      "압력": 6795,
      "홍콩시위": 6796,
      "##활약": 6797,
      "듯종합": 6798,
      "없었다": 6799,
      "격차": 6800,
      "촉각": 6801,
      "친선": 6802,
      "송영": 6803,
      "윤리": 6804,
      "정치권": 6805,
      "인천공항": 6806,
      "##라이브": 6807,
      "인터넷진흥원": 6808,
      "향상": 6809,
      "잠수": 6810,
      "성장률": 6811,
      "북미회담": 6812,
      "전환사채": 6813,
      "이동국": 6814,
      "##옥션": 6815,
      "꿈꾸": 6816,
      "아프리카tv": 6817,
      "낙찰": 6818,
      "##좌관": 6819,
      "맹활약": 6820,
      "케냐": 6821,
      "##논의": 6822,
      "##트리온": 6823,
      "곳곳에": 6824,
      "##몰이": 6825,
      "미술관": 6826,
      "뇌물": 6827,
      "쓰고": 6828,
      "##농협": 6829,
      "##5천만원": 6830,
      "국무회의": 6831,
      "k리그1": 6832,
      "좌절": 6833,
      "쓴다": 6834,
      "될까": 6835,
      "새누리당": 6836,
      "대사관": 6837,
      "신용등급": 6838,
      "매수에": 6839,
      "##슬림": 6840,
      "써보니": 6841,
      "##못해": 6842,
      "집권당": 6843,
      "이민자": 6844,
      "제조업": 6845,
      "쌍용차": 6846,
      "콜로라도": 6847,
      "듀얼": 6848,
      "셀트리온": 6849,
      "태극전사": 6850,
      "의무화": 6851,
      "전투기": 6852,
      "상임위": 6853,
      "원격수업": 6854,
      "wti": 6855,
      "고속도로": 6856,
      "3대3": 6857,
      "etf": 6858,
      "빗방울": 6859,
      "ktb투자": 6860,
      "##설명회": 6861,
      "김일성": 6862,
      "노르웨이": 6863,
      "예술의전당": 6864,
      "대관령": 6865,
      "첨단": 6866,
      "오타니": 6867,
      "이청용": 6868,
      "1이닝": 6869,
      "2루타": 6870,
      "3조": 6871,
      "87": 6872,
      "ap": 6873,
      "ec": 6874,
      "ws": 6875,
      "떼": 6876,
      "쏜": 6877,
      "트라": 6878,
      "퓨": 6879,
      "홀": 6880,
      "##펴": 6881,
      "##ᆻ을": 6882,
      "##ᆻ으면": 6883,
      "##컹": 6884,
      "##ᆮ고": 6885,
      "##ng": 6886,
      "##엑스": 6887,
      "##릭스": 6888,
      "이견": 6889,
      "대미": 6890,
      "대변": 6891,
      "시선": 6892,
      "시찰": 6893,
      "시각": 6894,
      "##곽": 6895,
      "##인하": 6896,
      "##인도": 6897,
      "주차": 6898,
      "##구에": 6899,
      "지소": 6900,
      "사모": 6901,
      "전수": 6902,
      "전당": 6903,
      "전방위": 6904,
      "한복": 6905,
      "한번": 6906,
      "##유산": 6907,
      "##만건": 6908,
      "수성": 6909,
      "신동": 6910,
      "신기술": 6911,
      "가로": 6912,
      "가결": 6913,
      "##행동": 6914,
      "연다": 6915,
      "연습": 6916,
      "중장": 6917,
      "부분": 6918,
      "##단에": 6919,
      "춤": 6920,
      "마르": 6921,
      "##연속": 6922,
      "출자": 6923,
      "출장": 6924,
      "비즈": 6925,
      "##신저": 6926,
      "고립": 6927,
      "##미니": 6928,
      "##당한": 6929,
      "보이": 6930,
      "우버": 6931,
      "옮": 6932,
      "오페라": 6933,
      "강타": 6934,
      "서로": 6935,
      "영웅": 6936,
      "##팝": 6937,
      "##식품": 6938,
      "무게": 6939,
      "무슬림": 6940,
      "해설": 6941,
      "##여건": 6942,
      "어제": 6943,
      "일방": 6944,
      "소년": 6945,
      "문자": 6946,
      "20명": 6947,
      "노란": 6948,
      "만날": 6949,
      "##모션": 6950,
      "등극": 6951,
      "올려": 6952,
      "통한": 6953,
      "반성": 6954,
      "동점": 6955,
      "##현수": 6956,
      "##테르": 6957,
      "##투스": 6958,
      "##담보": 6959,
      "실무": 6960,
      "장학금": 6961,
      "##억원에": 6962,
      "##매진": 6963,
      "##버스터": 6964,
      "결합": 6965,
      "결함": 6966,
      "##증시": 6967,
      "박종": 6968,
      "sk하이": 6969,
      "##코프": 6970,
      "카이": 6971,
      "카페": 6972,
      "증강": 6973,
      "그만": 6974,
      "##집권": 6975,
      "에스": 6976,
      "##총선": 6977,
      "##데스": 6978,
      "리커": 6979,
      "충성": 6980,
      "현대미술": 6981,
      "5g폰": 6982,
      "규정": 6983,
      "앞에서": 6984,
      "학습": 6985,
      "국민투표": 6986,
      "건립": 6987,
      "톱": 6988,
      "##케어": 6989,
      "##케미칼": 6990,
      "갤럭시a": 6991,
      "휴일": 6992,
      "##절차": 6993,
      "13명": 6994,
      "일본인": 6995,
      "칠레": 6996,
      "압류": 6997,
      "난항": 6998,
      "살펴": 6999,
      "준수": 7000,
      "##기업은행": 7001,
      "##됐다": 7002,
      "권창훈": 7003,
      "레스터": 7004,
      "우려에": 7005,
      "평화의": 7006,
      "농축": 7007,
      "편성": 7008,
      "위기의": 7009,
      "향연": 7010,
      "주택대출": 7011,
      "잠정": 7012,
      "웨스트": 7013,
      "##취업": 7014,
      "혁신성장": 7015,
      "풍경": 7016,
      "산업혁명": 7017,
      "식당": 7018,
      "##거래일": 7019,
      "얼음": 7020,
      "##쿠르": 7021,
      "폴드": 7022,
      "바꿔": 7023,
      "암호": 7024,
      "연합이": 7025,
      "갤s9": 7026,
      "찬반": 7027,
      "고려대": 7028,
      "정규직": 7029,
      "중요한": 7030,
      "제한적": 7031,
      "##ᅳ레인": 7032,
      "형제": 7033,
      "좌파": 7034,
      "품질": 7035,
      "데뷔전": 7036,
      "메이저": 7037,
      "예비후보": 7038,
      "측정": 7039,
      "전기차": 7040,
      "당선인": 7041,
      "탐사": 7042,
      "##한국당": 7043,
      "자신감": 7044,
      "멈춰": 7045,
      "psg": 7046,
      "둘러": 7047,
      "한중일": 7048,
      "악수하는": 7049,
      "##전망대": 7050,
      "짧": 7051,
      "자영업자": 7052,
      "피아니스트": 7053,
      "##니어링": 7054,
      "거짓말": 7055,
      "태영호": 7056,
      "nhn엔터": 7057,
      "어렵다": 7058,
      "사물인터넷": 7059,
      "인스타그램": 7060,
      "불투명": 7061,
      "모스크바": 7062,
      "오신환": 7063,
      "sk하이닉스": 7064,
      "1회": 7065,
      "5선": 7066,
      "5이닝": 7067,
      "76": 7068,
      "95": 7069,
      "dm": 7070,
      "f35": 7071,
      "ks": 7072,
      "드루": 7073,
      "쑥": 7074,
      "털": 7075,
      "##으려": 7076,
      "##ᆻ습니다": 7077,
      "##땀": 7078,
      "##cl": 7079,
      "##4천": 7080,
      "##ed": 7081,
      "##뿐": 7082,
      "##ᆩ시": 7083,
      "##하우스": 7084,
      "##리테일": 7085,
      "익": 7086,
      "이영": 7087,
      "이겨": 7088,
      "이웃": 7089,
      "##지영": 7090,
      "##기능": 7091,
      "##기세포": 7092,
      "##어진": 7093,
      "##자원": 7094,
      "##의혹": 7095,
      "대리": 7096,
      "대행": 7097,
      "##사이트": 7098,
      "##화로": 7099,
      "##정식": 7100,
      "##상담": 7101,
      "##종환": 7102,
      "##합병": 7103,
      "##회동": 7104,
      "##일러": 7105,
      "지주": 7106,
      "지카": 7107,
      "##수록": 7108,
      "##아프리카": 7109,
      "##트트릭": 7110,
      "##제일": 7111,
      "사살": 7112,
      "아기": 7113,
      "전설": 7114,
      "공인": 7115,
      "공감": 7116,
      "##진대회": 7117,
      "정선": 7118,
      "##나종합": 7119,
      "##나요": 7120,
      "##공자": 7121,
      "최하위": 7122,
      "연출": 7123,
      "연준": 7124,
      "경질": 7125,
      "부여": 7126,
      "마라": 7127,
      "출구": 7128,
      "##계올림픽": 7129,
      "비예": 7130,
      "내놓": 7131,
      "##우는": 7132,
      "조합": 7133,
      "고지": 7134,
      "고통": 7135,
      "고개": 7136,
      "##영장": 7137,
      "##영향": 7138,
      "오래": 7139,
      "강백": 7140,
      "영광": 7141,
      "한국은": 7142,
      "상가": 7143,
      "상하이": 7144,
      "모멘": 7145,
      "자치": 7146,
      "해트트릭": 7147,
      "##찾": 7148,
      "어선": 7149,
      "방미": 7150,
      "감상": 7151,
      "일왕": 7152,
      "##중심": 7153,
      "다가": 7154,
      "다녀": 7155,
      "노린다": 7156,
      "10개": 7157,
      "도서": 7158,
      "도종환": 7159,
      "##현종": 7160,
      "##카쿠": 7161,
      "##투쟁": 7162,
      "실리": 7163,
      "불과": 7164,
      "평점": 7165,
      "매일": 7166,
      "박용": 7167,
      "원장": 7168,
      "외화": 7169,
      "##작품": 7170,
      "후끈": 7171,
      "민족": 7172,
      "트래": 7173,
      "이란과": 7174,
      "증언": 7175,
      "단계": 7176,
      "감독의": 7177,
      "파이": 7178,
      "파티": 7179,
      "청소": 7180,
      "##네요": 7181,
      "##박스": 7182,
      "초과": 7183,
      "초읽기": 7184,
      "논문": 7185,
      "논쟁": 7186,
      "폭락": 7187,
      "입주": 7188,
      "입증": 7189,
      "##등록": 7190,
      "완벽": 7191,
      "kb국민": 7192,
      "설전": 7193,
      "앞에": 7194,
      "알바": 7195,
      "알렉": 7196,
      "패럴림픽": 7197,
      "맞서": 7198,
      "##애틀": 7199,
      "건조": 7200,
      "목포": 7201,
      "창단": 7202,
      "저소득": 7203,
      "100명": 7204,
      "부산서": 7205,
      "금융시장": 7206,
      "13개": 7207,
      "총리와": 7208,
      "않다": 7209,
      "않겠다": 7210,
      "압축": 7211,
      "막바지": 7212,
      "멤버": 7213,
      "광주시": 7214,
      "사업자": 7215,
      "친정": 7216,
      "사이클": 7217,
      "기념촬영": 7218,
      "독일서": 7219,
      "테러조직": 7220,
      "블루": 7221,
      "질문": 7222,
      "특별전": 7223,
      "천안": 7224,
      "향한": 7225,
      "몰라": 7226,
      "문화재": 7227,
      "문화예술": 7228,
      "##삼성": 7229,
      "풀어": 7230,
      "풀세트": 7231,
      "nh농협": 7232,
      "밤부터": 7233,
      "tv토론": 7234,
      "이제는": 7235,
      "않았다": 7236,
      "왜곡": 7237,
      "최종구": 7238,
      "한진칼": 7239,
      "##ᆯ린더": 7240,
      "블랙홀": 7241,
      "봉사": 7242,
      "읽는": 7243,
      "덕분": 7244,
      "삶의": 7245,
      "걷기": 7246,
      "이주민": 7247,
      "쇼핑몰": 7248,
      "총력전": 7249,
      "떨어져": 7250,
      "아르헨티나": 7251,
      "쌀쌀": 7252,
      "흡수": 7253,
      "힐만": 7254,
      "단말기": 7255,
      "##ᅡᆷ보디아": 7256,
      "정동영": 7257,
      "스튜디오": 7258,
      "불확실성": 7259,
      "##엔지니어링": 7260,
      "리커창": 7261,
      "연합이매진": 7262,
      "드루킹": 7263,
      "강백호": 7264,
      "1주년": 7265,
      "6연승": 7266,
      "88": 7267,
      "9천": 7268,
      "es": 7269,
      "gm": 7270,
      "ma": 7271,
      "slb": 7272,
      "쇄": 7273,
      "캄보디아": 7274,
      "틀": 7275,
      "##똑": 7276,
      "##씬": 7277,
      "##1명": 7278,
      "##ᆩ은": 7279,
      "##스탄": 7280,
      "##리한": 7281,
      "##해진다": 7282,
      "대세": 7283,
      "대파": 7284,
      "##사관": 7285,
      "##도서관": 7286,
      "##정국": 7287,
      "##정권": 7288,
      "시카": 7289,
      "##전력": 7290,
      "##가락": 7291,
      "##같은": 7292,
      "##인데": 7293,
      "##인즈": 7294,
      "주권": 7295,
      "짓": 7296,
      "##숭": 7297,
      "##수령": 7298,
      "##성기": 7299,
      "사의": 7300,
      "사인": 7301,
      "사립": 7302,
      "전월": 7303,
      "전담": 7304,
      "전복": 7305,
      "전반기": 7306,
      "공군": 7307,
      "##통법": 7308,
      "유도": 7309,
      "유포": 7310,
      "유혈": 7311,
      "국면": 7312,
      "화려": 7313,
      "정착": 7314,
      "정취": 7315,
      "신당": 7316,
      "인프라": 7317,
      "##ᅳ르": 7318,
      "##나누": 7319,
      "##공정": 7320,
      "##공조": 7321,
      "연간": 7322,
      "연패": 7323,
      "##치기": 7324,
      "##조건": 7325,
      "경상": 7326,
      "중인": 7327,
      "부르": 7328,
      "추대": 7329,
      "김선": 7330,
      "김관": 7331,
      "##재난": 7332,
      "비례": 7333,
      "비공개": 7334,
      "##승호": 7335,
      "##발표": 7336,
      "고가": 7337,
      "고령": 7338,
      "보관": 7339,
      "보급": 7340,
      "보인다": 7341,
      "##들에게": 7342,
      "##맛": 7343,
      "##닐": 7344,
      "##학원": 7345,
      "한국노총": 7346,
      "모임": 7347,
      "자전": 7348,
      "무소속": 7349,
      "##교수": 7350,
      "해변": 7351,
      "##왔다": 7352,
      "대통령에": 7353,
      "##그다": 7354,
      "나의": 7355,
      "나무": 7356,
      "나올": 7357,
      "소말": 7358,
      "다수": 7359,
      "구상": 7360,
      "10주년": 7361,
      "##생물": 7362,
      "세금": 7363,
      "올레": 7364,
      "올랜": 7365,
      "올겨울": 7366,
      "##배상": 7367,
      "재현": 7368,
      "호위": 7369,
      "호흡": 7370,
      "관훈": 7371,
      "##디스플레이": 7372,
      "금강": 7373,
      "교섭": 7374,
      "샘": 7375,
      "훔": 7376,
      "왓": 7377,
      "트레이드": 7378,
      "단통법": 7379,
      "파워": 7380,
      "##말라": 7381,
      "베일": 7382,
      "임직원": 7383,
      "##ᅳ래프트": 7384,
      "릴레이": 7385,
      "입고": 7386,
      "축전": 7387,
      "##플릭스": 7388,
      "속초": 7389,
      "산간": 7390,
      "최고기온": 7391,
      "챌린": 7392,
      "미국에": 7393,
      "##처벌": 7394,
      "맞춰": 7395,
      "탈세": 7396,
      "저장": 7397,
      "##글로벌": 7398,
      "여자프로": 7399,
      "12년": 7400,
      "##평양": 7401,
      "ai스피커": 7402,
      "철거": 7403,
      "##불어": 7404,
      "홍콩서": 7405,
      "##캘린더": 7406,
      "점령": 7407,
      "있었다": 7408,
      "없어종합": 7409,
      "코로나19로": 7410,
      "##먼트": 7411,
      "버전": 7412,
      "페북": 7413,
      "참석자들": 7414,
      "##라이아웃": 7415,
      "##으며": 7416,
      "경쟁률": 7417,
      "수상자": 7418,
      "용병": 7419,
      "웨어": 7420,
      "##취소": 7421,
      "한미일": 7422,
      "풀타임": 7423,
      "##과학기술": 7424,
      "소설집": 7425,
      "병역": 7426,
      "부동산캘린더": 7427,
      "맹공": 7428,
      "사진전": 7429,
      "분양시장": 7430,
      "icbm": 7431,
      "2022년": 7432,
      "경영진": 7433,
      "##랜트": 7434,
      "루니": 7435,
      "라이브": 7436,
      "임명장": 7437,
      "##베이션": 7438,
      "따뜨": 7439,
      "쉽": 7440,
      "괴롭": 7441,
      "연말까지": 7442,
      "트라이아웃": 7443,
      "바르셀로나": 7444,
      "##맥스": 7445,
      "징역형": 7446,
      "김태형": 7447,
      "##토론회": 7448,
      "mbn": 7449,
      "벗어나": 7450,
      "크리스마스": 7451,
      "정지석": 7452,
      "나흘째": 7453,
      "##얀마": 7454,
      "ibk기업은행": 7455,
      "wto": 7456,
      "아우크스": 7457,
      "해운대": 7458,
      "넷플릭스": 7459,
      "##트럼프": 7460,
      "우상호": 7461,
      "kov": 7462,
      "선동열": 7463,
      "편의점": 7464,
      "##사령관": 7465,
      "비슷": 7466,
      "똑똑": 7467,
      "비예나": 7468,
      "slbm": 7469,
      "소말리아": 7470,
      "00": 7471,
      "1개": 7472,
      "5도": 7473,
      "5배": 7474,
      "5연패": 7475,
      "a매치": 7476,
      "sa": 7477,
      "게이": 7478,
      "끌어": 7479,
      "든": 7480,
      "싹": 7481,
      "앵커": 7482,
      "팽": 7483,
      "##메이": 7484,
      "##쇠": 7485,
      "##브론": 7486,
      "##덤": 7487,
      "##놔": 7488,
      "##2천": 7489,
      "##5년": 7490,
      "##3천": 7491,
      "##16": 7492,
      "##yt": 7493,
      "##이사에": 7494,
      "##시르": 7495,
      "##시키": 7496,
      "##에다": 7497,
      "##에만": 7498,
      "이자": 7499,
      "이건": 7500,
      "##대비": 7501,
      "##사는": 7502,
      "기각": 7503,
      "시애틀": 7504,
      "##고도": 7505,
      "##상승": 7506,
      "##인상에": 7507,
      "주시": 7508,
      "##붙": 7509,
      "##부진": 7510,
      "##아리": 7511,
      "사는": 7512,
      "##요청": 7513,
      "아빠": 7514,
      "아리랑": 7515,
      "한성": 7516,
      "한마": 7517,
      "##라고": 7518,
      "##명으로": 7519,
      "##유입": 7520,
      "유연": 7521,
      "유족": 7522,
      "유커": 7523,
      "화이트": 7524,
      "신화": 7525,
      "신약": 7526,
      "신흥": 7527,
      "##비서관": 7528,
      "가시": 7529,
      "##소형": 7530,
      "미얀마": 7531,
      "연수": 7532,
      "연예": 7533,
      "##개특위": 7534,
      "부각": 7535,
      "부처": 7536,
      "추억": 7537,
      "제7": 7538,
      "##연극": 7539,
      "김포": 7540,
      "여의도": 7541,
      "비전": 7542,
      "비박": 7543,
      "빅스": 7544,
      "조절": 7545,
      "보다": 7546,
      "보건": 7547,
      "보완": 7548,
      "우세": 7549,
      "강등": 7550,
      "서점": 7551,
      "영공": 7552,
      "영토": 7553,
      "##학기": 7554,
      "##학년": 7555,
      "한국기자협회": 7556,
      "모의": 7557,
      "자살": 7558,
      "무관": 7559,
      "##방향": 7560,
      "해지": 7561,
      "발레": 7562,
      "발족": 7563,
      "##러블": 7564,
      "##차량": 7565,
      "스스로": 7566,
      "##타석": 7567,
      "##타이어": 7568,
      "##여부": 7569,
      "다큐": 7570,
      "##내는": 7571,
      "구제": 7572,
      "##밖": 7573,
      "10만": 7574,
      "##려면": 7575,
      "세력": 7576,
      "##모델": 7577,
      "올가을": 7578,
      "바시르": 7579,
      "##배정": 7580,
      "##운전": 7581,
      "##달아": 7582,
      "##역서": 7583,
      "##약품": 7584,
      "##현안": 7585,
      "##툼": 7586,
      "##투갈": 7587,
      "실수": 7588,
      "실제": 7589,
      "성범죄": 7590,
      "북측": 7591,
      "북서부": 7592,
      "박상": 7593,
      "박탈": 7594,
      "##심판": 7595,
      "교실": 7596,
      "진압": 7597,
      "sk증권": 7598,
      "왔다": 7599,
      "거점": 7600,
      "배출": 7601,
      "ktx": 7602,
      "투런": 7603,
      "##넥": 7604,
      "로드": 7605,
      "로버": 7606,
      "트럼프가": 7607,
      "초반": 7608,
      "##복합": 7609,
      "분할": 7610,
      "베르": 7611,
      "임도": 7612,
      "계정": 7613,
      "돌연": 7614,
      "링": 7615,
      "리스크": 7616,
      "입성": 7617,
      "중국에": 7618,
      "##플래": 7619,
      "대표에": 7620,
      "최고가": 7621,
      "양양": 7622,
      "##철도": 7623,
      "적시": 7624,
      "11시": 7625,
      "패키지": 7626,
      "애틀": 7627,
      "직격": 7628,
      "건국": 7629,
      "건너": 7630,
      "국내외": 7631,
      "본인": 7632,
      "운전자": 7633,
      "심리": 7634,
      "##베르": 7635,
      "물가": 7636,
      "물질": 7637,
      "15년": 7638,
      "100만원": 7639,
      "##평통": 7640,
      "황사": 7641,
      "말컹": 7642,
      "테헤": 7643,
      "1천명": 7644,
      "못한": 7645,
      "연속골": 7646,
      "연구자": 7647,
      "##불안": 7648,
      "##퍼시픽": 7649,
      "막는다": 7650,
      "198": 7651,
      "부상종합": 7652,
      "##착륙": 7653,
      "친이란": 7654,
      "버튼": 7655,
      "프레": 7656,
      "140": 7657,
      "대선후보": 7658,
      "##혜진": 7659,
      "대화하는": 7660,
      "농업": 7661,
      "##30분": 7662,
      "최저치": 7663,
      "##민주당": 7664,
      "봄꽃": 7665,
      "몰린": 7666,
      "면접": 7667,
      "정보보호": 7668,
      "발언에": 7669,
      "폭염특보": 7670,
      "##홈쇼핑": 7671,
      "플랜": 7672,
      "gs건설": 7673,
      "바이러스": 7674,
      "##릴까": 7675,
      "들고": 7676,
      "들썩": 7677,
      "탑승": 7678,
      "시간당": 7679,
      "##농단": 7680,
      "수익성": 7681,
      "360": 7682,
      "응원단": 7683,
      "검색어": 7684,
      "등록금": 7685,
      "안타까": 7686,
      "증권사": 7687,
      "태양광": 7688,
      "측근": 7689,
      "만난다": 7690,
      "최악의": 7691,
      "##ᅱᆫ헨": 7692,
      "법무장관": 7693,
      "2016년": 7694,
      "##랭코프": 7695,
      "말레이시아": 7696,
      "김재환": 7697,
      "남아공": 7698,
      "인사말하는": 7699,
      "황금연휴": 7700,
      "인종차별": 7701,
      "앞세워": 7702,
      "컴퓨터": 7703,
      "유진투자": 7704,
      "수소탄실험": 7705,
      "스캔들": 7706,
      "원자력": 7707,
      "수감자": 7708,
      "팩트체크": 7709,
      "ecb": 7710,
      "메이저리그": 7711,
      "dmz": 7712,
      "시카고": 7713,
      "빅스비": 7714,
      "투런포": 7715,
      "애틀랜": 7716,
      "테헤란": 7717,
      "%·": 7718,
      "1안타": 7719,
      "1순위": 7720,
      "3자": 7721,
      "4번째": 7722,
      "6경기": 7723,
      "72": 7724,
      "7도": 7725,
      "82": 7726,
      "at": 7727,
      "era": 7728,
      "nyt": 7729,
      "록": 7730,
      "뮌헨": 7731,
      "옹": 7732,
      "져": 7733,
      "##ᆯ라": 7734,
      "##랄": 7735,
      "##낭": 7736,
      "##mbc": 7737,
      "##칸": 7738,
      "##4일": 7739,
      "##4년": 7740,
      "##3년": 7741,
      "##6회": 7742,
      "##pc": 7743,
      "##하던": 7744,
      "이중": 7745,
      "이병": 7746,
      "##지면": 7747,
      "##자기": 7748,
      "##원들": 7749,
      "대박": 7750,
      "##장으로": 7751,
      "기로": 7752,
      "싫": 7753,
      "##회관": 7754,
      "##회식": 7755,
      "##부대": 7756,
      "##부상": 7757,
      "##부담": 7758,
      "##일기": 7759,
      "##한파": 7760,
      "##성명": 7761,
      "사내": 7762,
      "아무": 7763,
      "아람": 7764,
      "전송": 7765,
      "##위대": 7766,
      "공채": 7767,
      "공영방송": 7768,
      "##세상": 7769,
      "국산": 7770,
      "화합": 7771,
      "수정": 7772,
      "수렁": 7773,
      "정비": 7774,
      "가고": 7775,
      "가전": 7776,
      "가야": 7777,
      "과반": 7778,
      "과총": 7779,
      "최신": 7780,
      "##조약": 7781,
      "중거리": 7782,
      "부채": 7783,
      "추적": 7784,
      "제치고": 7785,
      "##재판": 7786,
      "비자": 7787,
      "내줘": 7788,
      "##승째": 7789,
      "조지": 7790,
      "조속": 7791,
      "보러": 7792,
      "보증": 7793,
      "봇물": 7794,
      "오류": 7795,
      "##마켓": 7796,
      "상당": 7797,
      "상태": 7798,
      "모여": 7799,
      "자선": 7800,
      "뭉": 7801,
      "무너": 7802,
      "##방서": 7803,
      "##교섭": 7804,
      "어느": 7805,
      "방출": 7806,
      "감지": 7807,
      "일시": 7808,
      "소외": 7809,
      "##분만에": 7810,
      "문성": 7811,
      "다룬": 7812,
      "굿": 7813,
      "노출": 7814,
      "노딜": 7815,
      "##포트": 7816,
      "반복": 7817,
      "##청년": 7818,
      "##오스": 7819,
      "##오롱": 7820,
      "재도": 7821,
      "피부": 7822,
      "##거부": 7823,
      "##거나": 7824,
      "차원": 7825,
      "실현": 7826,
      "##디스": 7827,
      "장벽": 7828,
      "삼성폰": 7829,
      "외면": 7830,
      "외환": 7831,
      "##노선": 7832,
      "##감사": 7833,
      "##건아": 7834,
      "후랭코프": 7835,
      "##콧": 7836,
      "##코스": 7837,
      "특혜": 7838,
      "배럴": 7839,
      "트럭": 7840,
      "트렌": 7841,
      "투쟁": 7842,
      "감독과": 7843,
      "파다": 7844,
      "그대로": 7845,
      "역시": 7846,
      "초연": 7847,
      "당분간": 7848,
      "##데미": 7849,
      "##본다": 7850,
      "돌려": 7851,
      "승객": 7852,
      "##워키": 7853,
      "##추천": 7854,
      "러브": 7855,
      "속속": 7856,
      "산다": 7857,
      "산재": 7858,
      "독서": 7859,
      "독도": 7860,
      "올해는": 7861,
      "행위": 7862,
      "행정부": 7863,
      "코스타": 7864,
      "학부모": 7865,
      "애니": 7866,
      "##레인": 7867,
      "##온도": 7868,
      "##악산": 7869,
      "창의": 7870,
      "심재": 7871,
      "물결": 7872,
      "물류": 7873,
      "라건아": 7874,
      "딛고": 7875,
      "테스트": 7876,
      "##채권": 7877,
      "연구개발": 7878,
      "칩": 7879,
      "준다": 7880,
      "골드": 7881,
      "백인": 7882,
      "극장": 7883,
      "메리츠": 7884,
      "카카오게임즈": 7885,
      "50억원": 7886,
      "해외주식": 7887,
      "표결": 7888,
      "레드": 7889,
      "하락세": 7890,
      "관광지": 7891,
      "판매량": 7892,
      "키즈": 7893,
      "경찰관": 7894,
      "콘테": 7895,
      "석탄": 7896,
      "실적개선": 7897,
      "##라이프": 7898,
      "좋다": 7899,
      "질의": 7900,
      "퇴직": 7901,
      "##널리즘": 7902,
      "##접촉": 7903,
      "##참여": 7904,
      "영향력": 7905,
      "잠재": 7906,
      "이재명": 7907,
      "헤인즈": 7908,
      "참가자": 7909,
      "서울시향": 7910,
      "70주년": 7911,
      "요금할인": 7912,
      "얼마": 7913,
      "뛴": 7914,
      "혼돈": 7915,
      "조성진": 7916,
      "걸프": 7917,
      "이정미": 7918,
      "랩": 7919,
      "먹통": 7920,
      "흔적": 7921,
      "거리두": 7922,
      "가상현실": 7923,
      "관계자": 7924,
      "제2의": 7925,
      "최강희": 7926,
      "v30s": 7927,
      "따른": 7928,
      "##끼리": 7929,
      "##트웍스": 7930,
      "사무실": 7931,
      "##있어": 7932,
      "늦어": 7933,
      "케이블": 7934,
      "##요금제": 7935,
      "노사정": 7936,
      "유명산": 7937,
      "##폴리": 7938,
      "상한가": 7939,
      "플레이오프": 7940,
      "fc서울": 7941,
      "##리바운드": 7942,
      "김경수": 7943,
      "앞세운": 7944,
      "균형": 7945,
      "악성코드": 7946,
      "포켓몬고": 7947,
      "cctv": 7948,
      "번호이동": 7949,
      "##리조나": 7950,
      "독재자": 7951,
      "기후변화": 7952,
      "김주성": 7953,
      "포르투갈": 7954,
      "광복절": 7955,
      "벼랑": 7956,
      "양승동": 7957,
      "린드": 7958,
      "한라산": 7959,
      "능력": 7960,
      "무더기": 7961,
      "잠수함": 7962,
      "레스터시티": 7963,
      "실리콘": 7964,
      "화려한": 7965,
      "김관영": 7966,
      "웨어러블": 7967,
      "임도헌": 7968,
      "아람코": 7969,
      "1점": 7970,
      "1만명": 7971,
      "2기": 7972,
      "3연": 7973,
      "4도": 7974,
      "4배": 7975,
      "94": 7976,
      "96": 7977,
      "9시": 7978,
      "dl": 7979,
      "em": 7980,
      "iae": 7981,
      "ml": 7982,
      "na": 7983,
      "ue": 7984,
      "wk": 7985,
      "wp": 7986,
      "뜬다": 7987,
      "뭐": 7988,
      "셰": 7989,
      "쏠": 7990,
      "혐": 7991,
      "##먹": 7992,
      "##긍": 7993,
      "##둘": 7994,
      "##턱": 7995,
      "##뇌": 7996,
      "##눠": 7997,
      "##녕": 7998,
      "##팡": 7999,
      "##팽": 8000,
      "##페이스": 8001,
      "##ᆺ속": 8002,
      "##뚜": 8003,
      "##cm": 8004,
      "##ᅫ기": 8005,
      "##8명": 8006,
      "##it": 8007,
      "##ia": 8008,
      "##nk": 8009,
      "##ᅡᆫ시": 8010,
      "##이전": 8011,
      "##하기로": 8012,
      "##스컵": 8013,
      "##리산": 8014,
      "이래": 8015,
      "##어가는": 8016,
      "##서운": 8017,
      "##대생": 8018,
      "##해져": 8019,
      "##자흐": 8020,
      "##원대": 8021,
      "##장군": 8022,
      "##정신": 8023,
      "##국악": 8024,
      "시중": 8025,
      "##과서": 8026,
      "##전화": 8027,
      "##상태": 8028,
      "##인이": 8029,
      "##부패": 8030,
      "##부겸": 8031,
      "##일에": 8032,
      "지배": 8033,
      "지침": 8034,
      "앉": 8035,
      "아내": 8036,
      "전작": 8037,
      "전세계": 8038,
      "한도": 8039,
      "한산": 8040,
      "##통제": 8041,
      "##통위": 8042,
      "##세프": 8043,
      "정조": 8044,
      "정우": 8045,
      "신축": 8046,
      "신소재": 8047,
      "##동력": 8048,
      "##비리": 8049,
      "##비서": 8050,
      "##비상": 8051,
      "##비율": 8052,
      "인디": 8053,
      "##나마": 8054,
      "과태": 8055,
      "##공유": 8056,
      "##소로": 8057,
      "미만": 8058,
      "미투": 8059,
      "미흡": 8060,
      "연체": 8061,
      "제어": 8062,
      "김세": 8063,
      "김부겸": 8064,
      "##ᅯᆯ컴": 8065,
      "엿새": 8066,
      "비싼": 8067,
      "##우리": 8068,
      "고향": 8069,
      "##미널": 8070,
      "보잉": 8071,
      "오는": 8072,
      "오르": 8073,
      "오름": 8074,
      "오키나": 8075,
      "서해안": 8076,
      "##프리": 8077,
      "한국문학": 8078,
      "##란고": 8079,
      "무대에": 8080,
      "##무장": 8081,
      "위법": 8082,
      "나도": 8083,
      "낚시": 8084,
      "감동": 8085,
      "노린": 8086,
      "##포인트": 8087,
      "도서관": 8088,
      "코리안": 8089,
      "코오롱": 8090,
      "밖": 8091,
      "##역사": 8092,
      "##크라이나": 8093,
      "재고": 8094,
      "재검토": 8095,
      "피의": 8096,
      "##카데미": 8097,
      "##...": 8098,
      "관여": 8099,
      "관건": 8100,
      "차범": 8101,
      "성화": 8102,
      "성탄": 8103,
      "확실": 8104,
      "불러": 8105,
      "총회": 8106,
      "매도": 8107,
      "결단": 8108,
      "회고": 8109,
      "회수": 8110,
      "##론에": 8111,
      "교도": 8112,
      "진보": 8113,
      "후반기": 8114,
      "특사": 8115,
      "##ᆯ런": 8116,
      "##급여": 8117,
      "민원": 8118,
      "프로모션": 8119,
      "파주": 8120,
      "파행": 8121,
      "##네트웍스": 8122,
      "더불어": 8123,
      "초기": 8124,
      "초점": 8125,
      "초고속": 8126,
      "##난다": 8127,
      "##00만원": 8128,
      "계곡": 8129,
      "리얼미터": 8130,
      "합법": 8131,
      "열전": 8132,
      "타자": 8133,
      "설비": 8134,
      "설욕": 8135,
      "채무": 8136,
      "달아": 8137,
      "##히기": 8138,
      "법사위": 8139,
      "패션": 8140,
      "핵보유": 8141,
      "애도": 8142,
      "애리조나": 8143,
      "직전": 8144,
      "직면": 8145,
      "30분": 8146,
      "저항": 8147,
      "##징계": 8148,
      "##ᆯ리스": 8149,
      "##예금": 8150,
      "종목": 8151,
      "##목표": 8152,
      "물고": 8153,
      "##배구조": 8154,
      "개막전서": 8155,
      "##웹": 8156,
      "간판": 8157,
      "터키군": 8158,
      "아이들": 8159,
      "금융당국": 8160,
      "##골프": 8161,
      "허리": 8162,
      "국제표준": 8163,
      "국회서": 8164,
      "넘었다": 8165,
      "##블럼": 8166,
      "순유입": 8167,
      "골란고": 8168,
      "있게": 8169,
      "메신저": 8170,
      "없어도": 8171,
      "카카오페이": 8172,
      "평양공동": 8173,
      "표창": 8174,
      "히어로": 8175,
      "##협회장": 8176,
      "친환경": 8177,
      "협력사": 8178,
      "낮아": 8179,
      "##휴가": 8180,
      "농성": 8181,
      "구글플레이": 8182,
      "필요한": 8183,
      "대북정책": 8184,
      "편입": 8185,
      "외교부": 8186,
      "40대": 8187,
      "천재": 8188,
      "##문화재": 8189,
      "용인": 8190,
      "중단해야": 8191,
      "몰아": 8192,
      "발사체": 8193,
      "난민구": 8194,
      "하루키": 8195,
      "팔려": 8196,
      "업무보고": 8197,
      "60대": 8198,
      "헬로": 8199,
      "##잡기": 8200,
      "만나다": 8201,
      "밀려": 8202,
      "밀워키": 8203,
      "tv조선": 8204,
      "##촉구": 8205,
      "체험존": 8206,
      "바꾸": 8207,
      "##땐": 8208,
      "뛴다": 8209,
      "왕이": 8210,
      "김영남": 8211,
      "싶은": 8212,
      "김종민": 8213,
      "사전예약": 8214,
      "답하는": 8215,
      "곳곳서": 8216,
      "조기총선": 8217,
      "뉴욕서": 8218,
      "라이벌": 8219,
      "자유한국당": 8220,
      "필리버스터": 8221,
      "달라진": 8222,
      "치료제": 8223,
      "초등생": 8224,
      "르노": 8225,
      "태양전지": 8226,
      "프리미어": 8227,
      "크게": 8228,
      "전년보다": 8229,
      "임시국회": 8230,
      "아니라": 8231,
      "여파로": 8232,
      "심각한": 8233,
      "김기식": 8234,
      "송환법": 8235,
      "2017년": 8236,
      "가계부채": 8237,
      "##만9천": 8238,
      "##만9천원": 8239,
      "횡령": 8240,
      "진상조사": 8241,
      "voa": 8242,
      "기획전": 8243,
      "뿌리": 8244,
      "조현우": 8245,
      "부적절": 8246,
      "폴더블폰": 8247,
      "##스러운": 8248,
      "올랜도": 8249,
      "관훈클럽": 8250,
      "kovo": 8251,
      "직격탄": 8252,
      "거리두기": 8253,
      "린드블럼": 8254,
      "iaea": 8255,
      "uefa": 8256,
      "##ᅡᆫ시스코": 8257,
      "과태료": 8258,
      "오키나와": 8259,
      "차범근": 8260,
      "평양공동선언": 8261,
      "3도": 8262,
      "6강": 8263,
      "9도": 8264,
      "bm": 8265,
      "ifa": 8266,
      "tf": 8267,
      "u23": 8268,
      "곡": 8269,
      "겸": 8270,
      "론": 8271,
      "솔로": 8272,
      "쐐기": 8273,
      "컷": 8274,
      "##ᆯ스": 8275,
      "##뒤": 8276,
      "##녁": 8277,
      "##9명": 8278,
      "##꼬": 8279,
      "##2명": 8280,
      "##ᆻ을까": 8281,
      "##3일": 8282,
      "##po": 8283,
      "##ig": 8284,
      "##이터": 8285,
      "##시도": 8286,
      "##에선": 8287,
      "##하지만": 8288,
      "##리다": 8289,
      "##리비아": 8290,
      "##리얼미터": 8291,
      "이송": 8292,
      "이색": 8293,
      "##지로": 8294,
      "##대식": 8295,
      "##자연": 8296,
      "대대": 8297,
      "대림": 8298,
      "##사실": 8299,
      "##주로": 8300,
      "기조": 8301,
      "##정은": 8302,
      "시신": 8303,
      "##전에서": 8304,
      "##가입": 8305,
      "##가결": 8306,
      "##보장": 8307,
      "##보합": 8308,
      "##회계": 8309,
      "지사": 8310,
      "##수출": 8311,
      "##수익": 8312,
      "사표": 8313,
      "사직": 8314,
      "사냥": 8315,
      "아모": 8316,
      "아세안": 8317,
      "전에": 8318,
      "전승": 8319,
      "한컴": 8320,
      "개원": 8321,
      "공기": 8322,
      "##세탁": 8323,
      "수치": 8324,
      "수순": 8325,
      "정원": 8326,
      "정유": 8327,
      "정확": 8328,
      "신공항": 8329,
      "##동진": 8330,
      "##낮": 8331,
      "##나운": 8332,
      "##행정": 8333,
      "##소장": 8334,
      "최룡": 8335,
      "연세대": 8336,
      "##치로": 8337,
      "경연": 8338,
      "##민정": 8339,
[...]
